<unk>	0
<s>	0
</s>	0
න්	-0
▁ක	-1
▁ව	-2
▁ප	-3
▁ස	-4
▁ම	-5
ත්	-6
ිය	-7
▁අ	-8
ක්	-9
▁ද	-10
▁න	-11
▁හ	-12
▁ත	-13
න්න	-14
▁ග	-15
▁එ	-16
▁බ	-17
ුව	-18
ම්	-19
ති	-20
ස්	-21
▁ල	-22
ෙන	-23
ාව	-24
යි	-25
▁වි	-26
ාර	-27
ල්	-28
▁ය	-29
වා	-30
ීම	-31
▁කර	-32
▁ඇ	-33
ින්	-34
▁ර	-35
ෙන්	-36
ිර	-37
▁ඉ	-38
තු	-39
ික	-40
ගේ	-41
▁සි	-42
ලා	-43
නය	-44
▁ජ	-45
▁ආ	-46
▁ඔ	-47
ර්	-48
ැන	-49
යා	-50
▁ඒ	-51
මා	-52
රු	-53
▁ප්	-54
යේ	-55
ද්	-56
▁උ	-57
▁කිය	-58
▁මේ	-59
ිස	-60
▁එක	-61
නා	-62
යක්	-63
දු	-64
තා	-65
▁අප	-66
ාල	-67
▁මෙ	-68
ිබ	-69
ුණ	-70
තර	-71
ිව	-72
▁වැ	-73
ින	-74
▁බව	-75
න්නේ	-76
▁වෙ	-77
ිත	-78
දී	-79
▁නැ	-80
▁දෙ	-81
ශ්	-82
▁හැ	-83
ිට	-84
දා	-85
▁කො	-86
▁නො	-87
▁අව	-88
ත්ත	-89
▁පැ	-90
▁සහ	-91
ාර්	-92
ට්	-93
ිම	-94
ිප	-95
හා	-96
▁තිබ	-97
ක්ෂ	-98
රා	-99
ීමට	-100
යක	-101
යට	-102
රී	-103
▁පු	-104
ත්ව	-105
ල්ල	-106
▁කළ	-107
නු	-108
මු	-109
▁කිර	-110
රි	-111
කු	-112
ියා	-113
▁ඇති	-114
සු	-115
▁මහ	-116
▁ක්	-117
ිල	-118
▁ගැන	-119
▁වෙන	-120
▁සිට	-121
යෙන්	-122
රණ	-123
වු	-124
▁දැ	-125
▁සම	-126
▁සං	-127
කා	-128
හි	-129
▁හා	-130
▁වැඩ	-131
▁පො	-132
හු	-133
▁මා	-134
▁මු	-135
ෙස	-136
දි	-137
▁පි	-138
යන්	-139
▁1	-140
තාව	-141
▁අන	-142
▁කරන	-143
වර	-144
වත්	-145
▁වන	-146
ේශ	-147
▁සඳ	-148
වි	-149
▁යු	-150
ෙක්	-151
▁තිය	-152
න්ද	-153
▁2	-154
කි	-155
▁තම	-156
සේ	-157
හැ	-158
රුව	-159
▁අතර	-160
ංග	-161
ගෙන	-162
කට	-163
න්ත	-164
ියේ	-165
▁මම	-166
▁බල	-167
ඩා	-168
බා	-169
පු	-170
▁අද	-171
ැබ	-172
▁ච	-173
▁බැ	-174
▁නම්	-175
▁දු	-176
වල	-177
ිසා	-178
ණ්	-179
▁සම්	-180
හෙ	-181
මින්	-182
▁තු	-183
▁එක්	-184
▁වූ	-185
ිස්	-186
▁පෙ	-187
ාන	-188
▁ලෙස	-189
▁ස්	-190
▁ට	-191
ද්ධ	-192
▁වල	-193
යු	-194
න්ට	-195
▁කිරීම	-196
▁භ	-197
රම	-198
▁සු	-199
▁මෙම	-200
▁නි	-201
තිය	-202
▁සා	-203
▁ඔහු	-204
▁නිසා	-205
▁ලං	-206
ප්	-207
▁සැ	-208
ධ්	-209
▁හො	-210
ෙනවා	-211
▁ජන	-212
ාවේ	-213
▁ශ	-214
▁සඳහා	-215
▁කරන්න	-216
▁පිළ	-217
▁ඇත	-218
රේ	-219
වන	-220
▁විස	-221
වස	-222
ුණු	-223
▁රා	-224
කර	-225
ියට	-226
කාර	-227
▁මො	-228
▁ඔබ	-229
▁ගො	-230
හන්	-231
වේ	-232
▁මට	-233
▁කල	-234
▁රට	-235
▁කු	-236
පා	-237
▁කාල	-238
▁එම	-239
▁වගේ	-240
ෙකු	-241
▁අය	-242
තුව	-243
▁සිය	-244
▁ලබා	-245
▁ඕ	-246
නවා	-247
මි	-248
▁වී	-249
▁ශ්	-250
ච්	-251
▁ලැබ	-252
ස්ථ	-253
න්නෙ	-254
ැති	-255
නේ	-256
▁පා	-257
ගම	-258
න්ධ	-259
ණ්ඩ	-260
▁නෑ	-261
▁කැ	-262
න්ගේ	-263
ස්ස	-264
ව්	-265
▁කට	-266
▁අපි	-267
▁ජා	-268
ලු	-269
▁දී	-270
රිය	-271
▁කියලා	-272
ානය	-273
ීය	-274
▁කෙ	-275
සි	-276
ුවේ	-277
ළු	-278
ණය	-279
ුවන්	-280
තික	-281
▁විය	-282
ෂ්	-283
▁ඉද	-284
ලි	-285
▁ගන්න	-286
ග්	-287
දේශ	-288
▁බො	-289
▁සේ	-290
හො	-291
ැයි	-292
▁ඊ	-293
▁20	-294
▁යන	-295
ත්ම	-296
▁සමා	-297
▁අපේ	-298
▁වේ	-299
▁රාජ	-300
▁දැන	-301
▁හිත	-302
වැ	-303
▁විසින්	-304
▁නා	-305
මක්	-306
නි	-307
▁ගැ	-308
▁යුතු	-309
රට	-310
ධිප	-311
හල	-312
▁තර	-313
ඩු	-314
▁ඔවු	-315
ැනි	-316
▁මත	-317
▁හෝ	-318
▁රැ	-319
▁දි	-320
ඩි	-321
▁මහතා	-322
▁දේ	-323
ත්තේ	-324
නම්	-325
ගල	-326
▁නිර	-327
▁පසු	-328
ටම	-329
සා	-330
▁එය	-331
ධිපති	-332
▁පළ	-333
▁එහෙ	-334
▁නිය	-335
▁කොට	-336
▁විශ	-337
▁කා	-338
▁දෙන	-339
▁ආර	-340
▁සම්බ	-341
යින්	-342
තුරු	-343
▁ජී	-344
මණ	-345
▁පිර	-346
ිහ	-347
ගන්න	-348
ිත්	-349
රණය	-350
ාවට	-351
▁කිරීමට	-352
වෙ	-353
ධාර	-354
▁සිදු	-355
ගෙ	-356
▁පිළිබ	-357
ඳු	-358
ඩ්	-359
මේ	-360
▁අර	-361
▁ඒක	-362
▁දේශ	-363
පාල	-364
▁එකක්	-365
ාවක්	-366
කො	-367
වරයා	-368
රති	-369
මාත්	-370
▁ඉති	-371
දුව	-372
▁සම්බන්ධ	-373
රික	-374
▁දැන්	-375
ටු	-376
▁පහ	-377
වී	-378
▁ලංක	-379
යුතු	-380
▁ඉදිර	-381
▁තමයි	-382
▁පොල	-383
ෝග	-384
රය	-385
නාධිපති	-386
▁නැති	-387
▁ගෙන	-388
▁විට	-389
▁හිට	-390
▁ගෙ	-391
▁ව්	-392
▁උප	-393
භා	-394
ුරු	-395
කාශ	-396
හස්	-397
ද්ද	-398
ුවට	-399
ුවෙන්	-400
▁වස	-401
ටි	-402
▁පමණ	-403
▁ජනාධිපති	-404
▁ඉන්න	-405
ච්ච	-406
රියා	-407
ගත	-408
කම්	-409
▁කියල	-410
▁මින	-411
▁වර්	-412
▁දින	-413
කිය	-414
▁අත්	-415
ගත්	-416
▁ඇතු	-417
ීමේ	-418
ුණා	-419
රෙ	-420
ලේ	-421
▁රජ	-422
▁දා	-423
▁පත්	-424
▁මගේ	-425
ෝජ	-426
▁හෙ	-427
කින්	-428
▁වා	-429
▁ධ	-430
▁මැ	-431
▁කටයුතු	-432
▁පිළිබඳ	-433
මට	-434
ංශ	-435
▁එහි	-436
වල්	-437
▁කියන	-438
▁අමාත්	-439
▁කළේ	-440
▁කිස	-441
යාල	-442
යාප	-443
ොර	-444
ෝක	-445
ිව්	-446
▁අම	-447
ධාන	-448
▁හේ	-449
▁නැහැ	-450
▁ගොඩ	-451
න්නට	-452
▁හොඳ	-453
ද්ගල	-454
ක්ක	-455
ත්වය	-456
▁ඇම	-457
▁3	-458
▁වඩා	-459
▁තුළ	-460
▁කතා	-461
ීන්	-462
▁හැකි	-463
▁ලිය	-464
රකාශ	-465
▁දක්	-466
▁තව	-467
මන්	-468
▁අධ	-469
ම්බ	-470
▁ඔය	-471
මිණ	-472
▁පිට	-473
▁යා	-474
දෙන	-475
▁ටික	-476
ියක්	-477
▁සිදුව	-478
▁ඕන	-479
▁වාර්	-480
▁දෙක	-481
▁හරි	-482
▁වැඩි	-483
තන	-484
▁201	-485
ගෙන්	-486
▁නෙ	-487
▁අනුව	-488
▁හර	-489
තේ	-490
▁බවයි	-491
▁ඩ	-492
ෙන්නේ	-493
ේෂ	-494
▁ජාතික	-495
ොත්	-496
▁අවස්ථ	-497
රහ	-498
▁තා	-499
▁ජීව	-500
පත්	-501
▁නව	-502
▁විශ්	-503
හොම	-504
▁යන්න	-505
▁නිව	-506
▁සමාජ	-507
නයක්	-508
නයේ	-509
▁ලංකා	-510
පති	-511
වීම	-512
▁ලො	-513
▁විද්	-514
▁0	-515
වති	-516
ේද	-517
තුර	-518
▁පරි	-519
දර	-520
▁හි	-521
▁වු	-522
ෝධ	-523
▁බවට	-524
▁ෆ	-525
▁අනු	-526
▁පර	-527
▁සිර	-528
▁අවස	-529
ීම්	-530
▁වෙලා	-531
▁පැමිණ	-532
▁සිටි	-533
▁සමග	-534
▁තිබේ	-535
▁ආය	-536
වර්	-537
▁නිල	-538
විධ	-539
රදේශ	-540
ත්මක	-541
වාස	-542
▁පෙර	-543
▁වෙත	-544
▁බ්	-545
▁කියා	-546
▁එහෙම	-547
▁අහ	-548
▁ලෝක	-549
▁අධ්	-550
මුත්	-551
▁නී	-552
සිය	-553
වාද	-554
වත	-555
▁දේශපාල	-556
▁අවශ්	-557
▁යො	-558
ට්ට	-559
▁උත්	-560
▁ඔවුන්	-561
මන	-562
▁සඳහන්	-563
▁ගත්	-564
න්ත්	-565
සුව	-566
▁බලා	-567
ගිය	-568
▁නිර්	-569
මය	-570
▁පුළ	-571
▁හැම	-572
▁සො	-573
▁රු	-574
විය	-575
▁ළ	-576
▁හිම	-577
▁ස්ථ	-578
▁කාර්	-579
▁පක්ෂ	-580
▁එක්ක	-581
▁තවත්	-582
▁නමුත්	-583
රුණ	-584
චාර	-585
රධාන	-586
▁ගත	-587
ින්ද	-588
▁මුද	-589
▁පුද්ගල	-590
ංච	-591
▁මග	-592
▁කෙන	-593
හන	-594
රශ්	-595
මත්	-596
▁සිං	-597
▁වෙන්න	-598
▁බු	-599
▁ගිය	-600
▁පවස	-601
▁ආණ්ඩ	-602
▁පාල	-603
හෝ	-604
▁පාර්	-605
▁සිටින	-606
▁වලට	-607
▁විශේෂ	-608
▁තිබෙනවා	-609
ංක	-610
▁තියෙන	-611
▁යට	-612
ිරි	-613
▁වැනි	-614
බ්	-615
▁මාධ්	-616
▁නිද	-617
වූ	-618
ෙන්ම	-619
ුවා	-620
▁ලේ	-621
▁ඉතා	-622
▁තී	-623
▁කතාව	-624
▁හද	-625
ිමේ	-626
▁නැත	-627
▁හමු	-628
ිලි	-629
කොට	-630
නව	-631
▁මේක	-632
▁5	-633
▁ජනතාව	-634
▁අධික	-635
▁දෙයක්	-636
▁සේව	-637
ෑම	-638
▁ජීවිත	-639
▁කී	-640
▁බවත්	-641
ුවක්	-642
ටන්	-643
▁මූ	-644
රුවන්	-645
▁බොහෝ	-646
වරු	-647
▁කිව්	-648
▁වීම	-649
දෙ	-650
ලින්	-651
▁අත	-652
▁ඇත්තේ	-653
▁දෙන්න	-654
ීත	-655
▁ඉන්	-656
▁පැවැ	-657
▁පුළුවන්	-658
▁19	-659
▁මහා	-660
▁තේ	-661
▁ගැනීමට	-662
▁කරමින්	-663
▁මොක	-664
▁අස	-665
▁වෙනුවෙන්	-666
ගය	-667
▁හේතුව	-668
සක්	-669
▁පිරිස	-670
ුවත්	-671
▁ජය	-672
▁උද	-673
▁මං	-674
යකට	-675
▁විතර	-676
▁හැකිය	-677
▁භාව	-678
▁සෙ	-679
ිනි	-680
පිය	-681
▁ලබ	-682
ළඹ	-683
▁ඊට	-684
▁රාජ්	-685
▁මිල	-686
ර්ශ	-687
▁ඉදිරිප	-688
▁තියෙනවා	-689
▁4	-690
▁ඒත්	-691
ක්ෂණ	-692
▁තමා	-693
▁නායක	-694
▁ගැනීම	-695
ූප	-696
වැනි	-697
රව	-698
ගැන	-699
ල්ලා	-700
▁වන්නේ	-701
▁පාර	-702
ුණේ	-703
මාණ	-704
▁වශ	-705
▁ඉතින්	-706
▁දිය	-707
ලය	-708
පක්ෂ	-709
ජා	-710
▁තැන	-711
▁සම්බන්ධයෙන්	-712
▁වෙනවා	-713
ස්ක	-714
▁ඔයා	-715
▁අඩ	-716
ලො	-717
00	-718
▁හම	-719
▁ලිප	-720
ණ්ඩා	-721
▁ඇය	-722
▁ඒවා	-723
ම්ප	-724
ණි	-725
▁කරන්නේ	-726
ල්ප	-727
ීට	-728
නයට	-729
ලිය	-730
▁මාර්	-731
රප	-732
යම	-733
▁වසර	-734
▁ඇත්ත	-735
▁මෙහෙ	-736
වර්ධ	-737
▁කළා	-738
▁සිංහල	-739
▁සද	-740
වලට	-741
▁එකේ	-742
▁අවුරු	-743
▁ලංකාවේ	-744
▁වශයෙන්	-745
▁ගණ	-746
▁කරලා	-747
▁නිලධාර	-748
යේදී	-749
තුමා	-750
▁කියන්නේ	-751
සට	-752
▁කැම	-753
දන	-754
▁සාමා	-755
▁කණ්ඩා	-756
▁පාර්ල	-757
▁කරනවා	-758
▁වෙල	-759
▁වෙනස්	-760
▁වෛ	-761
▁නියම	-762
හිට	-763
▁වාර්තා	-764
යය	-765
▁විම	-766
▁දේශපාලන	-767
▁ලද	-768
▁රටේ	-769
▁කියන්න	-770
▁පසුගිය	-771
ම්භ	-772
කය	-773
▁තොර	-774
▁පාර්ලිමේ	-775
▁දක්වා	-776
▁මැති	-777
▁රෝ	-778
රද	-779
▁අයි	-780
ලට	-781
භාව	-782
▁කලා	-783
▁ඉදිරිපත්	-784
නායක	-785
▁සමඟ	-786
▁බෙ	-787
ැන්	-788
▁ඉහ	-789
▁ඉඩ	-790
සත්	-791
▁ගේ	-792
▁මෙහි	-793
▁නික	-794
හාර	-795
▁අඩු	-796
▁විද	-797
▁ආරක්ෂ	-798
▁ඡ	-799
▁පස්	-800
▁පසුව	-801
ස්ත	-802
▁පොලිස්	-803
ළි	-804
▁වග	-805
▁ගා	-806
ර්ථ	-807
▁පත්ව	-808
▁එසේ	-809
කුණු	-810
▁සැල	-811
න්නා	-812
වාදී	-813
▁තිබු	-814
▁කෝ	-815
ෂණ	-816
▁කොළඹ	-817
භාග	-818
▁ආකාර	-819
ම්ම	-820
▁සමහ	-821
හන්සේ	-822
▁පැවැත්ව	-823
▁තරග	-824
ෙයි	-825
න්ව	-826
ිහිප	-827
ෙහි	-828
▁තත්	-829
▁පෙන	-830
▁දැක්	-831
▁පළා	-832
▁පැහැ	-833
තින්	-834
▁කිහිප	-835
▁ආස	-836
කම	-837
▁නග	-838
හිර	-839
▁ආරම්භ	-840
▁අපිට	-841
▁සියලු	-842
▁කිරීමේ	-843
▁හිටපු	-844
▁එකට	-845
▁මෙය	-846
▁භා	-847
▁අභ	-848
▁ආද	-849
▁සතු	-850
න්ඩ	-851
ණු	-852
▁ත්	-853
▁ලක්	-854
▁මහින්ද	-855
▁එන	-856
තනය	-857
▁වලින්	-858
ුත්	-859
▁ගමන්	-860
▁නොව	-861
දිහ	-862
රක	-863
▁පිහිට	-864
▁කොහොම	-865
ඛ්	-866
ස්ට්	-867
▁පාස	-868
▁පවති	-869
▁පරී	-870
▁නොහැ	-871
රාධ	-872
▁වෛද්	-873
නෙ	-874
▁කාර	-875
නත්	-876
▁චිත්	-877
▁වගේම	-878
▁මිනිස්	-879
▁පිළි	-880
▁නොම	-881
▁6	-882
▁මන්ත්	-883
ිසු	-884
▁මි	-885
▁එක්සත්	-886
▁පිය	-887
ූර්	-888
ජ්	-889
යව	-890
▁දිග	-891
▁පිළිබඳව	-892
▁මගින්	-893
▁කෙනෙක්	-894
▁නැවත	-895
▁අදහස්	-896
▁තමන්	-897
▁බි	-898
▁බලන්න	-899
ීමක්	-900
▁නිදහස්	-901
▁බ්ලො	-902
ලක්	-903
▁දේවල්	-904
▁පැවස	-905
▁ඔහුගේ	-906
▁අපට	-907
▁උඹ	-908
▁විශාල	-909
▁සිටියේ	-910
▁අලු	-911
▁මුදල්	-912
විට	-913
ලික	-914
▁එයා	-915
ච්ඡ	-916
▁ඉන්ද	-917
▁නීති	-918
▁ගැට	-919
▁කෙස	-920
▁සැක	-921
ෝද	-922
සිං	-923
▁දරුව	-924
▁එහෙත්	-925
▁ලොකු	-926
▁පෙන්	-927
▁අවසන්	-928
▁ලා	-929
රියාත්මක	-930
▁කම	-931
ානයේ	-932
▁එරෙ	-933
රැ	-934
▁නියෝජ	-935
ීන	-936
▁වට	-937
▁සංවිධ	-938
▁කවු	-939
▁තුල	-940
▁රාජපක්ෂ	-941
ටත්	-942
▁පමණක්	-943
▁ශි	-944
ගො	-945
▁සභා	-946
▁වැට	-947
▁වැද	-948
▁විර	-949
▁මාස	-950
▁තියෙන්නේ	-951
▁දිව	-952
▁තරම්	-953
දාළ	-954
▁ගියා	-955
වර්ධන	-956
තක	-957
▁මීට	-958
වද	-959
▁සිද්ධ	-960
▁වෙයි	-961
▁කාන්	-962
▁අවුරුදු	-963
ාර්ථ	-964
▁සොයා	-965
▁කඩ	-966
▁දෙප	-967
▁කිසි	-968
▁ගොඩක්	-969
▁7	-970
සිංහ	-971
▁රෝග	-972
▁සාක	-973
▁ඉල්ල	-974
▁තිබෙන	-975
වරණ	-976
වින්	-977
▁පී	-978
ංචි	-979
නාව	-980
▁කරයි	-981
යකින්	-982
▁දවස	-983
▁යම්	-984
▁ඊයේ	-985
▁දැනු	-986
ජන	-987
වෙයි	-988
▁මධ්	-989
මයි	-990
▁අන්ත	-991
▁බැල	-992
කයන්	-993
▁විශ්ව	-994
▁කරනු	-995
▁ගන	-996
ියෙන්	-997
▁වුණා	-998
▁ඇතුළු	-999
▁බ්ලොග්	-1000
▁අදාළ	-1001
▁ඇවි	-1002
මාණය	-1003
▁ලංකාව	-1004
▁අවස්ථාව	-1005
▁පටන්	-1006
නට	-1007
ස්තර	-1008
▁විදු	-1009
▁ඔබට	-1010
▁බෝ	-1011
රෝ	-1012
මාර	-1013
රයේ	-1014
ෙනි	-1015
රස	-1016
▁ලබන	-1017
▁රථ	-1018
වන්න	-1019
වීමට	-1020
සික	-1021
▁මණ්ඩ	-1022
▁රුපිය	-1023
රක්	-1024
රටත්	-1025
යාව	-1026
▁ගෙදර	-1027
▁තෙ	-1028
▁විරෝධ	-1029
වට	-1030
▁අංශ	-1031
කරු	-1032
▁සී	-1033
▁විවිධ	-1034
▁ගුවන්	-1035
▁ග්	-1036
▁පුල	-1037
▁බා	-1038
▁කොම	-1039
▁විදිහ	-1040
ඩිය	-1041
▁පවු	-1042
▁වහන්සේ	-1043
▁යටතේ	-1044
▁මාර්ග	-1045
▁දහ	-1046
▁දන්න	-1047
▁කලින්	-1048
▁සදහා	-1049
පය	-1050
▁ගි	-1051
රත්	-1052
▁අන්	-1053
▁8	-1054
▁දෙම	-1055
ංගුවට	-1056
▁ලේකම්	-1057
▁එපා	-1058
▁මිය	-1059
▁හමුදා	-1060
යන්තර	-1061
න්දු	-1062
රපට	-1063
අඩ	-1064
▁සට	-1065
▁බස්	-1066
▁නොවේ	-1067
ෙත්	-1068
▁පොඩි	-1069
▁එල්ල	-1070
▁පවතින	-1071
▁සාකච්ඡ	-1072
ටර්	-1073
▁රුපියල්	-1074
▁එත	-1075
ාර්ය	-1076
යෙක්	-1077
▁මෙන්ම	-1078
▁හැබ	-1079
යාපාර	-1080
▁පෝ	-1081
▁සිටිය	-1082
▁හඳු	-1083
ම්මා	-1084
▁ආර්ථ	-1085
▁යැයි	-1086
▁මිනිස්සු	-1087
හිව	-1088
වාහ	-1089
▁සූ	-1090
ිසි	-1091
▁පිල	-1092
▁ඉහළ	-1093
▁අත්අඩ	-1094
ෙන්නෙ	-1095
හුණ	-1096
ගාර	-1097
ීමෙන්	-1098
න්තු	-1099
▁ගහ	-1100
▁සමහර	-1101
▁කෙසේ	-1102
ෙකුට	-1103
▁බැරි	-1104
▁කාලය	-1105
ගා	-1106
▁වැදගත්	-1107
රිකා	-1108
▁හොද	-1109
▁ඔබේ	-1110
▁විදියට	-1111
▁ටිකක්	-1112
▁සුදු	-1113
▁10	-1114
▁ආර්ථික	-1115
▁මොකද	-1116
▁පුරා	-1117
▁බෑ	-1118
▁පිරිසක්	-1119
▁ගොස්	-1120
▁අත්අඩංගුවට	-1121
ිහින්	-1122
▁පළාත්	-1123
රිත	-1124
▁හු	-1125
▁විශ්වාස	-1126
▁කණ්ඩාය	-1127
▁සහිත	-1128
රදේශයේ	-1129
ලෙ	-1130
ච්චි	-1131
▁මුල්	-1132
▁කෑ	-1133
▁වසරේ	-1134
▁නම	-1135
ිමි	-1136
ේන	-1137
න්ද්	-1138
▁උනා	-1139
ාවෙන්	-1140
▁තොරතුරු	-1141
▁තිබූ	-1142
▁සහභාග	-1143
ිමින්	-1144
දැ	-1145
▁නියමිත	-1146
▁යෝජ	-1147
▁වෙන්නේ	-1148
ුවර	-1149
▁විනා	-1150
▁පැවති	-1151
▁යුද්ධ	-1152
▁හැක	-1153
▁තරුණ	-1154
බු	-1155
▁සාමාන්	-1156
ාය	-1157
යකු	-1158
ලව	-1159
කිර	-1160
හස	-1161
▁අග	-1162
දය	-1163
කරුවන්	-1164
▁වෙනත්	-1165
රො	-1166
▁ඉඳ	-1167
පො	-1168
▁නේද	-1169
▁දැක	-1170
▁ඡන්ද	-1171
▁යෙ	-1172
▁ගත්ත	-1173
▁200	-1174
▁‍	-1175
ර්ම	-1176
▁වය	-1177
▁ඝ	-1178
▁දිස්	-1179
▁නොවන	-1180
▁කළේය	-1181
▁අති	-1182
▁වෙළ	-1183
▁ගන්නා	-1184
දීම	-1185
ියන්	-1186
ෂ්ඨ	-1187
▁එන්න	-1188
▁කේ	-1189
කරන	-1190
▁අප්	-1191
කෝ	-1192
ිතා	-1193
ල්ලි	-1194
▁පැහැද	-1195
▁එරෙහිව	-1196
▁දෙදෙන	-1197
▁හැබැයි	-1198
▁ගිහින්	-1199
▁පොලිස	-1200
▁යුතුය	-1201
කළ	-1202
▁ඉවත්	-1203
▁ගෝ	-1204
රදි	-1205
නිල්	-1206
▁උත්ස	-1207
▁මතක	-1208
▁කම්	-1209
ළුව	-1210
වරුන්	-1211
▁පස්සේ	-1212
දින	-1213
▁වූයේ	-1214
▁තීරණය	-1215
▁කරගෙන	-1216
▁සත්	-1217
▁මාර	-1218
ප්ප	-1219
මාන	-1220
▁හේතුවෙන්	-1221
▁පැත්ත	-1222
තියක්	-1223
දිය	-1224
▁මෛ	-1225
ක්ති	-1226
▁යොදා	-1227
▁උස	-1228
යකි	-1229
▁දෙකක්	-1230
රශ්න	-1231
▁සෞ	-1232
ෙන්න	-1233
▁ජාත්	-1234
▁භාර	-1235
රීඩා	-1236
▁දව	-1237
▁කාලයක්	-1238
▁සංස්ක	-1239
නක්	-1240
▁හරහා	-1241
▁පද	-1242
▁මෝ	-1243
▁දෙපාර්	-1244
ෘත	-1245
දෙස්	-1246
▁බලප	-1247
▁ඉස්ස	-1248
▁කාන්තාව	-1249
▁නොහැකි	-1250
▁9	-1251
ද්දී	-1252
රමාණ	-1253
▁තිබ්	-1254
නික	-1255
දුරටත්	-1256
වලින්	-1257
▁යනු	-1258
යවරයා	-1259
▁එකම	-1260
▁නොමැති	-1261
▁පළමු	-1262
ර්ජ	-1263
ියානු	-1264
ෆ්	-1265
▁අයට	-1266
▁උඩ	-1267
යෙකු	-1268
යෝ	-1269
▁එකතු	-1270
▁තිබුණ	-1271
▁ඉන්දිය	-1272
කුත්	-1273
▁තමන්ගේ	-1274
▁පුලුවන්	-1275
ෂා	-1276
ාවන්	-1277
▁සියල්ල	-1278
▁සිත	-1279
හාස	-1280
▁යොමු	-1281
ාවි	-1282
▁පාර්ලිමේන්ත	-1283
▁සුව	-1284
▁සමාගම	-1285
▁වච	-1286
ලක	-1287
▁ශා	-1288
▁නිෂ්	-1289
▁කරුණු	-1290
වන්	-1291
යෙ	-1292
බල	-1293
▁ඔවුන්ගේ	-1294
රීඩ	-1295
▁හමුව	-1296
ුර	-1297
▁මැතිවරණ	-1298
▁වැඩසට	-1299
▁අලුත්	-1300
▁ගුණ	-1301
වාදය	-1302
▁දුම්	-1303
යන්ට	-1304
▁පුර	-1305
▁කර්	-1306
▁ඔන්න	-1307
▁කාර්යාල	-1308
රිකට්	-1309
▁එදා	-1310
▁පේ	-1311
▁තහ	-1312
නැ	-1313
රමුණ	-1314
ෝම	-1315
රෙන	-1316
තුරුව	-1317
ියන	-1318
තියි	-1319
▁ඇමති	-1320
▁විදේශ	-1321
▁පැව	-1322
▁වික	-1323
▁දෙනා	-1324
▁බුද්ධ	-1325
▁ඇයි	-1326
▁ගු	-1327
▁වර්ග	-1328
▁තේරු	-1329
▁සංවිධානය	-1330
▁පස්ස	-1331
▁කි	-1332
රයා	-1333
▁පල	-1334
▁ස්ව	-1335
▁අගම	-1336
▁විදිහට	-1337
▁වීමට	-1338
▁ආහාර	-1339
▁බුදු	-1340
▁වෙන්	-1341
රහාර	-1342
සාහ	-1343
▁ඔහුට	-1344
▁ඉන්නවා	-1345
▁රජය	-1346
ිවෙ	-1347
▁කරගන්න	-1348
▁අගමැති	-1349
▁ජනාධිපතිවරයා	-1350
▁කියන්නෙ	-1351
▁විජ	-1352
පාද	-1353
පොර	-1354
▁දෙපාර්ත	-1355
▁නිකුත්	-1356
▁ඇතැයි	-1357
▁එළ	-1358
තක්	-1359
▁උත්සාහ	-1360
▁කලේ	-1361
▁ආණ්ඩුව	-1362
චාර්ය	-1363
▁ඔක්	-1364
▁කරපු	-1365
▁රජයේ	-1366
▁ඉක්	-1367
▁යහ	-1368
කරුව	-1369
▁මෛත්	-1370
▁ගත්තා	-1371
▁නිර්මාණය	-1372
▁සිරිස	-1373
ාවල	-1374
▁දෙපාර්තමේ	-1375
තී	-1376
▁මෙන්	-1377
▁හමුද	-1378
▁විස්තර	-1379
▁පාර්ලිමේන්තු	-1380
▁නැතුව	-1381
▁වාර්තාව	-1382
▁භාවිත	-1383
▁පියවර	-1384
ච්චර	-1385
▁සම්ප	-1386
හල්	-1387
▁ලකුණු	-1388
ද්දි	-1389
▁නේ	-1390
සුම්	-1391
▁භාවිතා	-1392
▁මුහුණ	-1393
ූර්ණ	-1394
▁පූ	-1395
▁පාසල්	-1396
▁ඉල්ලා	-1397
▁රැක	-1398
කරණ	-1399
▁තත්ත්ව	-1400
▁දිස්ත්	-1401
ිකා	-1402
▁දැම	-1403
▁ඇතුළ	-1404
ලී	-1405
▁බලාපොර	-1406
▁වුනා	-1407
▁වික්	-1408
▁රනිල්	-1409
▁එහිදී	-1410
▁උන්	-1411
කාරී	-1412
▁පැමිණි	-1413
න්ස	-1414
▁සංචාර	-1415
▁වෘ	-1416
ාරි	-1417
▁පොලී	-1418
ත්නම්	-1419
▁මාව	-1420
තල	-1421
යාංශ	-1422
▁පවා	-1423
රයක්	-1424
▁පරිදි	-1425
▁කාලෙ	-1426
▁දූ	-1427
ලෝ	-1428
▁ගීත	-1429
ගන	-1430
පි	-1431
▁මෙසේ	-1432
▁වුව	-1433
▁නෙවෙයි	-1434
▁ඝා	-1435
▁සේවා	-1436
ාවක	-1437
ලෙස	-1438
▁බවද	-1439
▁අවධ	-1440
▁15	-1441
▁දෙනෙකු	-1442
ෘතිය	-1443
▁බැහැ	-1444
▁ආප	-1445
▁ට්	-1446
▁සිරිසේන	-1447
▁කිසිම	-1448
මී	-1449
▁පහසු	-1450
▁දෙපාර්තමේන්ත	-1451
▁පුවත්	-1452
▁ද්	-1453
▁සංක	-1454
▁තො	-1455
▁තබා	-1456
▁බොහොම	-1457
▁ආගම	-1458
▁රැස්	-1459
▁කථ	-1460
▁මෙරට	-1461
▁හැර	-1462
පුර	-1463
▁ඇත්තටම	-1464
ලූ	-1465
▁තියෙන්නෙ	-1466
▁හම්බ	-1467
තම	-1468
ස්ට	-1469
▁භූ	-1470
යක්ෂ	-1471
තූ	-1472
▁හිර	-1473
▁ස්ථානය	-1474
▁සීම	-1475
හෙන	-1476
▁යනවා	-1477
▁තන	-1478
▁පාලනය	-1479
▁රූප	-1480
යෙන්ම	-1481
වුන්	-1482
▁අයත්	-1483
▁මාල	-1484
▁පවත්	-1485
ණා	-1486
යෝග	-1487
▁දෙමළ	-1488
▁කුඩා	-1489
▁අධිකරණ	-1490
▁පරීක්ෂණ	-1491
▁බලය	-1492
▁වැඩක්	-1493
▁අපරාධ	-1494
▁පන	-1495
▁තෝ	-1496
ජික	-1497
▁ලස්ස	-1498
▁කැමති	-1499
▁යුතුයි	-1500
▁සෑම	-1501
යවස්ථ	-1502
▁ඇතැ	-1503
සුන්	-1504
▁පොදු	-1505
▁බහු	-1506
▁ලක්ෂ	-1507
▁දුන්	-1508
▁කරල	-1509
▁දැඩි	-1510
යයි	-1511
වත්ව	-1512
මනා	-1513
හේ	-1514
▁දො	-1515
▁සභාපති	-1516
▁පෙළ	-1517
▁12	-1518
ාර්ථක	-1519
▁නිර්මාණ	-1520
▁ආරක්ෂක	-1521
▁සක	-1522
▁යයි	-1523
▁පෞ	-1524
▁ලි	-1525
▁00	-1526
▁කල්	-1527
සන්	-1528
▁නොද	-1529
▁අනතුරුව	-1530
පිට	-1531
ෂය	-1532
▁ගියේ	-1533
▁කිසිදු	-1534
▁රෝහල	-1535
වෙන	-1536
▁විරු	-1537
▁බේ	-1538
ංග්	-1539
▁බෞ	-1540
ුවෙ	-1541
ම්බර්	-1542
▁ෂ	-1543
ෝදනා	-1544
▁පෙන්වා	-1545
පැ	-1546
▁පර්	-1547
▁දෙස	-1548
▁සෞඛ්	-1549
▁මන	-1550
▁තිබ්බ	-1551
▁හිමික	-1552
▁හරියට	-1553
රජා	-1554
▁ගත්තේ	-1555
▁මස	-1556
ගොඩ	-1557
▁ඉතිහාස	-1558
හොත්	-1559
▁මුහු	-1560
රින්	-1561
▁යි	-1562
▁මැද	-1563
▁විතරයි	-1564
▁මණ්ඩල	-1565
▁සාමාජික	-1566
▁ස්වා	-1567
▁නැග	-1568
▁කණ්ඩායම	-1569
▁සංග	-1570
ගැනීමට	-1571
▁මෙහිදී	-1572
▁මඟ	-1573
▁පරා	-1574
▁අපේක්ෂ	-1575
▁මිනිසු	-1576
▁දවස්	-1577
ුම්	-1578
න්දර	-1579
▁බට	-1580
තරම්	-1581
ික්	-1582
▁චෝදනා	-1583
දීය	-1584
රව්	-1585
▁බෞද්ධ	-1586
▁ලැබෙන	-1587
▁කාර්ය	-1588
රන්	-1589
▁ලියන්න	-1590
ඵල	-1591
▁සංවර්ධන	-1592
▁හතර	-1593
▁ඩො	-1594
දේ	-1595
ඩුව	-1596
▁කරන්නට	-1597
▁තරම	-1598
▁තියන	-1599
▁දීම	-1600
ණිය	-1601
▁සංඛ්	-1602
▁වගක	-1603
▁ඉතිං	-1604
▁සින	-1605
▁හිටිය	-1606
▁18	-1607
▁ආයතන	-1608
ාවත්	-1609
▁කිසිව	-1610
▁වැඩේ	-1611
▁ටෙ	-1612
▁එවැනි	-1613
▁විනාශ	-1614
ත්න	-1615
▁ඇවිත්	-1616
සන	-1617
▁පුරු	-1618
ිණි	-1619
▁පවසයි	-1620
▁ශිෂ්	-1621
▁වින	-1622
▁මූලික	-1623
සිර	-1624
▁වෙබ්	-1625
▁නිලධාරීන්	-1626
▁ඉන්නේ	-1627
▁කොල්ල	-1628
දානම්	-1629
නයෙන්	-1630
බැ	-1631
▁මෙන්න	-1632
ගැනීම	-1633
ත්තා	-1634
▁තත්ව	-1635
ලන්ත	-1636
▁උත්සව	-1637
ොට	-1638
▁අනිත්	-1639
▁චරිත	-1640
▁හැට	-1641
▁රස	-1642
▁ඉගෙන	-1643
▁අනා	-1644
▁කට්ට	-1645
රමය	-1646
මෙයි	-1647
▁අමතර	-1648
▁දුරක	-1649
ෙක	-1650
▁සංගම	-1651
▁කිහිපයක්	-1652
▁උපා	-1653
▁මුලින්	-1654
මත	-1655
▁පරිස	-1656
ායක	-1657
▁කෙල්ල	-1658
ර්ශන	-1659
▁තැන්	-1660
▁දුම්රිය	-1661
ඨා	-1662
▁තිබුණා	-1663
ැත්ත	-1664
රිකානු	-1665
▁රෙ	-1666
▁පැහැදිලි	-1667
▁තැබ	-1668
▁අර්	-1669
▁ඒකා	-1670
▁කාලේ	-1671
▁නැත්නම්	-1672
යාපන	-1673
තුන්	-1674
▁පස්සෙ	-1675
▁සමු	-1676
▁ජල	-1677
▁අවධානය	-1678
▁වටි	-1679
▁එතකොට	-1680
▁මොන	-1681
▁කියනවා	-1682
▁නෙමෙයි	-1683
▁විරුද්ධ	-1684
▁මුස්	-1685
▁විධ	-1686
▁වත්	-1687
▁පෞද්ගල	-1688
ලත්	-1689
ස්සේ	-1690
▁යන්නේ	-1691
ෂේ	-1692
▁ඉවර	-1693
ිමට	-1694
▁සර්	-1695
▁මානව	-1696
▁ඇතැම්	-1697
සී	-1698
▁කිව්වා	-1699
▁අමතක	-1700
▁දක	-1701
▁මොකක්	-1702
▁ගොඩනැ	-1703
ොත්තු	-1704
▁දකුණු	-1705
▁දරුවන්	-1706
▁සේවය	-1707
ස්ථානය	-1708
▁හිමි	-1709
ියි	-1710
▁මතක්	-1711
ේස්	-1712
▁පවත්වා	-1713
▁ලදී	-1714
▁බී	-1715
නී	-1716
▁සභ	-1717
▁අවස්ථාවේ	-1718
▁කොහොමද	-1719
▁අල්ල	-1720
මික	-1721
▁සතුට	-1722
▁ජීවත්	-1723
▁ගෑ	-1724
ඹු	-1725
යන	-1726
▁ලිපි	-1727
ෂණය	-1728
▁11	-1729
▁පෞද්ගලික	-1730
▁ජනතා	-1731
ෙම	-1732
▁පැන	-1733
ස්තු	-1734
▁නීතිය	-1735
▁මෙවැනි	-1736
▁තැ	-1737
▁තත්ත්වය	-1738
▁වෘත්ත	-1739
▁කවුරු	-1740
දැක	-1741
▁පිලිබ	-1742
▁ඕනේ	-1743
ාට	-1744
විද්	-1745
▁පොලිසිය	-1746
▁බදු	-1747
ධික	-1748
▁සැම	-1749
▁අම්ම	-1750
▁ළඟ	-1751
▁වර්ධ	-1752
▁අග්	-1753
▁සෑ	-1754
▁උතුරු	-1755
▁රාත්	-1756
▁අන්ති	-1757
▁උන	-1758
▁උදා	-1759
▁අමාර	-1760
▁දැනට	-1761
ිවි	-1762
▁වටිනා	-1763
▁ඔවුන්ට	-1764
▁දාන්න	-1765
▁උසස්	-1766
▁කැප	-1767
ගම්	-1768
▁කුමාර	-1769
ිප්	-1770
ත්වයෙන්	-1771
▁නිස	-1772
▁යුද	-1773
ඳුම්	-1774
▁සිල්	-1775
▁ලංකාවට	-1776
▁අනේ	-1777
▁වනු	-1778
▁30	-1779
▁මරණ	-1780
රන	-1781
ජී	-1782
▁බං	-1783
▁පහර	-1784
▁තියනවා	-1785
▁ගමන	-1786
▁අමු	-1787
▁රි	-1788
▁සාර්ථක	-1789
▁කෘ	-1790
කයා	-1791
ට්ටම	-1792
▁මොහො	-1793
ලිම්	-1794
▁පින්	-1795
ඩියෝ	-1796
▁ලිපිය	-1797
රථ	-1798
▁අක්	-1799
▁වුණ	-1800
▁බටහිර	-1801
▁වනවිට	-1802
▁ලස්සන	-1803
යතාව	-1804
▁විව	-1805
▁විවාහ	-1806
සක	-1807
රමසිංහ	-1808
▁තේරුම්	-1809
▁හමුවේ	-1810
▁ඇද	-1811
▁කිව	-1812
▁ලැබූ	-1813
▁කෙරෙ	-1814
ින්ම	-1815
▁පක්ෂය	-1816
ගුණ	-1817
▁මෙත	-1818
▁කරුණ	-1819
▁අවු	-1820
▁දිනය	-1821
▁අම්මා	-1822
▁අනෙක්	-1823
▁වෙන්නෙ	-1824
▁ලෝකයේ	-1825
▁පද්ධ	-1826
▁ලෙ	-1827
▁මල්	-1828
ොන්	-1829
ංගු	-1830
▁මේවා	-1831
සාර	-1832
රයට	-1833
දුන්	-1834
▁මහජන	-1835
ල්ලක්	-1836
▁ඉදික	-1837
▁ගල්	-1838
▁කාලයේ	-1839
▁ලොව	-1840
▁පෙන්න	-1841
▁කිව්ව	-1842
▁මී	-1843
▁කොටස්	-1844
▁ආණ්ඩු	-1845
▁සදහන්	-1846
▁මෙතන	-1847
▁මෙහෙම	-1848
▁හට	-1849
▁සුදුසු	-1850
▁තමන්ට	-1851
▁මිස	-1852
▁කුමක්	-1853
▁මනු	-1854
▁කමිට	-1855
▁බලාපොරොත්තු	-1856
රඹ	-1857
▁මුළු	-1858
තට	-1859
▁තිස්	-1860
▁විපක්ෂ	-1861
▁මහත්ත	-1862
▁විතරක්	-1863
▁සම්පූර්ණ	-1864
▁සැබ	-1865
දුම්	-1866
තියේ	-1867
රදා	-1868
▁මිලියන	-1869
▁තීරණ	-1870
හුණු	-1871
ෝන්	-1872
▁නිවැ	-1873
▁100	-1874
▁රටවල්	-1875
▁තිබුණේ	-1876
රික්ක	-1877
▁හැටි	-1878
ෑන්	-1879
▁වෙතත්	-1880
▁නැතිව	-1881
▁අංක	-1882
▁ලාංක	-1883
▁ගැනීමේ	-1884
▁මුස්ලිම්	-1885
දව	-1886
▁නාට්	-1887
▁පදි	-1888
▁ඉදිරියේ	-1889
▁අත්දැක	-1890
නිය	-1891
ෑම්	-1892
▁ගාන	-1893
වුරු	-1894
▁සල	-1895
▁නු	-1896
▁කීප	-1897
ලර්	-1898
ීර්	-1899
දුරු	-1900
▁එයට	-1901
යන්ගේ	-1902
▁රො	-1903
▁දෙනෙක්	-1904
▁පෙනී	-1905
▁මමත්	-1906
බි	-1907
ගණ	-1908
▁තුන	-1909
මෙන්	-1910
ප්ත	-1911
▁දකි	-1912
ක්ෂණය	-1913
▁දමා	-1914
▁අයු	-1915
▁හේතු	-1916
▁හැකියාව	-1917
▁පොලීසිය	-1918
▁වැඩසටහන	-1919
▁පෙරේ	-1920
▁පණ	-1921
▁කිරීමෙන්	-1922
ෂ්ට	-1923
▁මහතාගේ	-1924
▁තවමත්	-1925
බෝධ	-1926
▁විශ්වවිද්	-1927
▁ගනු	-1928
ෙන්ට්	-1929
පාදන	-1930
▁පක්ෂයේ	-1931
▁පියා	-1932
▁ආයතනය	-1933
රුන්	-1934
▁දුන්නේ	-1935
තුම්	-1936
▁වරද	-1937
▁ගණන	-1938
▁ආව	-1939
▁පන්ත	-1940
මාන්ත	-1941
▁ආසන්න	-1942
▁අවුරුද්ද	-1943
▁උනත්	-1944
▁පුංචි	-1945
▁25	-1946
▁විහාර	-1947
▁පොත්	-1948
▁ඉදිරියට	-1949
ුන	-1950
▁දායක	-1951
▁ඉල	-1952
වේදී	-1953
ඳි	-1954
▁13	-1955
රාමාත්	-1956
▁එකෙන්	-1957
▁අරමුණ	-1958
ෂික	-1959
▁අනාගත	-1960
▁පාලන	-1961
▁කියව	-1962
▁විවෘත	-1963
කරණය	-1964
▁චී	-1965
▁නං	-1966
▁ජීවිතය	-1967
▁ජනතාවට	-1968
▁සාකච්ඡා	-1969
▁බැවින්	-1970
▁අරන්	-1971
▁අසා	-1972
▁නිෂ්පාද	-1973
▁අතුරු	-1974
▁මට්ටම	-1975
▁රිය	-1976
ඥා	-1977
දුම	-1978
▁කතාවක්	-1979
▁මගෙ	-1980
කල	-1981
සිද්ධ	-1982
▁ඉන්දීය	-1983
▁තෝරා	-1984
ාම	-1985
▁දීමට	-1986
▁පට	-1987
▁පිහිටි	-1988
▁ඉටු	-1989
ිල්	-1990
▁දන්නේ	-1991
ංජ	-1992
ක්තිය	-1993
▁දැනුම්	-1994
▁ධර්ම	-1995
ර්ශනය	-1996
▁මත්	-1997
▁නිවාස	-1998
ශ්ච	-1999
▁අමතරව	-2000
කදී	-2001
▁වැරදි	-2002
▁නියෝග	-2003
මුව	-2004
හැර	-2005
▁හෙට	-2006
▁කිල	-2007
▁රණ	-2008
▁තුව	-2009
▁සභාව	-2010
▁හිතු	-2011
▁ඇමැති	-2012
රස්ත	-2013
▁ජනපති	-2014
ේ	-2015
▁මුල	-2016
▁එක්ව	-2017
මාර්	-2018
▁ස්ථාන	-2019
බද්ධ	-2020
▁දාලා	-2021
▁නිවේද	-2022
ිපාල	-2023
▁උද්	-2024
රුණු	-2025
▁නිරත	-2026
▁කොමිස	-2027
ල්ලේ	-2028
▁වැටු	-2029
රියාව	-2030
▁ලැබේ	-2031
▁දැක්ක	-2032
සින්	-2033
▁සල්ලි	-2034
▁මෙහෙයු	-2035
දීමට	-2036
▁තරඟ	-2037
ිවිසු	-2038
▁අතින්	-2039
වීම්	-2040
▁ආවේ	-2041
▁සිහ	-2042
▁හින්	-2043
▁සෝ	-2044
▁හොයා	-2045
▁වියද	-2046
ෙල්	-2047
වක්	-2048
▁ඔක්කො	-2049
▁පැවැති	-2050
න්දා	-2051
▁මන්ද	-2052
▁උපදෙස්	-2053
බර්	-2054
▁සයි	-2055
▁විභාග	-2056
▁නිම	-2057
සීම	-2058
▁තිර	-2059
▁අරගෙන	-2060
▁වඩාත්	-2061
▁අනාව	-2062
▁වෙලාවට	-2063
ංගික	-2064
▁000	-2065
▁ති	-2066
ගැ	-2067
වීමේ	-2068
▁වුණේ	-2069
ෂන්	-2070
▁තවදුරටත්	-2071
▁වෙමින්	-2072
▁කාම	-2073
නාගාර	-2074
▁ලියන	-2075
ිමත්	-2076
ගත්ත	-2077
▁ඔව්	-2078
▁ඉදිරි	-2079
▁දුක	-2080
▁එමෙන්ම	-2081
▁කර්මාන්ත	-2082
▁කැබ	-2083
▁සිල්වා	-2084
▁ඕක	-2085
▁ජයග්	-2086
රුම	-2087
▁ඉස්	-2088
කාල	-2089
▁යැ	-2090
ිට්	-2091
රාදේශ	-2092
▁ලියා	-2093
▁අදාල	-2094
▁ක්ෂේ	-2095
▁සෙන	-2096
▁16	-2097
▁මහත්ම	-2098
රාම	-2099
▁ඇගේ	-2100
▁ඉහත	-2101
▁විදුලි	-2102
▁සහභාගී	-2103
සූ	-2104
▁තුන්	-2105
ණ්ඩාර	-2106
▁කළු	-2107
ෙකුත්	-2108
▁මටත්	-2109
▁තියා	-2110
▁අන්තර්	-2111
▁රටට	-2112
▁කුස	-2113
▁ජනප්	-2114
▁යෝජනා	-2115
▁ඕනෑම	-2116
▁හැටියට	-2117
▁සකස්	-2118
▁ඒකට	-2119
▁වැනිදා	-2120
▁14	-2121
▁පාවි	-2122
▁සූදානම්	-2123
▁පරාජ	-2124
▁පවත්ව	-2125
▁ආවා	-2126
▁දුව	-2127
▁සන්ධ	-2128
තාන්	-2129
ෙට	-2130
ගි	-2131
▁ඇස්	-2132
යාගේ	-2133
න්වා	-2134
▁වෙඩි	-2135
▁ඇතුළත්	-2136
ක්ස්	-2137
▁බන්ධ	-2138
▁දෙවන	-2139
▁ඔබගේ	-2140
▁හිතා	-2141
▁හරිම	-2142
▁එසේම	-2143
▁වෙලාව	-2144
රජාත	-2145
ණයක්	-2146
▁හදා	-2147
▁කරා	-2148
▁මතු	-2149
▁හඳුනා	-2150
▁වාහන	-2151
▁මාත්	-2152
▁මිනිසුන්	-2153
▁නියෝජ්	-2154
▁තුවාල	-2155
දාම	-2156
ිරා	-2157
▁නුවර	-2158
රශ්නය	-2159
රේම	-2160
ාරූප	-2161
▁දෙපාර්තමේන්තුව	-2162
▁කෙරෙන	-2163
ශෝධ	-2164
▁අපගේ	-2165
▁එල	-2166
▁කැඳ	-2167
▁සේනා	-2168
රල	-2169
පනය	-2170
මුඛ	-2171
▁රැගෙන	-2172
▁නොකර	-2173
▁ආදරය	-2174
▁දක්ව	-2175
▁බෙදා	-2176
▁දක්ෂ	-2177
▁නැද්ද	-2178
▁ඝාතනය	-2179
▁වචන	-2180
▁අවබෝධ	-2181
▁ආකාරය	-2182
▁ජනප	-2183
▁පවසා	-2184
▁ඇඟ	-2185
▁මෙලෙස	-2186
▁සුප	-2187
රාල්	-2188
▁වර්ධනය	-2189
▁ගිවිසු	-2190
▁සංගීත	-2191
▁වර්ෂ	-2192
▁වෙනුවට	-2193
▁සංවර්ධ	-2194
▁සහභාගි	-2195
▁මාන	-2196
▁නගර	-2197
ස්කෝ	-2198
▁පහළ	-2199
▁අස්	-2200
▁එතන	-2201
▁2018	-2202
රික්	-2203
▁සුබ	-2204
▁සිදුවූ	-2205
කූ	-2206
▁පහත	-2207
▁න්	-2208
▁සබ	-2209
▁වයස	-2210
න්ති	-2211
▁බණ්ඩාර	-2212
රථම	-2213
රසිද්ධ	-2214
▁සමත්	-2215
▁මුලින්ම	-2216
ගින්	-2217
▁නාව	-2218
යික	-2219
▁ආයත	-2220
▁ඉහල	-2221
▁වර	-2222
▁වර්ත	-2223
▁දාන	-2224
▁පැය	-2225
රීපාල	-2226
▁සිදුවන	-2227
▁සුළු	-2228
▁එනම්	-2229
නුවර	-2230
▁සිද්ධිය	-2231
▁වාස	-2232
▁නිලධාරී	-2233
දාන	-2234
▁හෙළ	-2235
▁සටහන්	-2236
රතිචාර	-2237
යාලයේ	-2238
▁දෙවිය	-2239
ත්ති	-2240
▁කිරි	-2241
▁ආක	-2242
▁කථා	-2243
▁ඒකාබද්ධ	-2244
▁උත්තර	-2245
▁ඔක්කොම	-2246
▁17	-2247
▁ගන්නවා	-2248
▁ඡාය	-2249
▁හොඳම	-2250
ඩක්	-2251
▁සටන්	-2252
▁වීඩියෝ	-2253
▁ටී	-2254
▁ස්ට	-2255
▁ණය	-2256
▁තෙල්	-2257
▁කරන්නෙ	-2258
▁දුරකථ	-2259
▁පර්යේ	-2260
දාස	-2261
▁පහසුකම්	-2262
▁අධිකාර	-2263
▁පිලිබඳ	-2264
▁පැවසීය	-2265
▁රංග	-2266
රාදේශීය	-2267
රිම	-2268
▁ගැල	-2269
▁රහ	-2270
▁අදහස	-2271
රත්න	-2272
▁පාඨ	-2273
▁නිතර	-2274
▁නාම	-2275
ගන්නා	-2276
▁දිවයි	-2277
▁අල	-2278
▁ඇමරික	-2279
▁වුවත්	-2280
▁පොළ	-2281
▁එහෙන	-2282
යම්	-2283
▁සමාජය	-2284
▁පීඩ	-2285
▁රේ	-2286
▁සංශෝධ	-2287
▁බැංක	-2288
▁කන්න	-2289
තෘ	-2290
යාපනය	-2291
▁මණ්ඩලය	-2292
▁වාර	-2293
▁බරප	-2294
▁සිටියා	-2295
ිකව	-2296
▁ඔස්සේ	-2297
මැ	-2298
ශී	-2299
▁දුන්නා	-2300
▁අනතුර	-2301
▁වෙළඳ	-2302
ලන	-2303
▁ආර්	-2304
රයි	-2305
▁මොනව	-2306
▁දන්නවා	-2307
▁අයියා	-2308
▁ආකාරයට	-2309
▁මච	-2310
▁පරීක්ෂ	-2311
▁ආදා	-2312
▁බැඳ	-2313
යයේ	-2314
රාව	-2315
▁ගුරුව	-2316
▁හිටියා	-2317
▁2017	-2318
▁ජේ	-2319
▁ගනිමින්	-2320
▁පාවිච්චි	-2321
විර	-2322
▁තද	-2323
▁තත්වය	-2324
▁අවස්ථා	-2325
න්තර	-2326
ැම්බර්	-2327
▁2015	-2328
▁නියෝජිත	-2329
▁එකඟ	-2330
▁යුරෝ	-2331
▁ඇහ	-2332
රතිකාර	-2333
▁කඩා	-2334
▁හිමිකම්	-2335
▁ඔයාට	-2336
▁ආදී	-2337
▁හොය	-2338
තෝ	-2339
▁ඉංග්	-2340
▁ලැ	-2341
▁සමාන	-2342
පේ	-2343
▁වේද	-2344
▁කල්ප	-2345
▁සෙට්	-2346
▁ඉක්මන	-2347
▁දිහා	-2348
▁තාත්තා	-2349
▁දෙදෙනා	-2350
▁හමුදාව	-2351
▁යළි	-2352
▁ගුරු	-2353
විල්	-2354
▁තිබිය	-2355
▁ඔයාල	-2356
ැක්	-2357
▁ආචාර්ය	-2358
▁දිගටම	-2359
▁ස්වභාව	-2360
▁මව	-2361
▁බන්ධනාගාර	-2362
ගු	-2363
▁නැත්ත	-2364
කයින්	-2365
▁ක්ෂේත්	-2366
ිනවා	-2367
▁අයිති	-2368
▁එස්	-2369
▁උදේ	-2370
▁හඬ	-2371
▁අට	-2372
මුදු	-2373
ගහ	-2374
▁තහවුරු	-2375
▁වැඩිදුරටත්	-2376
▁අතීත	-2377
▁ගිනි	-2378
වතී	-2379
▁පරිගණ	-2380
▁කෑම	-2381
විධාන	-2382
▁ඡායාරූප	-2383
▁වතුර	-2384
▁ගන්නේ	-2385
▁විවේ	-2386
ියම්	-2387
රිව	-2388
න්දුව	-2389
▁හැඟ	-2390
▁ශරී	-2391
ළඟ	-2392
▁යාමට	-2393
පත	-2394
▁උනේ	-2395
▁කවද	-2396
▁තාක්ෂණ	-2397
▁කොටස	-2398
▁ඉතාම	-2399
කඩ	-2400
▁පොඩ්	-2401
▁දරුවා	-2402
▁මොනවා	-2403
▁රැසක්	-2404
රතිඵල	-2405
▁චන්ද්	-2406
▁පුහුණු	-2407
▁අවම	-2408
▁දෙනවා	-2409
▁සමී	-2410
දුර	-2411
ජනය	-2412
▁වෘත්තීය	-2413
▁මානසික	-2414
▁කන	-2415
▁දුන්න	-2416
ටා	-2417
▁සැලසුම්	-2418
▁කටයු	-2419
▁ලිංගික	-2420
▁ශක්ති	-2421
▁එනවා	-2422
▁ගම	-2423
ධක	-2424
▁ලේඛ	-2425
▁ඛ	-2426
▁භාෂ	-2427
▁යාල	-2428
ුම	-2429
▁යුත්තේ	-2430
▁කලාප	-2431
▁24	-2432
▁ජීවිතේ	-2433
ිලා	-2434
▁බහුතර	-2435
▁අර්ථ	-2436
බේ	-2437
▁කඳු	-2438
තාවක්	-2439
▁සහෝ	-2440
▁නාවික	-2441
ලුව	-2442
▁පාට	-2443
යාට	-2444
▁දිනා	-2445
▁රත්	-2446
ලාව	-2447
▁නොස	-2448
▁පෝස්ට්	-2449
▁ජනව	-2450
▁දියුණු	-2451
▁ආරක්ෂා	-2452
ියෝග	-2453
▁දෙන්නේ	-2454
▁මොකක්ද	-2455
▁කළමනා	-2456
▁සැබෑ	-2457
ස්තුව	-2458
▁සංවිධාන	-2459
▁දුර	-2460
▁ගණන්	-2461
▁ඇමෙ	-2462
▁කඩු	-2463
▁පාඩ	-2464
▁දැනුවත්	-2465
▁සාක්ෂ	-2466
▁විදෙස්	-2467
ම්ප්	-2468
රශ්නයක්	-2469
ිවර්	-2470
▁අතට	-2471
▁ස්තු	-2472
▁ඉස්සර	-2473
▁ජාති	-2474
▁කියවන්න	-2475
▁මෙවර	-2476
▁වුනේ	-2477
▁හිටියේ	-2478
▁සියළු	-2479
ංකු	-2480
▁කවුද	-2481
▁ස්ථා	-2482
▁පවසනවා	-2483
▁සහතික	-2484
▁වුනත්	-2485
▁උදව්	-2486
ප්පු	-2487
▁විජේ	-2488
▁හොඳයි	-2489
▁අකු	-2490
ිටි	-2491
▁ඇයට	-2492
▁පැවසුවේ	-2493
ක්ෂිත	-2494
▁නැගෙන	-2495
▁සිදුකර	-2496
▁50	-2497
▁වහා	-2498
ර්ජාල	-2499
▁ජනාධිපතිතුමා	-2500
▁සිටියේය	-2501
▁සුභ	-2502
▁සිනමා	-2503
▁සභාවේ	-2504
▁බලන	-2505
▁නියෝජනය	-2506
ශා	-2507
▁ළමයි	-2508
▁ජ්	-2509
යත්	-2510
රජ	-2511
ට්ටු	-2512
ුයි	-2513
ිති	-2514
▁ඇඳ	-2515
පන්	-2516
▁රෑ	-2517
▁සින්	-2518
▁දේශීය	-2519
▁දිනයේ	-2520
▁කට්ටිය	-2521
▁අවසානයේ	-2522
▁ලාංකික	-2523
විප	-2524
▁ආගමික	-2525
ළෙ	-2526
▁නොවැ	-2527
▁අන්තර්ජාල	-2528
▁මූල්	-2529
▁නමින්	-2530
▁ගෙන්	-2531
▁හෙවත්	-2532
▁නඩු	-2533
පෙන	-2534
▁බයි	-2535
තුම	-2536
▁නිසි	-2537
ෘති	-2538
▁සහයෝග	-2539
▁ජිව	-2540
ඬුව	-2541
▁අභ්	-2542
වය	-2543
▁පෙරේරා	-2544
ලම	-2545
▁අපහ	-2546
▁ගෞ	-2547
වුම්	-2548
මානය	-2549
▁පැවැත්වෙන	-2550
▁පාර්ලිමේන්තුවේ	-2551
▁වැළ	-2552
▁හිරු	-2553
ධාරණ	-2554
▁මහත්	-2555
▁වේග	-2556
▁199	-2557
▁අවි	-2558
▁කාට	-2559
▁ඉස්කෝ	-2560
▁ගල	-2561
ක්ත	-2562
ටී	-2563
▁තිබුණි	-2564
▁එයින්	-2565
▁නතර	-2566
▁ආදර	-2567
▁පත	-2568
රමාණයක්	-2569
▁හැසිර	-2570
▁දවසක්	-2571
▁හොර	-2572
▁දෑ	-2573
▁ඉඩම්	-2574
රවී	-2575
▁කප	-2576
▁අයිය	-2577
▁අරගල	-2578
▁තහනම්	-2579
▁ගම්	-2580
▁අර්බු	-2581
▁සියලුම	-2582
▁හැකියි	-2583
▁තොරව	-2584
▁පුද්ගලයන්	-2585
▁අගය	-2586
▁තුළින්	-2587
▁ගරු	-2588
▁කොහෙ	-2589
▁පුදුම	-2590
▁මංග	-2591
ංගම	-2592
▁කොට්	-2593
▁එකත්	-2594
▁ඕනෙ	-2595
▁පොත	-2596
▁රටවල	-2597
▁අයිතිය	-2598
රවෘ	-2599
▁මර්	-2600
▁ශිල්ප	-2601
▁පක්	-2602
▁දිසා	-2603
▁වැඩිය	-2604
▁උදාහ	-2605
▁ඔහොම	-2606
▁කව	-2607
▁හිස	-2608
ටුව	-2609
▁එහෙනම්	-2610
සෙ	-2611
▁කෙරෙහි	-2612
▁මඟින්	-2613
වරුවේ	-2614
▁සිසුන්	-2615
▁ජලය	-2616
▁නිළ	-2617
කේ	-2618
▁කොච්චර	-2619
▁ගිහි	-2620
විරි	-2621
▁යුග	-2622
සේකර	-2623
පක්	-2624
▁පිටු	-2625
▁බිඳ	-2626
පොළ	-2627
රමාණය	-2628
රල්	-2629
▁පවුල්	-2630
▁ගැටු	-2631
▁වෙළෙ	-2632
පී	-2633
රමුඛ	-2634
හම	-2635
▁අනිව	-2636
▁කණ්ඩායම්	-2637
▁රන්	-2638
ිකාව	-2639
▁යුතුව	-2640
▁ඕනෑ	-2641
▁ස්තූ	-2642
▁ආණ්ඩුවේ	-2643
▁පැති	-2644
▁පමණි	-2645
▁බිහ	-2646
▁ආපු	-2647
▁රජු	-2648
▁නිප	-2649
▁වංච	-2650
රාත්	-2651
යාංශය	-2652
▁බර	-2653
▁තිබෙන්නේ	-2654
ස්ම	-2655
▁වළ	-2656
විරිදි	-2657
▁වුවද	-2658
▁කොට්ඨා	-2659
තුංග	-2660
▁මෙතෙක්	-2661
ත්වයක්	-2662
▁මරා	-2663
රාය	-2664
▁අභියෝග	-2665
දායක	-2666
ජිත්	-2667
▁කිව්වේ	-2668
▁බොරු	-2669
▁කැමැත්ත	-2670
▁රැකියා	-2671
▁කම්කරු	-2672
▁ලැබී	-2673
▁සම්පත්	-2674
▁මූල	-2675
ක්කු	-2676
▁පැට	-2677
▁පුතා	-2678
▁බලාගෙන	-2679
කිරීම	-2680
▁ආදරේ	-2681
▁එකයි	-2682
▁තිබුනා	-2683
▁කෙටි	-2684
දැයි	-2685
▁ලඟ	-2686
ව්වා	-2687
ිනේ	-2688
ෝජන	-2689
ිනී	-2690
▁අනෙකුත්	-2691
▁පිළිතුරු	-2692
සාද	-2693
යයෙන්	-2694
භය	-2695
රජාතන්ත්	-2696
▁තාත්ත	-2697
▁හැවිරිදි	-2698
▁එකෙක්	-2699
▁බිල	-2700
▁තර්	-2701
▁යාම	-2702
▁දුක්	-2703
බී	-2704
▁ඩොලර්	-2705
▁හිතන්නේ	-2706
▁ඉන්දියාවේ	-2707
රිතාන්	-2708
▁මෑ	-2709
▁බිරි	-2710
ගමනය	-2711
▁ඩී	-2712
▁නිදහස	-2713
කයේ	-2714
හැන	-2715
▁කමෙන්ට්	-2716
▁ඇමරිකානු	-2717
▁ඉන්නෙ	-2718
ස්ථාන	-2719
▁වෙච්ච	-2720
කී	-2721
▁තුනක්	-2722
▁ආන්ඩ	-2723
ජු	-2724
▁තිබිණි	-2725
▁බය	-2726
වේද	-2727
▁ජනතාවගේ	-2728
▁කැබින	-2729
▁අවසාන	-2730
තය	-2731
▁සිටින්නේ	-2732
▁දම	-2733
දන්	-2734
ගී	-2735
▁එව	-2736
▁උපාධ	-2737
▁කිරීම්	-2738
▁ඉලක්ක	-2739
▁තිබුණු	-2740
▁තිබුනේ	-2741
▁පහල	-2742
▁සිටී	-2743
▁එරෙහි	-2744
▁තිබුන	-2745
▁පිණ	-2746
▁යනුවෙන්	-2747
▁සන්න	-2748
ූහ	-2749
රුවා	-2750
▁ඉන්දියාව	-2751
තාවය	-2752
▁අළු	-2753
▁හිමිව	-2754
හසක්	-2755
▁සමස්ත	-2756
න්වහන්සේ	-2757
▁එතුමා	-2758
▁යමක්	-2759
▁සම්මාන	-2760
ෝෂ	-2761
▁කොයි	-2762
රචාර	-2763
▁හොඳින්	-2764
▁කඳ	-2765
▁ලැබු	-2766
▁මුදලක්	-2767
▁පොල්	-2768
▁වත්ම	-2769
▁කවි	-2770
තීන්	-2771
▁හෙළි	-2772
▁භාණ්ඩ	-2773
▁මහනුවර	-2774
▁චීන	-2775
න්දේ	-2776
න්විත	-2777
වරණය	-2778
ේප	-2779
▁සටහන	-2780
▁එජා	-2781
▁21	-2782
▁සිතුව	-2783
▁හැකිව	-2784
▁සුර	-2785
▁ඩි	-2786
වනවා	-2787
▁සීමා	-2788
▁කීවේ	-2789
▁බාල	-2790
▁ආයු	-2791
ීවර	-2792
▁නෝ	-2793
▁විඳ	-2794
▁විරෝධී	-2795
▁ඇප	-2796
▁සති	-2797
▁ලෝකය	-2798
▁දැනුම	-2799
▁කුරු	-2800
▁හිතේ	-2801
▁අනික	-2802
▁නොල	-2803
▁සතුටු	-2804
▁කමක්	-2805
▁පර්යේෂණ	-2806
යාලය	-2807
▁පිණිස	-2808
රතිප	-2809
▁බඩ	-2810
කෙ	-2811
▁ගන්නට	-2812
▁පෙරමුණ	-2813
▁බවය	-2814
▁කැබිනට්	-2815
▁මහාචාර්ය	-2816
ගත්තා	-2817
▁එම්	-2818
▁බැංකු	-2819
න්ඩ්	-2820
▁පවුලේ	-2821
වෙලා	-2822
▁අතරින්	-2823
▁රච	-2824
ුන්	-2825
▁සැප	-2826
රණයක්	-2827
▁තරු	-2828
▁පවත්වාගෙන	-2829
▁එල්	-2830
▁දශ	-2831
▁රටක්	-2832
▁මල	-2833
▁ආරාධ	-2834
▁ධාව	-2835
▁ගමේ	-2836
රළ	-2837
▁මුහුදු	-2838
▁කොටසක්	-2839
▁දඬුව	-2840
▁පරිසර	-2841
රනා	-2842
ව්ව	-2843
ාවා	-2844
▁පවතී	-2845
ිරිය	-2846
▁දීලා	-2847
▁දේව	-2848
▁දැක්වූ	-2849
ක්කේ	-2850
▁නැගෙනහිර	-2851
මිනි	-2852
▁ජනවාරි	-2853
▁22	-2854
▁වාහ	-2855
▁තාම	-2856
ල්ලට	-2857
▁වත්මන්	-2858
▁හැඳ	-2859
▁සංවර්ධනය	-2860
ද්දේ	-2861
▁දාල	-2862
▁මනුස්ස	-2863
▁ආරක්	-2864
▁දන්නෙ	-2865
▁අම්	-2866
▁198	-2867
▁අඩවිය	-2868
ධාරණය	-2869
▁මාර්ගය	-2870
▁දෙවැනි	-2871
▁නිවා	-2872
▁මඩ	-2873
තල්	-2874
▁ඉදිකිර	-2875
▁දුර්	-2876
▁යෑ	-2877
රියාකාර	-2878
▁2016	-2879
▁ධීවර	-2880
▁සිවිල්	-2881
▁බාර	-2882
▁නිවැරදි	-2883
▁ආශ්	-2884
▁අපහසු	-2885
වයි	-2886
▁ළමා	-2887
▁බිය	-2888
▁ආධාර	-2889
▁සංගමය	-2890
▁නැවතත්	-2891
▁හැමදාම	-2892
▁පුද්ගලයින්	-2893
බිම	-2894
සිරි	-2895
ක්ෂේප	-2896
රවෘත්ති	-2897
පිළ	-2898
▁පදනම්	-2899
▁සහෝදර	-2900
පෙ	-2901
▁භූම	-2902
▁සිදුකළ	-2903
▁කාර්යාලය	-2904
රියේ	-2905
සය	-2906
මුද	-2907
▁කියයි	-2908
▁පැහැදිල	-2909
▁හැමෝම	-2910
▁මැයි	-2911
▁විධායක	-2912
▁සම්මත	-2913
ෙලා	-2914
▁සැලක	-2915
▁වෙළෙඳ	-2916
▁පලා	-2917
යින්ට	-2918
▁විමර්ශන	-2919
▁පරණ	-2920
යවස්ථා	-2921
▁ජූ	-2922
යාපාරික	-2923
මන්ත්	-2924
ීමත්	-2925
▁සමාජයේ	-2926
▁පැවැත්වීමට	-2927
ශය	-2928
පත්ති	-2929
▁අනුරාධ	-2930
ගයක්	-2931
පස	-2932
▁ජාල	-2933
ශේෂ	-2934
▁උළෙ	-2935
▁රැකිය	-2936
▁විෂ	-2937
රහණය	-2938
සං	-2939
▁පිළිබද	-2940
▁වුණත්	-2941
▁වේවා	-2942
▁පිරිමි	-2943
▁බෙහෙ	-2944
ෙකි	-2945
▁මෝටර්	-2946
රමයක්	-2947
▁පසුගියදා	-2948
▁උණු	-2949
▁ජනය	-2950
▁දක්නට	-2951
▁වගෙ	-2952
▁පවසන්නේ	-2953
▁කෙරේ	-2954
▁ලී	-2955
▁නඩ	-2956
▁එන්නේ	-2957
ස්ථානයේ	-2958
▁සියයට	-2959
▁පරිගණක	-2960
රීසි	-2961
▁සුන්දර	-2962
▁සංස්කෘ	-2963
▁අත්දැකීම්	-2964
▁ඉතිරි	-2965
▁පෙම්	-2966
▁පුද්ගලයා	-2967
යාපෘතිය	-2968
▁ධන	-2969
රතික්ෂේප	-2970
ිණ	-2971
▁කියපු	-2972
▁ගී	-2973
▁සාම	-2974
▁අහන්න	-2975
▁දන්නා	-2976
▁සලක	-2977
▁බාධ	-2978
▁බිම	-2979
ිවු	-2980
යංශ	-2981
▁විචාර	-2982
▁උපන්	-2983
▁බන්	-2984
▁අන්ද	-2985
▁පුළුව	-2986
▁නිෂ්පාදන	-2987
▁කියලයි	-2988
යයක්	-2989
▁ඇතිව	-2990
ත්තු	-2991
ෂධ	-2992
ෙමි	-2993
වනම්	-2994
▁තරගාවල	-2995
ිටිය	-2996
ූරු	-2997
▁ඇස	-2998
▁කාන්තා	-2999
රණි	-3000
හ්	-3001
▁විශේෂයෙන්	-3002
▁ජෝ	-3003
▁අනාවරණය	-3004
▁කටු	-3005
▁කුල	-3006
වනේ	-3007
▁වියදම්	-3008
▁ඉස්සරහ	-3009
▁පද්ධතිය	-3010
ියක	-3011
▁වෙනසක්	-3012
▁අධිකරණය	-3013
▁මැදිහ	-3014
▁ශක්තිමත්	-3015
▁වන්නට	-3016
තුරේ	-3017
ෙකුගේ	-3018
▁රෝහල්	-3019
▁නගරයේ	-3020
වීමක්	-3021
▁කෙළ	-3022
▁මෙහෙයුම්	-3023
▁පොඩ්ඩක්	-3024
▁වැඩිම	-3025
▁පදිංචි	-3026
▁එහා	-3027
ඹුරු	-3028
▁මිනිසා	-3029
වෙනි	-3030
▁වෙනි	-3031
▁යහපත්	-3032
▁මාරු	-3033
▁ඉඳන්	-3034
▁වහ	-3035
▁එවිට	-3036
▁නිරී	-3037
▁අහිමි	-3038
▁ශක්තිය	-3039
▁පරිවර්	-3040
▁ආශ	-3041
ගත්තේ	-3042
▁උපරිම	-3043
▁කොළ	-3044
▁මහත්මිය	-3045
දවා	-3046
▁යුද්ධය	-3047
▁විමු	-3048
▁දීර්	-3049
▁නිසාය	-3050
▁ඒව	-3051
▁කවදාවත්	-3052
▁හැද	-3053
▁හිතන්න	-3054
▁පාර්ලිමේන්තුව	-3055
▁වෙනම	-3056
▁සංකල්ප	-3057
▁විවේච	-3058
▁මළ	-3059
කමක්	-3060
▁එන්	-3061
▁වුන	-3062
ෂක	-3063
▁සහාය	-3064
▁විප්	-3065
▁රූ	-3066
▁ශාල	-3067
▁වැල	-3068
▁වර්ණ	-3069
▁ලෝ	-3070
▁කරුණා	-3071
▁ආරක්ෂාව	-3072
▁අල්ලා	-3073
▁බවක්	-3074
යාත්මක	-3075
▁කුණු	-3076
▁වරක්	-3077
ක්ම	-3078
▁ජනපද	-3079
හිත්	-3080
▁ලිපියක්	-3081
▁කන්	-3082
▁තබ	-3083
▁උදෑ	-3084
▁වීර	-3085
ිමු	-3086
▁පොරො	-3087
▁197	-3088
▁හැඳින්	-3089
▁කල්පනා	-3090
▁පදන	-3091
▁හය	-3092
ත්ස	-3093
▁වැසි	-3094
ීමේදී	-3095
▁දකින	-3096
▁අලෙ	-3097
▁නිවසේ	-3098
▁බිරිඳ	-3099
හරි	-3100
▁අනතුරු	-3101
▁හොඳට	-3102
▁23	-3103
▁එකා	-3104
▁එංග	-3105
▁පරාජය	-3106
වෙන්නේ	-3107
ලයේ	-3108
▁දත්ත	-3109
පිළිවෙ	-3110
▁ජාතිය	-3111
▁පන්දු	-3112
ාත්මක	-3113
▁අඟ	-3114
▁විෂය	-3115
භෝග	-3116
▁චෝ	-3117
▁වනවා	-3118
▁දිනවල	-3119
▁ආත්ම	-3120
▁රඟ	-3121
▁සුවි	-3122
නන්ද	-3123
▁රූපවාහ	-3124
▁සමිති	-3125
ඳවා	-3126
▁ලබාදෙන	-3127
▁එරට	-3128
▁මිත්	-3129
▁තරගය	-3130
▁නිෂ්පාදනය	-3131
රතිපත්ති	-3132
▁වන්න	-3133
රබල	-3134
▁ඉරා	-3135
▁රතු	-3136
▁විමස	-3137
▁මහතාට	-3138
▁පෘ	-3139
පිත	-3140
ියෝ	-3141
▁අලි	-3142
▁පුව	-3143
▁මන්	-3144
ස්ත්	-3145
▁පුරුදු	-3146
යිට්	-3147
ංස	-3148
▁යහපාල	-3149
▁වැය	-3150
▁උදෑසන	-3151
▁මුදල	-3152
▁නිසාම	-3153
▁අන්තිමට	-3154
▁එකතුව	-3155
▁ඉතිහාසය	-3156
▁නොකළ	-3157
▁තියෙනව	-3158
▁කණ්ඩායමේ	-3159
ගොස්	-3160
000	-3161
▁සරත්	-3162
▁විප්ලව	-3163
▁භි	-3164
▁ගෞරව	-3165
ූර	-3166
▁ජෙන	-3167
▁ගිණු	-3168
▁රෝහලේ	-3169
▁පොහො	-3170
▁දීර්ඝ	-3171
හුව	-3172
▁සුපිරි	-3173
ගැන්	-3174
▁කාලගුණ	-3175
▁අඩව	-3176
▁වෙනකොට	-3177
▁එකින	-3178
▁ගස්	-3179
▁ඇර	-3180
පතිවරයා	-3181
▁දූෂණ	-3182
▁දිසානායක	-3183
▁ජීවත්ව	-3184
▁වනදා	-3185
▁හින්දා	-3186
රිස්	-3187
▁දක්වන	-3188
යෙෂ්ඨ	-3189
▁මාර්ගයේ	-3190
පුරු	-3191
▁දේශපාලනය	-3192
▁විරෝධය	-3193
▁පිරිස්	-3194
▁කොටි	-3195
▁දඩ	-3196
▁සහය	-3197
▁මිනිහ	-3198
▁මහේස්	-3199
▁ජංගම	-3200
▁සෙල්ල	-3201
▁එංගලන්ත	-3202
▁හානි	-3203
▁ගැස	-3204
▁ඉතාමත්	-3205
▁චන්ද	-3206
▁ඇන	-3207
▁පත්තර	-3208
▁නරක	-3209
වාහන	-3210
රධානත්වයෙන්	-3211
ණන්	-3212
▁මිලදී	-3213
▁සිටිනවා	-3214
▁සිසු	-3215
▁හේතුවක්	-3216
රියාමාර්	-3217
▁දුරකථන	-3218
▁සාධාරණ	-3219
▁සාහිත්	-3220
▁පමණයි	-3221
▁මහේස්ත්	-3222
▁මල්ලි	-3223
▁පුළු	-3224
ාන්	-3225
▁ඇසු	-3226
▁දෙය	-3227
▁වූහ	-3228
ලෙන්	-3229
▁ජු	-3230
▁පිහිටුව	-3231
▁සමාගම්	-3232
පියන්	-3233
▁නොවෙයි	-3234
රදේශවල	-3235
ස්තා	-3236
▁මුණ	-3237
▁සිසුව	-3238
රමා	-3239
▁හදන්න	-3240
▁තෙක්	-3241
▁නංග	-3242
බෝ	-3243
▁ආපහු	-3244
ියෙක්	-3245
▁හාමුදු	-3246
▁වැඩපිළිවෙ	-3247
▁පුරවැ	-3248
▁දැරිය	-3249
▁සම්ප්	-3250
▁පිලි	-3251
▁කාන්තාවන්	-3252
▁ජාතී	-3253
දනාව	-3254
▁කරගත්	-3255
ාවලිය	-3256
වතු	-3257
▁හෝට	-3258
▁තැනක්	-3259
▁හිතට	-3260
▁හැඩ	-3261
▁ස්තුතියි	-3262
▁ලැබුණු	-3263
මාව	-3264
▁නොහැක	-3265
▁පන්ස	-3266
ූන්	-3267
▁26	-3268
▁පහු	-3269
ත්වයට	-3270
▁උපකරණ	-3271
▁වගකීම	-3272
ෙන්නට	-3273
▁ෆේස්	-3274
▁යෝජනාව	-3275
▁කණ	-3276
▁ගොඩනැග	-3277
▁බරපතල	-3278
රනාන්දු	-3279
▁යන්නෙ	-3280
▁අවස්ථාවක්	-3281
▁භික්ෂ	-3282
▁ලෙසින්	-3283
▁දැනගන්න	-3284
▁පනත	-3285
යො	-3286
▁මනා	-3287
▁ඡන්දය	-3288
▁සංස්කෘතික	-3289
▁තුරු	-3290
▁හී	-3291
▁කුම	-3292
▁සරස	-3293
▁කැල	-3294
▁අංග	-3295
▁නීතිඥ	-3296
▁අධිකරණයට	-3297
හත්	-3298
▁ටයි	-3299
▁ජර්	-3300
▁යාලුව	-3301
▁හැමෝ	-3302
▁පැරණි	-3303
▁ඊළඟ	-3304
▁වහාම	-3305
යාඥ	-3306
ාරත්න	-3307
▁තිස්සේ	-3308
▁සංස්කරණය	-3309
▁පෙරම	-3310
▁පුද්ගලික	-3311
▁නිවස	-3312
▁ජවිප	-3313
▁පිව	-3314
විල	-3315
කිරීමට	-3316
▁මතුව	-3317
කන්	-3318
▁කූ	-3319
▁නොලැබ	-3320
▁රැඳ	-3321
▁විමුක්ති	-3322
න්තොට	-3323
▁රසා	-3324
▁බලධාර	-3325
▁අවධාරණය	-3326
▁උන්වහන්සේ	-3327
▁ආයතනයේ	-3328
▁උද්ඝ	-3329
▁මංගල	-3330
▁බෝම්බ	-3331
▁අත්සන්	-3332
නල්	-3333
රකාශයට	-3334
▁සමන්විත	-3335
▁වැඩසටහන්	-3336
රච	-3337
සාරිස්	-3338
▁සමයේ	-3339
▁ස්වාධ	-3340
දිව	-3341
ලයක්	-3342
ථා	-3343
▁තත්ත්වයක්	-3344
▁බඩු	-3345
▁එදින	-3346
කල්	-3347
ණික	-3348
▁දෙවියන්	-3349
▁මහේ	-3350
සියන්	-3351
මුන්	-3352
▁මිතුර	-3353
▁ටෙස්ට්	-3354
▁මාතෘ	-3355
▁දිගු	-3356
▁එකක	-3357
▁සමහරු	-3358
ගමුව	-3359
▁සංකීර්	-3360
▁පෑ	-3361
▁ස්තූතියි	-3362
▁මෘ	-3363
▁නූ	-3364
යස්ථානය	-3365
ියෙ	-3366
▁අතරේ	-3367
▁ඉන	-3368
▁බලමු	-3369
ියු	-3370
▁ජො	-3371
බාධ	-3372
▁ලිව්	-3373
නාවක්	-3374
▁සිහි	-3375
ොත්ත	-3376
▁දුටු	-3377
යවේදී	-3378
▁ඔයාගේ	-3379
▁ලබාදීමට	-3380
▁සපය	-3381
▁සුවිශේෂ	-3382
▁40	-3383
▁මැතිතුමා	-3384
වෙමින්	-3385
ටෝ	-3386
▁සැපය	-3387
▁ඕනි	-3388
▁පරිපාල	-3389
▁වේවි	-3390
▁කරදර	-3391
රපටය	-3392
▁නෙමේ	-3393
▁ළම	-3394
▁ඇතුලත්	-3395
▁ගාල්ල	-3396
20	-3397
▁පැමිණෙන	-3398
▁හඳුන්වා	-3399
▁තුලින්	-3400
▁දෙයි	-3401
▁කන්ද	-3402
▁කින්	-3403
ඩියා	-3404
▁අසල	-3405
වාසික	-3406
▁නිර්දේශ	-3407
▁සිතා	-3408
▁කිසිවක්	-3409
▁එලෙස	-3410
රකාශක	-3411
▁අයගේ	-3412
▁සංගමයේ	-3413
▁ලබාදීම	-3414
▁විශි	-3415
▁මාතර	-3416
▁මල්ල	-3417
භාවය	-3418
▁නැතිනම්	-3419
▁සංචාරක	-3420
▁සතිය	-3421
සිල්	-3422
▁බලපෑම්	-3423
▁කිසියම්	-3424
ශ්ව	-3425
වීමෙන්	-3426
▁අන්න	-3427
▁ඇයගේ	-3428
▁තානා	-3429
▁හිස්	-3430
▁හදිසි	-3431
▁යාපනය	-3432
▁කීපයක්	-3433
▁එජාප	-3434
ියේදී	-3435
▁පළමුව	-3436
ුණි	-3437
▁පාද	-3438
▁මතය	-3439
ද්දක්	-3440
▁අපිත්	-3441
▁බහ	-3442
ලෝක	-3443
▁ආණ්ඩුවට	-3444
වැන්ත	-3445
ධිකරණ	-3446
▁දකින්න	-3447
▁තර්ජ	-3448
▁මහත්තයා	-3449
▁සම්බන්ධව	-3450
▁නිසයි	-3451
▁27	-3452
▁ගණනක්	-3453
▁වසා	-3454
▁පාරි	-3455
▁කෙරුණ	-3456
▁මුදා	-3457
▁යානය	-3458
▁බිලියන	-3459
නක	-3460
▁නවක	-3461
මාධ්	-3462
▁උව	-3463
▁ජනයා	-3464
▁මණ්ඩලයේ	-3465
ාරා	-3466
▁දැවැන්ත	-3467
රික්කයේ	-3468
▁රටක	-3469
ශව	-3470
▁රජයට	-3471
ෙමින්	-3472
▁අයුරින්	-3473
ැල්	-3474
▁ඉඳලා	-3475
▁ගණනාවක්	-3476
▁කවුරුත්	-3477
ඩී	-3478
▁ඩෙ	-3479
▁සදා	-3480
▁හරිය	-3481
▁උදෙස	-3482
▁හම්බන්තොට	-3483
▁නමැති	-3484
නයන්	-3485
▁හිතෙනවා	-3486
▁වැටුප්	-3487
ුද්ධ	-3488
▁සබඳ	-3489
▁අවස්ථාවට	-3490
▁දොර	-3491
▁විසි	-3492
▁ෆ්	-3493
▁නාල	-3494
▁ලු	-3495
▁ලදි	-3496
ගැනීමේ	-3497
▁ෆිල්	-3498
▁ගෙවල්	-3499
▁සිටියහ	-3500
වෙන්න	-3501
▁සලකා	-3502
▁කොහෙද	-3503
▁කියෙ	-3504
▁ශී	-3505
රුම්	-3506
▁එයාට	-3507
▁පැත්තට	-3508
▁කිරීමක්	-3509
▁පව	-3510
▁අධිරා	-3511
▁ලිව	-3512
▁ජාතීන්ගේ	-3513
▁පැත්තේ	-3514
▁28	-3515
ියාව	-3516
▁වතු	-3517
▁නායකත්වය	-3518
▁ගොඩා	-3519
▁පුද්ගලයෙකු	-3520
▁යන්ත්	-3521
▁ගෝඨා	-3522
රේෂ්ඨ	-3523
▁ලෙසට	-3524
▁ආදිය	-3525
▁මේකට	-3526
වාදීන්	-3527
▁ගං	-3528
එම්	-3529
▁ලක්ෂණ	-3530
▁වො	-3531
රීය	-3532
▁අදහසක්	-3533
▁නිව්	-3534
▁නොවූ	-3535
▁කෙනෙකුට	-3536
ලාභ	-3537
පිටිය	-3538
▁ඥා	-3539
එස්	-3540
▁ඉස්ලා	-3541
▁අවට	-3542
ස්සු	-3543
▁මව්	-3544
යින්ගේ	-3545
▁අංශයේ	-3546
▁නිහ	-3547
▁සැකකරුවන්	-3548
▁පිළිබදව	-3549
▁කොල	-3550
▁පොළො	-3551
▁කවර	-3552
▁සංස්ථ	-3553
▁තනි	-3554
ර්මය	-3555
▁2014	-3556
▁බිහි	-3557
▁පිප	-3558
▁ජිවිත	-3559
▁කත	-3560
රතිසං	-3561
▁නොකරන	-3562
ිස්ට්	-3563
▁එකකට	-3564
▁මෘදු	-3565
ගන්නේ	-3566
▁එයාල	-3567
සර	-3568
▁යතුරු	-3569
▁සැකකරු	-3570
▁සාධක	-3571
▁කළහ	-3572
▁දවසේ	-3573
▁ඇරඹ	-3574
▁බත්	-3575
▁මාගේ	-3576
▁පුහුණ	-3577
▁නොති	-3578
▁ගැහැ	-3579
▁වැඩිව	-3580
▁උඹට	-3581
▁දවසක	-3582
▁උන්ට	-3583
▁රාජකාර	-3584
වක	-3585
ප්පා	-3586
▁පදිංච	-3587
රයෙන්	-3588
▁අඳු	-3589
▁උදෙසා	-3590
▁සිදුකරන	-3591
ිකර	-3592
යයන්	-3593
▁මොනවද	-3594
ට්ටි	-3595
▁හිතෙන	-3596
▁විසඳ	-3597
▁හිනා	-3598
▁ජනමාධ්	-3599
▁ගැටලු	-3600
▁සමර	-3601
▁විරුද්ධව	-3602
ධන	-3603
▁සිත්	-3604
▁එතැන	-3605
රම්ප්	-3606
▁සංස්කෘතිය	-3607
▁කෘෂික	-3608
▁කිරිම	-3609
▁හිමියන්	-3610
ෝප	-3611
▁සිදුවීම	-3612
▁මස්	-3613
ෝල්	-3614
කට්	-3615
දුන	-3616
▁බලපෑ	-3617
ත්තිය	-3618
ලයි	-3619
▁යන්නට	-3620
ළිය	-3621
රයන්	-3622
▁කුසලා	-3623
▁වරාය	-3624
▁බලාපොරොත්ත	-3625
▁වනා	-3626
▁පූර්	-3627
▁වීමේ	-3628
ගනිමින්	-3629
▁සිටියදී	-3630
▁උග	-3631
▁සිටීම	-3632
▁අපේක්ෂා	-3633
▁කරමු	-3634
යතා	-3635
▁නගරය	-3636
▁ස්ථාව	-3637
▁කුමක්ද	-3638
▁මියගිය	-3639
▁ඉරි	-3640
▁දක්වමින්	-3641
▁සතියේ	-3642
▁අඩි	-3643
▁එබැ	-3644
▁ගොඩාක්	-3645
▁පුළුල්	-3646
නො	-3647
▁ගීතය	-3648
▁අවස්ථාවේදී	-3649
▁අහි	-3650
▁හදන	-3651
සියාවේ	-3652
ගෝ	-3653
▁මාර්තු	-3654
▁දිවි	-3655
▁පත්කර	-3656
▁තිබීම	-3657
▁අල්	-3658
▁දරුවන්ට	-3659
▁අවසර	-3660
▁01	-3661
▁කොමසාරිස්	-3662
වාදයට	-3663
නියා	-3664
න්ම	-3665
▁අංශය	-3666
රකට	-3667
▁බැංකුව	-3668
▁ධුර	-3669
▁ගැනත්	-3670
▁බේරා	-3671
▁හරියටම	-3672
▁ඉදිරියේදී	-3673
▁බැලුව	-3674
▁වතාව	-3675
▁හැකියාවක්	-3676
▁නාග	-3677
රංශ	-3678
▁මාසයේ	-3679
▁නින්ද	-3680
▁නිවේදනය	-3681
▁ෆිල්ම්	-3682
▁කිලෝ	-3683
▁පිහිටා	-3684
▁සරල	-3685
හාසික	-3686
▁මුද්	-3687
▁ගෝල	-3688
▁කියවන	-3689
▁ආයෙත්	-3690
▁දවස්වල	-3691
යාපාරය	-3692
පුව	-3693
▁සංශෝධනය	-3694
▁හාමුදුරුව	-3695
සර්	-3696
▁ආපසු	-3697
▁වීමෙන්	-3698
▁අතේ	-3699
▁සමීප	-3700
රග	-3701
▁පං	-3702
යිල්	-3703
▁අනිවාර්ය	-3704
ිකු	-3705
▁පට්ට	-3706
▁යාළුව	-3707
▁ෆොන්	-3708
▁ජෙනරාල්	-3709
දුවේ	-3710
පදි	-3711
▁පෙරමුණේ	-3712
ඩර්	-3713
▁පුලුව	-3714
තිහාසික	-3715
▁දස	-3716
ගර	-3717
තුරක්	-3718
▁කොමි	-3719
▁දැයි	-3720
▁පොර	-3721
▁පිවිස	-3722
▁දරු	-3723
රාන්ත	-3724
▁වෙනව	-3725
▁තියනව	-3726
▁ගනී	-3727
▁ඇතුලු	-3728
▁චාර	-3729
යං	-3730
▁දළ	-3731
▁විජය	-3732
▁එකිනෙ	-3733
▁තැනක	-3734
හී	-3735
▁නායකයා	-3736
▁රහස්	-3737
▁මැන	-3738
වලු	-3739
▁ලබාදී	-3740
▁කොමිසම	-3741
න්දි	-3742
පළ	-3743
▁ගිල	-3744
▁සිටිති	-3745
▁ටෙලි	-3746
▁සාක්ෂි	-3747
▁යූ	-3748
▁වැඩිප	-3749
▁යුත්	-3750
▁ජීවිතයේ	-3751
ර්ණ	-3752
බුක්	-3753
▁ඉන්ප	-3754
▁පන්ති	-3755
ගල්	-3756
▁සඟ	-3757
▁උනාට	-3758
හට	-3759
▁අරමුද	-3760
▁ගනුදෙන	-3761
රභ	-3762
▁පින්තූ	-3763
රෙන්න	-3764
▁ලැබීය	-3765
▁වසරේදී	-3766
▁සැප්ත	-3767
▁දර්ශ	-3768
▁ගහන්න	-3769
යාංශයේ	-3770
තරා	-3771
▁මචං	-3772
▁බලයට	-3773
▁කපා	-3774
▁එත්	-3775
▁කිරීමේදී	-3776
ජර්	-3777
▁වලදී	-3778
▁මෙයට	-3779
▁ඉංජ	-3780
ට්ස්	-3781
▁සිදුවීම්	-3782
▁හින	-3783
නුකූ	-3784
බරව	-3785
▁සංවිධානයේ	-3786
වලදී	-3787
පල	-3788
රීම	-3789
කැ	-3790
▁අනුගමනය	-3791
▁දුර්වල	-3792
භෝගික	-3793
▁සංඝ	-3794
▁දරා	-3795
සූරිය	-3796
▁දෙසැම්බර්	-3797
▁තාර	-3798
▁පූජ	-3799
▁සියලූ	-3800
මානයේ	-3801
වරයෙකු	-3802
▁ඕස්ට්	-3803
▁දරන	-3804
▁පිරිසි	-3805
▁අනුරාධපුර	-3806
▁ස්ත්	-3807
▁කණ්ඩායමක්	-3808
▁අන්තිම	-3809
දෙනා	-3810
▁අර්බුද	-3811
▁රත්න	-3812
හෙස	-3813
▁වැරද	-3814
▁කෙරි	-3815
කාංග	-3816
▁එළියට	-3817
▁දෙමින්	-3818
▁පිස්සු	-3819
රවේශ	-3820
▁ලාභ	-3821
▁සිදුවිය	-3822
තළ	-3823
නාත්මක	-3824
▁කඩුලු	-3825
▁බලවේ	-3826
▁ඉන්දියානු	-3827
▁අවකාශ	-3828
▁ඇඳුම්	-3829
▁වැරැ	-3830
▁සමාජවාදී	-3831
▁වැඩිහ	-3832
▁පමන	-3833
▁ඔවුහු	-3834
රුවේ	-3835
▁පවත්වන	-3836
ිනම්	-3837
▁රාව	-3838
▁අරා	-3839
▁අතරතුර	-3840
▁ඔප්පු	-3841
▁විශේෂයෙන්ම	-3842
▁දෙදෙනෙකු	-3843
▁පිරින	-3844
▁ඇල	-3845
යයට	-3846
▁වටා	-3847
▁මොහොතේ	-3848
▁වගා	-3849
▁අපූරු	-3850
▁පහස	-3851
▁සහගත	-3852
▁නුඹ	-3853
▁හුව	-3854
▁ආයෙ	-3855
වැන්න	-3856
▁ජනරාල්	-3857
▁පාරිභෝගික	-3858
▁මාලි	-3859
▁ඇමෙරික	-3860
▁බලපත්	-3861
ෂි	-3862
▁කිව්වෙ	-3863
▁උපදේශ	-3864
▁2010	-3865
රීවරුන්	-3866
▁සහයෝගය	-3867
න්දුවක්	-3868
▁මනෝ	-3869
▁ගම්ප	-3870
▁අගෝ	-3871
▁විහි	-3872
ලාට	-3873
▁ජනාධිපතිවරණ	-3874
▁ගම්මා	-3875
ිලේ	-3876
▁ජීවන	-3877
ිසුරු	-3878
▁හින්ද	-3879
▁අහෝ	-3880
▁පෙත්ස	-3881
ීටර්	-3882
ාරය	-3883
▁උත්සහ	-3884
▁විශේෂඥ	-3885
▁දෙකම	-3886
රාදා	-3887
▁ලබයි	-3888
▁ලින්	-3889
කුට	-3890
▁වේල	-3891
▁ඉතිහාසයේ	-3892
▁අගමැතිවරයා	-3893
▁ගෙද	-3894
▁දෙන්නා	-3895
▁වෙනස	-3896
▁පිළිවෙ	-3897
▁පාලක	-3898
ට්ටුව	-3899
▁පල්ල	-3900
▁දහස්	-3901
▁ඉංජිනේ	-3902
ස්ති	-3903
▁ඉතුරු	-3904
▁පැතුම්	-3905
රකාශයක්	-3906
යකදී	-3907
▁සේවක	-3908
▁බලන්	-3909
▁ස්වාධීන	-3910
▁ධාවනය	-3911
▁විනාඩි	-3912
ශීලී	-3913
▁ජවිපෙ	-3914
▁විකල්ප	-3915
රදර්ශනය	-3916
▁භාෂාව	-3917
▁වරදක්	-3918
▁නොදැන	-3919
▁මත්ද්	-3920
▁ලෙසයි	-3921
▁සප	-3922
▁පිටුව	-3923
▁සමාගමේ	-3924
විලි	-3925
න්ස්	-3926
▁පාරේ	-3927
සියානු	-3928
යාපෘති	-3929
▁රාජපක්	-3930
▁තවම	-3931
ුනා	-3932
කයක්	-3933
▁දැමීමට	-3934
▁අයිතිවාසික	-3935
▁තානාපති	-3936
ජ්ජ	-3937
▁ලක්ව	-3938
▁උරුම	-3939
▁2012	-3940
▁සාපේ	-3941
▁පැහැර	-3942
වම	-3943
▁අධිරාජ්	-3944
▁පස	-3945
▁නිරූප	-3946
▁තුමා	-3947
▁ටැ	-3948
▁සව	-3949
▁මෙහෙය	-3950
▁විදුහල්	-3951
▁29	-3952
▁දෙකකට	-3953
▁31	-3954
ාත්	-3955
▁මහත්ව	-3956
▁නොහැකිය	-3957
▁චීනය	-3958
▁රක්ෂිත	-3959
▁විභා	-3960
▁හුවමාර	-3961
▁අනුමත	-3962
▁නොමැ	-3963
▁එබැවින්	-3964
▁කටයුතුව	-3965
ංසක	-3966
▁අනික්	-3967
▁ඔක්තෝ	-3968
▁කකු	-3969
රුවක්	-3970
දෙන්න	-3971
▁වටහා	-3972
▁කුමන	-3973
▁ජයවර්ධන	-3974
▁සන්ධානය	-3975
රේල්	-3976
▁එප	-3977
▁දැම්ම	-3978
▁පත්වූ	-3979
▁රෝහලට	-3980
▁හුඟ	-3981
▁අතු	-3982
▁විශ්වාසය	-3983
▁අත්ව	-3984
ල්ලු	-3985
▁නවී	-3986
ිර්	-3987
හෙන්	-3988
කයන්ට	-3989
▁විමල්	-3990
▁ලියලා	-3991
▁අනුමැ	-3992
▁ලැයි	-3993
▁ගිවිසුම	-3994
▁නිදා	-3995
▁උබ	-3996
▁සහන	-3997
▁දර	-3998
▁අකම	-3999
▁මොහොත	-4000
▁අබේ	-4001
▁ලැබෙන්නේ	-4002
පොල	-4003
▁මර	-4004
▁නැම	-4005
වරුන්ගේ	-4006
ලාගේ	-4007
▁තිබ්බා	-4008
න්නම්	-4009
▁පෙබරව	-4010
▁ගෘ	-4011
ම්ස්	-4012
විනි	-4013
▁ඉල්ලීම	-4014
▁විස්ස	-4015
▁2013	-4016
▁සැප්තැම්බර්	-4017
▁නියමිතය	-4018
▁පැහැදිලිව	-4019
▁දෙමා	-4020
▁රවී	-4021
▁කෙසේද	-4022
▁දුෂ්	-4023
සේකා	-4024
▁අයුරු	-4025
▁ලග	-4026
රෙන්	-4027
▁හැක්කේ	-4028
කයෝ	-4029
▁ඉවස	-4030
▁ගෝඨාභය	-4031
ගන්නවා	-4032
▁හැමෝටම	-4033
▁යුධ	-4034
සියාව	-4035
ධිර	-4036
▁ගියාම	-4037
දුනා	-4038
ාවේදී	-4039
▁අක්ක	-4040
න්ධන	-4041
▁35	-4042
▁දිවයින	-4043
පුරා	-4044
▁ගොනු	-4045
▁කෝටි	-4046
යාවක්	-4047
▁ජෙ	-4048
▁අහල	-4049
නුත්	-4050
▁සේවයේ	-4051
▁උපු	-4052
▁මරු	-4053
▁මෙච්චර	-4054
රවාදී	-4055
▁ආකාරයේ	-4056
▁පාරක්	-4057
▁ෆේස්බුක්	-4058
▁බලලා	-4059
▁විරෝධතා	-4060
රස්	-4061
▁පාන	-4062
▁පරම්ප	-4063
▁තාක්ෂණය	-4064
▁දැමීම	-4065
නාහිර	-4066
▁නොවී	-4067
▁උපාධි	-4068
රියාමාර්ග	-4069
ගොල්ල	-4070
ෝජනය	-4071
▁මෘදුකාංග	-4072
▁ඉක්මනින්	-4073
▁ලද්දේ	-4074
▁අගෝස්තු	-4075
▁සේන	-4076
▁ඇට	-4077
▁උතුරේ	-4078
▁සහිතව	-4079
රූ	-4080
▁තල	-4081
▁අඩුව	-4082
▁හිටියෙ	-4083
▁දෙපාර්තමේන්තුවේ	-4084
යාජ	-4085
▁දුරටත්	-4086
▁බලකා	-4087
▁යමින්	-4088
▁තමන්ගෙ	-4089
▁අයින්	-4090
▁මෝඩ	-4091
කාව	-4092
▁හීන	-4093
▁කේන්ද්	-4094
▁එක්කම	-4095
▁නඩුව	-4096
වන්නේ	-4097
▁ස්ථානයේ	-4098
▁03	-4099
▁පන්තියේ	-4100
▁යටත්	-4101
ලනිප	-4102
▁ඇතිවන	-4103
සේන	-4104
ිවේ	-4105
▁ඉක්ම	-4106
▁නිලධාරින්	-4107
▁ජාව	-4108
රේලිය	-4109
▁මිනි	-4110
▁බස්නාහිර	-4111
වුල්	-4112
ුනු	-4113
▁නොවැම්බර්	-4114
▁ඵල	-4115
▁ලියාපදි	-4116
▁අලෙවි	-4117
▁දැනටම	-4118
රකාශය	-4119
▁සතුව	-4120
▁පරීක්	-4121
▁රාශ	-4122
▁අධි	-4123
▁පාප	-4124
▁අඩංගු	-4125
යවරුන්	-4126
▁වර්තමාන	-4127
▁සිටියි	-4128
▁යුරෝප	-4129
ත්තක්	-4130
▁පෙම්ව	-4131
▁පොලිසියට	-4132
▁පැළ	-4133
▁කඩේ	-4134
▁උත්සවය	-4135
▁අනුමැතිය	-4136
▁තවද	-4137
▁නොක	-4138
▁සෘ	-4139
▁ඇල්	-4140
ාරී	-4141
හිම	-4142
▁ගහන	-4143
▁දියත්	-4144
ස්ටර්	-4145
▁එතරම්	-4146
▁කමිටුව	-4147
▁ආකාරයෙන්	-4148
▁වුණු	-4149
▁පාකි	-4150
▁මීටර්	-4151
▁ලැබෙනවා	-4152
ජන්	-4153
▁ගසා	-4154
▁ගලා	-4155
▁අනුර	-4156
▁2011	-4157
▁රෝගී	-4158
▁පස්වරුවේ	-4159
ෂිත	-4160
පාන	-4161
▁ආරංචි	-4162
▁සංවාද	-4163
▁ස්ථාපිත	-4164
▁රුධිර	-4165
▁දෝ	-4166
ක්කා	-4167
▁රථය	-4168
▁ඇහැ	-4169
▁එලියට	-4170
▁ආලෝක	-4171
▁පළාතේ	-4172
▁කොමිෂන්	-4173
▁මැතිවරණය	-4174
මින	-4175
▁අසරණ	-4176
▁සෙසු	-4177
රෑම්	-4178
▁පරිවර්තනය	-4179
▁බැඳුම්	-4180
හක්	-4181
▁ආදායම්	-4182
▁සිංග	-4183
▁විකාශ	-4184
▁පාර්ශව	-4185
▁මනුෂ්	-4186
▁ගියේය	-4187
▁ඉන්ධන	-4188
▁60	-4189
රියාවලිය	-4190
▁මෙයා	-4191
▁07	-4192
▁අහිංසක	-4193
රවාහන	-4194
▁ෆොන්සේකා	-4195
▁චින්	-4196
▁ආර්ථිකය	-4197
▁කෙනා	-4198
▁දේවා	-4199
▁දියණිය	-4200
▁අළුත්	-4201
▁දඬුවම්	-4202
හෙන්න	-4203
▁දැක්කා	-4204
▁විකි	-4205
වනු	-4206
කීය	-4207
▁අමෙ	-4208
▁රස්ස	-4209
▁සන්	-4210
▁තරමට	-4211
▁කැමතියි	-4212
▁පහසුවෙන්	-4213
▁උපකාර	-4214
▁පැමිණිලි	-4215
▁අයවැ	-4216
▁කිව්වොත්	-4217
තුරට	-4218
▁විදිය	-4219
▁දාගෙන	-4220
▁කස	-4221
▁දයා	-4222
▁අයිතිවාසිකම්	-4223
▁මද	-4224
ිවේද	-4225
▁උණුසුම්	-4226
▁ලැබුවේ	-4227
ගේම	-4228
▁කාර්යාලයේ	-4229
▁අමාරුයි	-4230
රදේශය	-4231
▁වැටී	-4232
▁ඩය	-4233
▁ළමය	-4234
▁කරති	-4235
▁රසික	-4236
ස්තියා	-4237
▁පොලීස	-4238
▁විසඳු	-4239
▁තරමක්	-4240
▁හිතන්නෙ	-4241
කයෙක්	-4242
▁ගෙදරට	-4243
▁හිතන	-4244
වලා	-4245
▁මට්ටමේ	-4246
දින්න	-4247
▁කිරීමයි	-4248
යවස්ථාව	-4249
▁ජාවාර	-4250
▁පුත්	-4251
▁දෘ	-4252
▁නැඟ	-4253
▁පෙනෙන	-4254
▁දැම්මා	-4255
▁කාරණා	-4256
▁පෙබරවාරි	-4257
ලික්	-4258
▁සමාව	-4259
▁පුරුෂ	-4260
▁දරුණු	-4261
▁ගැටළු	-4262
▁නිවාඩු	-4263
▁බැඳුම්කර	-4264
▁කරගත	-4265
▁මරණය	-4266
▁බැලුවා	-4267
▁සැළ	-4268
▁සිංහ	-4269
▁ජපා	-4270
▁විකුණ	-4271
රීඩාංග	-4272
රිපාල	-4273
ල්ස්	-4274
පාර	-4275
▁අයියේ	-4276
රිලා	-4277
▁රෙජ	-4278
▁අඩවි	-4279
▁බැන	-4280
▁ගත්තේය	-4281
▁තමු	-4282
▁තාවක	-4283
▁භාෂා	-4284
▁විප	-4285
යාය	-4286
වත්ත	-4287
▁පුන	-4288
රීවරයා	-4289
▁සැලැ	-4290
▁තාවකාල	-4291
▁පරීක්ෂා	-4292
▁පාර්ලිමේන්තුවට	-4293
ිතය	-4294
▁එකී	-4295
▁ආනය	-4296
▁ආයේ	-4297
▁අහෝසි	-4298
▁කැර	-4299
▁දිගින්	-4300
▁වංචා	-4301
▁තියෙන්න	-4302
ඳින්න	-4303
▁අවදාන	-4304
▁කෙනෙකු	-4305
▁එක්වෙමින්	-4306
▁වර්තමානයේ	-4307
රන්ථ	-4308
▁සැලකිය	-4309
▁හිතනවා	-4310
▁තරගාවලිය	-4311
▁ලෙසත්	-4312
▁වෙරළ	-4313
▁වන්ද	-4314
▁ආන්ඩුව	-4315
▁යෙද	-4316
▁වරට	-4317
▁ලැබුවා	-4318
▁පොරොන්දු	-4319
▁කෙට	-4320
▁එළඹ	-4321
▁ගාය	-4322
▁05	-4323
▁සංකීර්ණ	-4324
▁ආණ්ඩුක්	-4325
පට	-4326
නුව	-4327
▁බණ්ඩාරනායක	-4328
▁පදනම	-4329
▁තත්වයක්	-4330
▁වෙලාවක්	-4331
වාගෙන	-4332
▁කුඩු	-4333
▁එක්තරා	-4334
වරුන්ට	-4335
▁ලබාගත්	-4336
▁මෙවන්	-4337
▁අර්ජ	-4338
▁ස්වාම	-4339
රවීර	-4340
▁තාමත්	-4341
▁හමුදාවේ	-4342
▁කඳවු	-4343
▁ශබ්	-4344
▁අතරම	-4345
▁රණවිර	-4346
▁වටිනාකම	-4347
▁පිරිසිදු	-4348
▁මින්	-4349
▁යනකොට	-4350
▁දුරට	-4351
යන්ගෙන්	-4352
▁ඒකෙ	-4353
▁බලවත්	-4354
▁හයි	-4355
▁එවන්	-4356
ඩේ	-4357
▁නිවසට	-4358
▁දෙන්නට	-4359
▁යලි	-4360
▁සමත්ව	-4361
▁සැමියා	-4362
▁ගුණවර්ධන	-4363
▁කොර	-4364
ෑගල	-4365
ෙමු	-4366
▁මිනිස්සුන්ට	-4367
කාමී	-4368
ිතව	-4369
▁ඉවරයි	-4370
හය	-4371
▁නට	-4372
▁සංවිධායක	-4373
රියාකාරී	-4374
යාම	-4375
තැන	-4376
මාල්	-4377
▁සෑහෙන	-4378
තිලක	-4379
▁ඔයාලට	-4380
ළුවක්	-4381
▁අක්කා	-4382
රමාණවත්	-4383
රවාදය	-4384
▁පන්තිය	-4385
ුල්	-4386
▁මිස්	-4387
▁දැකලා	-4388
නං	-4389
▁සවස	-4390
රදේශයේදී	-4391
▁රෝගය	-4392
▁දුෂ්කර	-4393
▁බිහිව	-4394
▁ආතල්	-4395
▁ලැබීම	-4396
වමින්	-4397
▁කොහොමත්	-4398
▁අරම	-4399
▁නියමිතයි	-4400
▁ගබ	-4401
▁අකුරු	-4402
රතිසංස්ක	-4403
ොප්	-4404
▁කණ්ඩායමට	-4405
▁කෙලින්	-4406
▁වද	-4407
▁තිබී	-4408
▁හිඟ	-4409
හර	-4410
▁චා	-4411
▁තරගාවලියේ	-4412
▁ලබන්නේ	-4413
▁කම්ප	-4414
▁දැනටමත්	-4415
රීම්	-4416
▁කළමනාකරණ	-4417
▁වූවා	-4418
▁සුද්ද	-4419
තුමන්	-4420
▁අණ	-4421
▁ගොඩනැගි	-4422
▁මොනා	-4423
▁අඩුම	-4424
▁උද්ඝෝ	-4425
පැල්	-4426
▁දිනේ	-4427
▁කුරුණ	-4428
▁අවුලක්	-4429
▁ලංකාවෙ	-4430
▁මියගොස්	-4431
▁පූජා	-4432
▁ඉස්කෝලෙ	-4433
▁රාජිත	-4434
▁සත්ව	-4435
▁ධාර	-4436
▁නවත්ත	-4437
▁අර්ධ	-4438
▁සිද්ද	-4439
සෙන	-4440
රුවට	-4441
▁කලාව	-4442
▁ෆෝන්	-4443
තැන්	-4444
▁සිව්	-4445
▁සංචාරය	-4446
▁මන්දා	-4447
▁තැන්පත්	-4448
▁අපිව	-4449
▁අමාරු	-4450
▁දර්ශන	-4451
▁භෞ	-4452
▁මතකයි	-4453
▁වාර්ෂික	-4454
▁නායකයන්	-4455
▁ඉල්ලීමක්	-4456
▁අවස්ථාවක	-4457
▁වෙහෙස	-4458
▁ගඟ	-4459
▁යුව	-4460
කගේ	-4461
▁පූර්ව	-4462
▁මොහු	-4463
▁දෙසට	-4464
▁විග්	-4465
රේෂ්ඨා	-4466
▁පවසන	-4467
▁නොමැත	-4468
▁විශිෂ්ට	-4469
▁500	-4470
ගන්නට	-4471
▁උදාහරණයක්	-4472
ිවුඩ	-4473
▁දුන්නේය	-4474
▁කිහිපයකට	-4475
▁ස්වයං	-4476
▁කාරක	-4477
▁නිල්	-4478
ත්වල	-4479
▁නොතිබ	-4480
▁නිශ්ච	-4481
▁නමක්	-4482
රසාද	-4483
මින්ද	-4484
▁සංග්	-4485
▁ආසියානු	-4486
වරයකු	-4487
ිවල	-4488
▁බැවිනි	-4489
ළා	-4490
▁දොස්තර	-4491
▁රථයක්	-4492
▁පෙන්නුම්	-4493
▁කොන්දේ	-4494
යාග	-4495
▁යථ	-4496
▁උපසිර	-4497
▁කිරිමට	-4498
▁කතාබ	-4499
▁සහකාර	-4500
යන්ත	-4501
▁ඇත්	-4502
▁තාක්ෂණික	-4503
බර	-4504
▁70	-4505
දිම	-4506
▁බුද්ධි	-4507
▁මගෙන්	-4508
▁අමුතු	-4509
▁අහලා	-4510
▁ධු	-4511
▁196	-4512
ධු	-4513
▁නිදහ	-4514
ජාතික	-4515
▁දෙකට	-4516
▁බාධා	-4517
▁නිතරම	-4518
▁බල්ල	-4519
රෙනවා	-4520
තෙක්	-4521
▁පූජ්	-4522
▁වෙලාවේ	-4523
ාවකට	-4524
ය්	-4525
▁බොහෝම	-4526
▁අවාස	-4527
▁අරමුණු	-4528
▁කාටවත්	-4529
ලාදේශ	-4530
ජීව	-4531
ේය	-4532
▁කවිය	-4533
▁කුරුණෑගල	-4534
▁එයාගේ	-4535
▁තැපැල්	-4536
▁ගැටලුව	-4537
▁දැනෙන	-4538
දනය	-4539
▁කියමින්	-4540
රභා	-4541
▁තොටු	-4542
▁බෙහෙත්	-4543
හාන්	-4544
▁ආනන්ද	-4545
▁මුලු	-4546
ලාස්	-4547
කර්	-4548
▁පහුගිය	-4549
▁කුමන්ත්	-4550
▁සොහො	-4551
▁සාමාජිකයන්	-4552
▁එච්චර	-4553
සල්	-4554
▁නෑනේ	-4555
▁විකිණ	-4556
▁වටේ	-4557
▁කාරණ	-4558
▁පවරා	-4559
▁එවකට	-4560
▁ගහලා	-4561
▁බාහිර	-4562
▁තැනට	-4563
▁විමසා	-4564
▁සෙනෙ	-4565
▁අතුරුද	-4566
▁ඇඳු	-4567
කුණ	-4568
▁උණ	-4569
ැම	-4570
ියෙකු	-4571
▁භාවිතය	-4572
▁ඉප	-4573
කරන්න	-4574
▁වෙති	-4575
▁මයි	-4576
රමවේද	-4577
▁හෙයින්	-4578
▁කිලෝම	-4579
▁ස්වර	-4580
▁ආබාධ	-4581
▁පැවැත්ම	-4582
▁යාප	-4583
▁අදත්	-4584
▁පොතේ	-4585
▁අලූ	-4586
▁සන්නිවේද	-4587
▁වර්ජනය	-4588
▁පෙරවරුවේ	-4589
▁පාඩම්	-4590
විත්	-4591
▁දර්ශනය	-4592
හිත	-4593
▁නොමිලේ	-4594
▁අජිත්	-4595
▁මට්ට	-4596
▁පූර්ණ	-4597
▁සාපේක්ෂ	-4598
▁රුවන්	-4599
▁මන්ත	-4600
ක්වා	-4601
▁කැට	-4602
▁උඹේ	-4603
▁තීන්	-4604
▁අදටත්	-4605
▁ඉදිරිපිට	-4606
▁දීල	-4607
▁පොතක්	-4608
වන්ත	-4609
▁සෙල්ලම්	-4610
▁වහන්සේගේ	-4611
▁නැත්තේ	-4612
▁ගැහ	-4613
▁රංගන	-4614
ොස්	-4615
න්ට්	-4616
▁හැදුව	-4617
▁රසාය	-4618
▁ඊල	-4619
▁නොමැතිව	-4620
▁ආගම්	-4621
▁සැර	-4622
ිමය	-4623
ුරුම්	-4624
පාදනය	-4625
▁ගැටුම්	-4626
▁මොවුන්	-4627
▁08	-4628
▁ආණ්ඩුවක්	-4629
▁02	-4630
▁තීන්දු	-4631
▁එහෙමත්	-4632
▁විරෝධතාව	-4633
ෙන්ට	-4634
▁ගොඩන	-4635
ිවිඩ	-4636
▁සර	-4637
▁වෙලාවක	-4638
▁පෙනේ	-4639
▁ලබාගෙන	-4640
▁අනන්	-4641
▁කාලයේදී	-4642
▁සාමය	-4643
▁දෙනු	-4644
ලනය	-4645
▁මහන්	-4646
▁හොදයි	-4647
▁විනිසුරු	-4648
ෙක්ට්	-4649
රහණ	-4650
▁සුදුසුකම්	-4651
ජීවී	-4652
▁කම්කරුවන්	-4653
▁ඒකත්	-4654
▁45	-4655
▁එමගින්	-4656
▁නොදන්නා	-4657
▁වයි	-4658
කයෙකු	-4659
▁කරගැනීමට	-4660
රීඩක	-4661
▁කරුණක්	-4662
▁කාලා	-4663
▁නියමිතව	-4664
▁විපක්ෂයේ	-4665
ධිකරණය	-4666
▁පිං	-4667
▁උන්න	-4668
ැසි	-4669
▁මුව	-4670
මාන්	-4671
රීලනිප	-4672
▁ඉරිදා	-4673
▁තිබියදී	-4674
▁ඒවායේ	-4675
රේක	-4676
▁පුහුණුව	-4677
ම්බා	-4678
▁ඉස	-4679
▁තමාට	-4680
කරුවන්ට	-4681
▁මන්දිර	-4682
▁ලෑ	-4683
▁ගින්න	-4684
▁අරු	-4685
▁තියාගෙන	-4686
▁එකල	-4687
ක්ෂයට	-4688
▁වැලි	-4689
▁විදුලිය	-4690
▁දෙකේ	-4691
▁වාසනාව	-4692
▁ගුණා	-4693
▁බිත්	-4694
▁අපනය	-4695
▁ආයුධ	-4696
▁අභි	-4697
▁දියුණ	-4698
න්නෙත්	-4699
▁කෙරිණි	-4700
රීන්	-4701
▁ලියාපදිංචි	-4702
▁ඔහුව	-4703
▁වැඩපිළිවෙළ	-4704
▁රජතුමා	-4705
ෙදි	-4706
නීය	-4707
ආර	-4708
▁නාමය	-4709
▁ඉදිකිරීම්	-4710
▁වැඩියි	-4711
▁හඳුන්	-4712
▁බැරිව	-4713
▁මිශ්	-4714
දෙනෙකු	-4715
▁දැවී	-4716
▁එක්දින	-4717
▁සිරුර	-4718
▁ඉකුත්	-4719
▁දාපු	-4720
▁ජෝන්	-4721
▁අතුරුදන්	-4722
▁බිම්	-4723
ංකාර	-4724
තලේ	-4725
▁යානා	-4726
▁ගති	-4727
▁අවසානය	-4728
▁එළි	-4729
▁04	-4730
▁වෙනස්කම්	-4731
▁තිල	-4732
▁ආවෙ	-4733
▁සීමාව	-4734
ගනු	-4735
ගාමී	-4736
▁හිතාගෙන	-4737
▁පොස්ට්	-4738
▁පෙල	-4739
▁ලින්ක්	-4740
▁මිර	-4741
▁මොළ	-4742
▁දශක	-4743
▁නිකන්	-4744
▁ලියපු	-4745
▁කියලත්	-4746
▁ඉන්නව	-4747
▁පාඨමා	-4748
▁පාසලේ	-4749
▁පැවත	-4750
▁සීන්	-4751
සින	-4752
▁මේජර්	-4753
▁ලබාදුන්	-4754
බ්බ	-4755
▁වැඩිදුර	-4756
▁වෙද්දී	-4757
▁මැදිහත්	-4758
▁අනි	-4759
▁ඉනිම	-4760
▁පසුබිම	-4761
▁බරපතළ	-4762
යවශ්	-4763
▁ඔබා	-4764
▁අවස්ථාවල	-4765
▁ගැනීමෙන්	-4766
▁බැගින්	-4767
▁කිරීමත්	-4768
නාම	-4769
▁ඩ්	-4770
චි	-4771
කරුවන්ගේ	-4772
රසන්න	-4773
ටික්	-4774
▁කිහිපයක	-4775
▁අමත	-4776
▁පීඨ	-4777
▁කෙරුණු	-4778
▁ලේකම්වරයා	-4779
දුණු	-4780
▁වර්ගයේ	-4781
ද්දා	-4782
▁කාන්තාවක්	-4783
▁ලැයිස්තුව	-4784
▁ෆොට	-4785
▁අත්ත	-4786
▁ආරාධනා	-4787
▁විසිනි	-4788
▁පින	-4789
▁කීය	-4790
ිසේ	-4791
▁ඇමතිවරයා	-4792
▁ඇල්ල	-4793
ෘද	-4794
▁අවංක	-4795
▁පරිසරය	-4796
▁වැඩිපුර	-4797
ටිය	-4798
▁තිස්ස	-4799
▁දෙකක	-4800
▁අඛ	-4801
යුම්	-4802
▁යුක්ත	-4803
▁පැවසූ	-4804
▁ඇමරිකාව	-4805
▁වචනය	-4806
▁සතුන්	-4807
▁ඉස්සරහට	-4808
▁කරනව	-4809
▁ඉන්පසු	-4810
▁නැරඹ	-4811
රියන්	-4812
රෙයි	-4813
▁06	-4814
පුරුදු	-4815
යාස	-4816
▁දමන	-4817
▁දේශපාලනඥ	-4818
▁කියැ	-4819
පතා	-4820
▁දහම	-4821
▁පැවැත්වූ	-4822
▁සමූහ	-4823
▁ගියොත්	-4824
▁හිතුනා	-4825
ලිබ	-4826
▁චරිතය	-4827
▁භෞතික	-4828
▁කහ	-4829
▁පැත්තෙන්	-4830
▁සංවේදී	-4831
▁පැවැස	-4832
සුම	-4833
වෙල	-4834
රවාහ	-4835
▁කාරණය	-4836
රාර්ථ	-4837
▁රංජ	-4838
▁කැන	-4839
▁එවුන්	-4840
▁රඳවා	-4841
▁යළ	-4842
▁2009	-4843
▁සිටීමට	-4844
▁සරණ	-4845
▁80	-4846
ත්තල	-4847
▁භට	-4848
▁ආසන	-4849
▁චූ	-4850
▁හදිස	-4851
▁මෙයින්	-4852
▁කෙටු	-4853
▁රෝගීන්	-4854
▁රත්නායක	-4855
දිග	-4856
▁අනව	-4857
▁හාන	-4858
▁සිදුවී	-4859
▁හදලා	-4860
▁ඉල්ලීම්	-4861
කාලීන	-4862
▁නිපද	-4863
ැබ්	-4864
▁විනය	-4865
▁යොමුව	-4866
තියට	-4867
▁කාඩ්	-4868
දීමේ	-4869
ක්ෂක	-4870
▁මූණ	-4871
▁එක්කෙන	-4872
රාජ්	-4873
▁ඉදි	-4874
යෙහි	-4875
▁අන්තර්ගත	-4876
▁රෙදි	-4877
▁වැස්ස	-4878
රියානු	-4879
බල්	-4880
▁හඳුන්ව	-4881
▁195	-4882
▁උස්ස	-4883
▁සතුටින්	-4884
▁ශාන්ත	-4885
රතිශ	-4886
▁වෙසක්	-4887
රයෙක්	-4888
කලා	-4889
▁සිහින	-4890
▁ගොවි	-4891
▁ඉවත්ව	-4892
▁ගානක්	-4893
▁අදිය	-4894
▁හිමිය	-4895
▁බොහොමයක්	-4896
▁ගම්පහ	-4897
▁මහජනතාව	-4898
වරයෙක්	-4899
▁තමාගේ	-4900
▁තරගයේ	-4901
▁සිරු	-4902
▁එච්	-4903
පෑ	-4904
▁ඒවාට	-4905
▁දන	-4906
▁හවස	-4907
▁යළිත්	-4908
පෝ	-4909
▁ආදි	-4910
▁ගැහැණු	-4911
▁වැඩියෙන්	-4912
▁යෙදී	-4913
▁පුවත්ප	-4914
ඳා	-4915
▁අක	-4916
▁සංක්	-4917
ියම	-4918
▁සූත්	-4919
▁ඥ	-4920
▁කියවලා	-4921
▁ධර්මය	-4922
▁විභාගය	-4923
▁යෑම	-4924
▁දෙනකු	-4925
▁ලැබුණා	-4926
▁වායු	-4927
▁යකෝ	-4928
කුල	-4929
▁ජලා	-4930
යුත්	-4931
▁හුද	-4932
▁යහපාලන	-4933
▁ඇමරිකාවේ	-4934
▁හිතෙන්නේ	-4935
▁සෙබ	-4936
▁දැම්	-4937
▁ටො	-4938
▁බළ	-4939
▁පොලිස්පති	-4940
▁බලවේග	-4941
▁පුරාම	-4942
▁ස්ථානයට	-4943
▁අධිකාරිය	-4944
▁කලේය	-4945
▁විටත්	-4946
රහාරය	-4947
▁උළෙල	-4948
▁මිසක්	-4949
▁මොකද්ද	-4950
වරිය	-4951
▁චෝදනාව	-4952
ැල	-4953
▁රැඳී	-4954
▁රී	-4955
රහය	-4956
▁සද්ද	-4957
▁නොවු	-4958
ීමයි	-4959
ියාගේ	-4960
▁මෙතැන	-4961
▁පණිවිඩ	-4962
▁ගැටල	-4963
▁තාක්	-4964
ියාට	-4965
▁සම්බන්ද	-4966
▁පුද	-4967
▁වේගයෙන්	-4968
ෙක්ට	-4969
▁යාත්	-4970
▁බුදුන්	-4971
▁තෑ	-4972
නයේදී	-4973
▁රාම	-4974
▁කොටුව	-4975
▁සුනිල්	-4976
▁අමර	-4977
▁අසු	-4978
▁දෙනෙකුට	-4979
▁තීරණයක්	-4980
▁ඩෙංගු	-4981
ිපී	-4982
යාප්ත	-4983
▁දන්වා	-4984
▁ගස	-4985
▁වුනාට	-4986
▁ගෘහ	-4987
තයක්	-4988
▁දැනගෙන	-4989
▁ඇතිවූ	-4990
▁බැහැර	-4991
▁නැං	-4992
▁වීමත්	-4993
▁බොල	-4994
▁අතිරේක	-4995
රාජ	-4996
▁එකිනෙකා	-4997
▁රුසියානු	-4998
▁ඔක්තෝබර්	-4999
▁නිළධාර	-5000
▁මිතු	-5001
▁කොට්ඨාස	-5002
▁එයි	-5003
ෂ්ණ	-5004
▁දැං	-5005
▁බලධාරීන්	-5006
කයන්ගේ	-5007
▁ඔයාගෙ	-5008
▁උල්ල	-5009
▁හුරු	-5010
▁කෝල්	-5011
▁ඊනියා	-5012
▁මෙරටට	-5013
▁තීන්දුව	-5014
ටම්	-5015
▁වීරව	-5016
▁යුගයේ	-5017
▁ලබාගත	-5018
▁පැල	-5019
▁ආපදා	-5020
▁ඉර	-5021
රයෝජන	-5022
▁සේවාව	-5023
▁ෆොටෝ	-5024
▁ඉදන්	-5025
ිපත්	-5026
රායෝග	-5027
▁එ්	-5028
▁ලියල	-5029
▁කලක්	-5030
▁පණිවුඩ	-5031
▁දිවයිනේ	-5032
▁විදුහල්පති	-5033
▁ගනන්	-5034
▁ඉන්ට	-5035
පන	-5036
▁සක්	-5037
වුණු	-5038
▁බැලූ	-5039
▁සහෝද	-5040
▁සැලකි	-5041
▁මිනිස	-5042
යන්හි	-5043
රේමදාස	-5044
▁සේනාරත්න	-5045
▁විපක්ෂය	-5046
▁බංග්	-5047
▁කීවේය	-5048
▁ගාල	-5049
▁ආයෝජන	-5050
▁උඩින්	-5051
▁විසු	-5052
▁අයෙක්	-5053
▁සිදුවන්නේ	-5054
▁නරඹ	-5055
ටින්	-5056
යටත්	-5057
▁බෝධ	-5058
▁සින්දුව	-5059
▁වාර්තාවක්	-5060
බ්ල	-5061
▁ලෝකේ	-5062
▁බැර	-5063
▁වාසි	-5064
▁සම්මේ	-5065
▁නැගී	-5066
දිලා	-5067
▁හොඳටම	-5068
▁ඇන්	-5069
▁කරමි	-5070
▁අතිශය	-5071
ගන්	-5072
ක්ෂා	-5073
▁චරිතයක්	-5074
ම්බර	-5075
▁අත්හිට	-5076
▁නිවැරද	-5077
▁සුවිශේෂී	-5078
▁ගාමිණ	-5079
▁විදුහල	-5080
▁යන්ත	-5081
▁නිකං	-5082
▁දිගට	-5083
▁සබඳතා	-5084
▁නිහඬ	-5085
▁පාසල	-5086
▁මේකේ	-5087
ිනො	-5088
▁බැස	-5089
▁පශ්ච	-5090
නස්	-5091
▁කීවා	-5092
රමාද	-5093
▁නිශ්	-5094
▁කුසලාන	-5095
▁ස්ථාවර	-5096
ීනව	-5097
▁තර්ක	-5098
ුණාම	-5099
▁පුවත්පත්	-5100
▁දැකිය	-5101
රමයෙන්	-5102
▁සම්පූර්ණයෙන්ම	-5103
▁වල්	-5104
▁හමුවට	-5105
ල්ලෙන්	-5106
▁ඝාත	-5107
▁අතරට	-5108
▁සාර	-5109
▁වැටි	-5110
▁යම	-5111
දෙව්	-5112
ශ්වර	-5113
▁සිතිය	-5114
රමයට	-5115
▁නැතත්	-5116
▁ඔස	-5117
▁නොදන්න	-5118
▁ඉංජිනේරු	-5119
▁ඒකෙන්	-5120
▁පවුල	-5121
▁අධිපති	-5122
▁වෙතින්	-5123
▁සතුටක්	-5124
▁පෘථ	-5125
▁පැතිර	-5126
ධිපත්	-5127
▁සංකේ	-5128
▁අඬ	-5129
▁ඇවිල්ලා	-5130
යතාවය	-5131
▁ජීවිතක්ෂයට	-5132
ිපා	-5133
▁මැදිහත්ව	-5134
▁මදි	-5135
▁වැටෙන	-5136
ආරච්චි	-5137
▁කොහේ	-5138
▁ලයි	-5139
බව	-5140
▁වැළැක්	-5141
▁සටන	-5142
▁සැන	-5143
ංශික	-5144
වතුන්	-5145
▁ලේඛන	-5146
▁කීර්	-5147
ර්ස්	-5148
▁අදාළව	-5149
▁තත්ත්වයට	-5150
යයනය	-5151
▁සූර්	-5152
▁යවන්න	-5153
▁සුළ	-5154
ෂයේ	-5155
▁මාළු	-5156
▁විලා	-5157
▁තැබීම	-5158
▁ඉඳල	-5159
▁කෙල	-5160
▁කලබල	-5161
▁නැහැන	-5162
නීප	-5163
▁දෙව	-5164
▁හොයාගන්න	-5165
ාවිද්	-5166
▁අක්කර	-5167
ෙස්	-5168
▁අවුල්	-5169
ෂාන්	-5170
▁හින්දු	-5171
▁අනාගතය	-5172
▁වසරක්	-5173
රමික	-5174
▁ආදර්ශ	-5175
▁දායකත්වය	-5176
▁ගාව	-5177
▁නාගරික	-5178
ංඝ	-5179
▁උඩු	-5180
▁කොන්	-5181
මුල්ල	-5182
තන්	-5183
වනෙ	-5184
▁බැලීමට	-5185
▁බැලීම	-5186
▁විදේශීය	-5187
▁පානය	-5188
▁වගකිව	-5189
ත්වයේ	-5190
ිං	-5191
▁අනවශ්	-5192
▁හදවත	-5193
▁සමාජයට	-5194
ිනිය	-5195
▁ඒකයි	-5196
▁ඉඩක්	-5197
රියාවට	-5198
▁ගුව	-5199
▁හුවමාරු	-5200
▁විමසීම	-5201
▁ආක්	-5202
▁යෝ	-5203
▁මුහුද	-5204
▁නාමල්	-5205
▁අල්ලස්	-5206
▁ගෝලීය	-5207
▁බලපෑම	-5208
▁චීනයේ	-5209
▁මේ	-5210
▁පිරිම	-5211
▁වසන්ත	-5212
▁194	-5213
▁අයෙකු	-5214
▁වෑන්	-5215
ාමී	-5216
▁වේගය	-5217
▁ඩේ	-5218
රියාකාරකම්	-5219
කටද	-5220
ප්පත්	-5221
▁හුඟක්	-5222
චිත	-5223
▁පාර්ශ්ව	-5224
රපටයේ	-5225
▁දරුවන්ගේ	-5226
ණිජ	-5227
ිතිය	-5228
▁ශූර	-5229
▁කාලීන	-5230
ූව	-5231
ටයි	-5232
▁පති	-5233
▁ශාස්ත්	-5234
▁ජූලි	-5235
▁බහුතරයක්	-5236
▁ඒකකය	-5237
▁පිරිව	-5238
▁දේශනා	-5239
▁විසඳුම්	-5240
රිප	-5241
▁මෑතක	-5242
▁කාව	-5243
▁කතන්දර	-5244
▁තහන	-5245
▁අඩුපා	-5246
▁අපහාස	-5247
▁ගෑනු	-5248
ඩෝ	-5249
▁නුව	-5250
▁ඉස්සෙ	-5251
පිල	-5252
▁අස්ස	-5253
▁සිටම	-5254
රුවත්	-5255
▁බලතල	-5256
▁හිනාව	-5257
▁දෙමල	-5258
▁මිලිට	-5259
ඵලය	-5260
▁පුරාවිද්	-5261
▁පරිපාලන	-5262
▁දහම්	-5263
▁හර්	-5264
▁ලක්වූ	-5265
▁ඒමට	-5266
▁සෙනසු	-5267
ගමන	-5268
▁නියු	-5269
▁තිබ්බේ	-5270
▁මෙතනින්	-5271
▁චු	-5272
▁කොමිසමේ	-5273
▁පිටත්	-5274
▁ස්වභාවය	-5275
▁ශරීර	-5276
න්ටත්	-5277
▁පරිශ්	-5278
▁බංග්ලාදේශ	-5279
▁කැම්ප	-5280
වින්ම	-5281
▁හැමදේ	-5282
▁විවේචනය	-5283
▁කවදා	-5284
▁අර්බුදය	-5285
▁දෙමව්	-5286
ළුවට	-5287
▁කෘතිය	-5288
රජාව	-5289
▁ඉවත	-5290
▁දුප්පත්	-5291
▁සැරස	-5292
▁චිත	-5293
ෙනුත්	-5294
▁ධනවා	-5295
ත්තික	-5296
▁ගණනාව	-5297
▁හදන්නේ	-5298
▁කොතරම්	-5299
▁ඇතුල්	-5300
▁දත්	-5301
▁වර්ෂයේ	-5302
▁පුද්ගලයෙක්	-5303
▁ශබ්ද	-5304
▁ලස්සනට	-5305
▁කතාවේ	-5306
▁බොන්න	-5307
ධර්ම	-5308
▁ගාස්තු	-5309
▁ඉස්ලාම්	-5310
▁සිංගප්ප	-5311
▁ඇතුල	-5312
▁වුයේ	-5313
තෙම	-5314
▁ලැබුණ	-5315
▁සොයාගෙන	-5316
හක	-5317
▁අලුතින්	-5318
▁කමිටු	-5319
▁වීරවංශ	-5320
▁සේවයට	-5321
▁ශක්	-5322
▁පාස්	-5323
▁අතුරුදහන්	-5324
රදායික	-5325
▁උද්ඝෝෂණ	-5326
▁අම්මට	-5327
▁තියෙනවද	-5328
ුවම	-5329
▁අශ	-5330
▁ලිපියේ	-5331
▁සාමාජිකයින්	-5332
▁අහු	-5333
▁සිරි	-5334
පැන්	-5335
▁බැට	-5336
යයන	-5337
▁පන්ද	-5338
▁ඇතුලේ	-5339
රශ්ණ	-5340
▁කව්	-5341
▁අඹ	-5342
▁කළත්	-5343
▁ගමනක්	-5344
▁බලපෑමක්	-5345
▁ජනගහ	-5346
▁ලක්ෂ්	-5347
▁සම්මා	-5348
▁වතාවක්	-5349
▁ඉක්මනට	-5350
දරව්	-5351
▁යුරෝපා	-5352
ගාරය	-5353
රියක්	-5354
▁වෙද්දි	-5355
▁ඔබතුමා	-5356
ිසුරුව	-5357
▁වෙද	-5358
▁එනිසා	-5359
▁ජනපදය	-5360
▁කෙතරම්	-5361
▁යාමේ	-5362
▁තියන්න	-5363
▁පව්	-5364
මක	-5365
ආර්	-5366
▁කරේ	-5367
සිට	-5368
▁සේනානායක	-5369
▁දෛ	-5370
ිකාවක්	-5371
ාරු	-5372
▁නවතම	-5373
යංශය	-5374
කරමින්	-5375
▁කොමෙන්ට්	-5376
▁කරු	-5377
▁සියව	-5378
පර	-5379
▁ඔහේ	-5380
▁ලෙඩ	-5381
▁කාණ්ඩ	-5382
▁සම්මානය	-5383
▁නැතැයි	-5384
▁ගමනා	-5385
▁වෙයිද	-5386
▁කලාපයේ	-5387
▁පාරට	-5388
▁රාජධාන	-5389
▁බැංකුවේ	-5390
යෙකුට	-5391
▁සීනි	-5392
▁තායි	-5393
▁පිතික	-5394
▁විනෝද	-5395
යාර්	-5396
▁පිස්ස	-5397
▁ඇතුළත	-5398
රිර	-5399
▁දානවා	-5400
ගයේ	-5401
▁මිනිහා	-5402
▁ලොකුම	-5403
රිකාව	-5404
කටත්	-5405
▁ලැබුණේ	-5406
නෝ	-5407
යක්ද	-5408
▁අසාර්ථක	-5409
▁පහරද	-5410
▁කථානායක	-5411
▁සත්කාර	-5412
▁උල්ලංඝ	-5413
▁ඉස්කෝලේ	-5414
ව්වේ	-5415
▁පහක්	-5416
▁රූපවාහිනී	-5417
▁කලාපය	-5418
▁ගැඹුරු	-5419
▁විශ්ලේ	-5420
▁උදාහරණ	-5421
▁සයිටම්	-5422
▁සොය	-5423
▁නූතන	-5424
▁පැත්තෙ	-5425
▁ස්ථිර	-5426
▁ආසයි	-5427
▁කරගැනීම	-5428
▁පශ්චාත්	-5429
▁ගියත්	-5430
▁වකු	-5431
ම්පත	-5432
▁පම	-5433
▁තේරෙ	-5434
බ්ලිව්	-5435
මානු	-5436
▁අතීතයේ	-5437
▁වාඩි	-5438
▁දිනේෂ්	-5439
රතිඵලයක්	-5440
ළුවා	-5441
▁මැඩ	-5442
▁ආවරණය	-5443
▁ඉගැන්	-5444
▁ගැහැන	-5445
▁ආදායම	-5446
වීර	-5447
▁තර්ජනය	-5448
▁බලපාන	-5449
ාර්ග	-5450
යිඩ්	-5451
ඳින	-5452
▁යන්නයි	-5453
▁වෑ	-5454
අයි	-5455
▁සස	-5456
▁එකකින්	-5457
රමණය	-5458
▁පැර	-5459
▁ගිහිල්ලා	-5460
▁ශුද්ධ	-5461
නන්	-5462
▁පැවර	-5463
▁කිට්	-5464
▁එන්නෙ	-5465
ීන්ට	-5466
▁දැක්වෙන	-5467
▁සංස	-5468
ෘතියේ	-5469
▁යෑමට	-5470
▁ගත්තු	-5471
තාවයක්	-5472
හනේ	-5473
▁යේ	-5474
▁කාමර	-5475
වාදයේ	-5476
▁මැලේ	-5477
▁ගැසට්	-5478
තිමත්	-5479
▁සංහි	-5480
▁රැස්වීම	-5481
▁මනස	-5482
ල්ම	-5483
▁ස්ක	-5484
▁අඛණ්ඩ	-5485
▁නෞ	-5486
▁සමගම	-5487
▁සමගින්	-5488
වීන්	-5489
▁කිව්වට	-5490
▁කෘෂිකර්ම	-5491
▁කාර්යය	-5492
▁හතරක්	-5493
ංගය	-5494
තෙන්	-5495
▁ධූ	-5496
▁අනුග්	-5497
දුනු	-5498
▁ධුරය	-5499
▁එද	-5500
යවේදීන්	-5501
හදා	-5502
▁නොත	-5503
▁ගාණ	-5504
▁ගනුදෙනු	-5505
ෘද්ධ	-5506
▁සිකු	-5507
▁වනාන්තර	-5508
▁මේව	-5509
▁දිල	-5510
▁අධිවේ	-5511
යී	-5512
▁ස්ප	-5513
▁කෑග	-5514
▁පරිමාණ	-5515
▁සීත	-5516
▁සැඟ	-5517
▁යෙදෙන	-5518
▁කෞ	-5519
▁ඇත්නම්	-5520
▁ස්වර්	-5521
▁බලයක්	-5522
▁ගින	-5523
▁හොදට	-5524
▁කතාවට	-5525
▁බූ	-5526
▁ඇඩ්	-5527
▁32	-5528
▁දකුණ	-5529
▁හොයන්න	-5530
පාත	-5531
▁නිදහසේ	-5532
ගතව	-5533
▁එනව	-5534
▁නැගිට	-5535
▁දිව්	-5536
චර්	-5537
▁ඇන්ට	-5538
▁වරා	-5539
▁ඔස්ට්	-5540
▁සාකච්ඡාවක්	-5541
▁වීමයි	-5542
▁කැම්පස්	-5543
▁රසායනික	-5544
▁ලබාගැනීමට	-5545
▁නවීන	-5546
ඩියක්	-5547
ිවී	-5548
▁තනතුර	-5549
ින්ට	-5550
▁නොපෙන	-5551
▁නීතිමය	-5552
▁නෑනෙ	-5553
▁සභාපතිවරයා	-5554
▁උපයෝග	-5555
▁වකුග	-5556
▁සවි	-5557
▁අයදුම්	-5558
න්නන්	-5559
▁හෙන	-5560
වරක්	-5561
▁පන්දුව	-5562
▁ජර්මන	-5563
▁පැමිණියේ	-5564
රබ	-5565
▁සිහිපත්	-5566
▁බලපා	-5567
දෙනෙක්	-5568
▁පුද්ගලයකු	-5569
▁අඩුයි	-5570
▁ලස්සනයි	-5571
ා්	-5572
ලේඛ	-5573
සැ	-5574
▁දෙන්නෙක්	-5575
▁මෑත	-5576
රහාරයක්	-5577
▁පිළිකා	-5578
▁පාව	-5579
▁මතකය	-5580
▁තරහ	-5581
▁අවබෝධයක්	-5582
රියාවල	-5583
▁අනිවාර්	-5584
▁ලෝකෙ	-5585
▁උරු	-5586
▁හසු	-5587
▁ගැලපෙන	-5588
▁ඉන්දු	-5589
▁මත්පැන්	-5590
ිවලට	-5591
▁09	-5592
▁පරිත්	-5593
ලියේ	-5594
▁පකි	-5595
▁වාද	-5596
▁වුවහොත්	-5597
▁කම්ම	-5598
▁ඒකක	-5599
▁අප්ප	-5600
වෙනවා	-5601
▁අද්	-5602
▁කාර්මික	-5603
▁අංශයට	-5604
▁නැත්තං	-5605
▁උගත්	-5606
▁හෙතෙම	-5607
▁වාර්තාවේ	-5608
දෙණිය	-5609
නාවට	-5610
▁මිතුරන්	-5611
▁සියළුම	-5612
වාදයක්	-5613
▁වඩ	-5614
▁ඔවුනට	-5615
▁අකමැති	-5616
ුල	-5617
▁ඝාතන	-5618
▁කැඳවා	-5619
▁යනව	-5620
▁අභියා	-5621
▁ගංග	-5622
මෙ	-5623
▁නිරන්තර	-5624
▁උපත	-5625
▁රත්නපුර	-5626
▁සමන්	-5627
▁පීරිස්	-5628
▁නෙවේ	-5629
▁පක්ෂයට	-5630
▁පෙරේදා	-5631
▁ඉංග	-5632
▁හිතුවේ	-5633
▁රංජිත්	-5634
න්නරුව	-5635
▁පිටුපස	-5636
▁කළුතර	-5637
රවි	-5638
▁සමුළුව	-5639
▁ජගත්	-5640
▁ලන්ඩ	-5641
▁කමිටුවේ	-5642
▁හදපු	-5643
▁පේනවා	-5644
▁මචන්	-5645
එන්	-5646
▁හොදම	-5647
ක්ද	-5648
▁පරීක්ෂක	-5649
මිත්	-5650
▁නිසාත්	-5651
නුකූල	-5652
▁සාකච්ඡාව	-5653
ලීම	-5654
▁ජීවිතයට	-5655
▁දොරට	-5656
▁දුට	-5657
▁අතහැර	-5658
▁දඩුව	-5659
▁කතානායක	-5660
▁හොරු	-5661
ියකු	-5662
▁පිටින්	-5663
▁මවු	-5664
▁උතුම්	-5665
▁මුන්	-5666
▁අතුර	-5667
▁නියා	-5668
▁අන්තර්ජාලය	-5669
▁උපුටා	-5670
▁උවමන	-5671
▁යද්දී	-5672
▁අභියාච	-5673
▁දේශපාලනික	-5674
▁හදුන්	-5675
▁හෘද	-5676
▁බීම	-5677
ඳුරු	-5678
▁අරඹ	-5679
▁කියන්නට	-5680
බලා	-5681
▁කොන්දේසි	-5682
▁ගර්	-5683
▁කියනව	-5684
ුනේ	-5685
▁එයාගෙ	-5686
▁ආඥා	-5687
ත්තන්	-5688
▁අයවැය	-5689
▁උනොත්	-5690
▁ගොව	-5691
▁පිළිතුර	-5692
හැකි	-5693
▁ලිබ	-5694
▁සාපේක්ෂව	-5695
▁හදිසියේ	-5696
▁විසඳුමක්	-5697
ුමක්	-5698
▁දකින්නට	-5699
▁ඩු	-5700
රේල	-5701
▁සම්පු	-5702
▁මාමා	-5703
▁ගායක	-5704
▁පිහිටුවා	-5705
▁75	-5706
▁ගුරුවරු	-5707
▁ලියූ	-5708
▁කිසිසේ	-5709
කාරයෙන්	-5710
▁දවල්	-5711
▁මරණයට	-5712
▁ආයි	-5713
ොළ	-5714
ානි	-5715
▁සනා	-5716
▁ගෙවා	-5717
නයක	-5718
ඩින්	-5719
▁කරන්නත්	-5720
▁ගූ	-5721
▁ගායනා	-5722
▁වෙනිදා	-5723
▁තියලා	-5724
රතිසංස්කරණ	-5725
▁බදා	-5726
▁පුදු	-5727
▁බඳවා	-5728
රිස්තියා	-5729
▁දැක්කම	-5730
▁මායි	-5731
▁හන්ද	-5732
භූ	-5733
▁සන්නද්ධ	-5734
▁නිශ්චිත	-5735
ධනය	-5736
▁මිට	-5737
▁දීමේ	-5738
▁කාලෙකට	-5739
▁වස්තුව	-5740
▁ටෝ	-5741
ිරීම	-5742
▁භයා	-5743
මෝ	-5744
▁ඇහුවා	-5745
▁36	-5746
▁වහන්සේලා	-5747
▁අඩවියේ	-5748
ිනුත්	-5749
▁කරද්දී	-5750
▁සංර	-5751
▁ආකල්ප	-5752
▁රාජකීය	-5753
▁සින්දු	-5754
▁සුවඳ	-5755
▁සජිත්	-5756
රාර්ථනා	-5757
▁ඇමෙරිකානු	-5758
රීමට	-5759
ගර්	-5760
▁නොදැ	-5761
▁අවාසනාව	-5762
▁දූෂණය	-5763
වන්නට	-5764
▁බිස්	-5765
▁ආඩ	-5766
▁උතුර	-5767
▁මාක්ස්	-5768
▁සන්ධානයේ	-5769
▁නිවේදනයක්	-5770
▁වටිනවා	-5771
▁නංගි	-5772
▁දැක්වීම	-5773
යමය	-5774
▁යකඩ	-5775
▁කෑලි	-5776
නේශ්වර	-5777
▁සෝම	-5778
භව	-5779
▁පාවා	-5780
▁සාර්ථකව	-5781
▁පවතින්නේ	-5782
▁චක්	-5783
▁වැසියන්	-5784
▁පුවත්පත	-5785
▁බඳු	-5786
▁හඳ	-5787
▁සිද්ධියට	-5788
▁සුද	-5789
▁පන්න	-5790
සියෙන්	-5791
▁සේරම	-5792
▁රථයේ	-5793
▁පාකිස්තා	-5794
▁ඇනෝ	-5795
▁පරම	-5796
ගට	-5797
▁ඇමැතිවරයා	-5798
▁ගත්තෙ	-5799
▁නොවීම	-5800
▁ලූ	-5801
▁කොප	-5802
▁හිටි	-5803
▁කිරීමටත්	-5804
ුවද	-5805
▁හත්	-5806
▁විරහ	-5807
▁යතුරුපැ	-5808
▁සංගීතය	-5809
▁සභාවට	-5810
▁දිගේ	-5811
▁ආණ්ඩුකාර	-5812
▁සොර	-5813
රවිට	-5814
▁සළ	-5815
රුණා	-5816
▁මුලික	-5817
▁පරීක්ෂණයක්	-5818
▁අරමුණින්	-5819
▁ගහල	-5820
▁පිලිබඳව	-5821
▁සර්ව	-5822
▁කියවා	-5823
▁වාර්තාකරු	-5824
▁පොලීසියට	-5825
▁කෙල්ලෙක්	-5826
▁ඇවිද	-5827
රදානය	-5828
▁කථාව	-5829
▁කියන්නම්	-5830
▁ක්ලික්	-5831
▁පොලිසියේ	-5832
රදී	-5833
▁ඉන්ද්	-5834
කරගෙන	-5835
ලිත	-5836
▁නිමල්	-5837
▁වයඹ	-5838
▁සමහරවිට	-5839
රිතව	-5840
▁වාණිජ	-5841
මතු	-5842
▁ස්වභාවික	-5843
▁නිමි	-5844
ජය	-5845
▁අන්තර්ජාතික	-5846
▁දැමූ	-5847
▁ගත්තොත්	-5848
▁කැමරා	-5849
▁ගැන්	-5850
▁පහත්	-5851
ත්තුව	-5852
▁සිකුරාදා	-5853
තෝලික	-5854
▁ඉදලා	-5855
▁නිරීක්ෂණය	-5856
▁පාසැල්	-5857
▁කණගා	-5858
▁රාශියක්	-5859
▁ලෙසද	-5860
▁කැළ	-5861
රසා	-5862
තැ	-5863
▁තරුණය	-5864
▁හමුදාවට	-5865
▁පද්ධති	-5866
▁ඉන්දියාවට	-5867
▁ගනි	-5868
රණීය	-5869
▁පිහ	-5870
▁තරුණිය	-5871
ගක්	-5872
ොල්	-5873
▁සරසවි	-5874
▁එන්ජ	-5875
▁පරපු	-5876
▁අත්පත්	-5877
ාගම	-5878
▁නැත්තම්	-5879
රවීණ	-5880
▁වෙන්නත්	-5881
▁යථාර්ථ	-5882
▁33	-5883
▁වන්දි	-5884
▁අවල	-5885
▁ජයසූරිය	-5886
▁ගබඩා	-5887
▁නවා	-5888
සකට	-5889
ාවූ	-5890
▁සබ්	-5891
▁ගැටලුවක්	-5892
▁පරිස්ස	-5893
▁මොකෝ	-5894
▁සිදුවේ	-5895
තත්	-5896
▁විජිත	-5897
රජාතන්ත	-5898
▁සේවකයන්	-5899
▁වුනු	-5900
▁අයිතීන්	-5901
▁පාපන්දු	-5902
▁සිනම	-5903
▁අස්ථ	-5904
▁දැනුමක්	-5905
▁කතෝලික	-5906
වෙන්	-5907
▁බලනවා	-5908
▁ශාක	-5909
▁පිටත්ව	-5910
බඳු	-5911
▁පුස්ත	-5912
▁ස්වරූප	-5913
▁දෙන්නෙ	-5914
▁දෝෂ	-5915
▁පැවැසීය	-5916
ත්තම	-5917
ර්ට්	-5918
ලුම්	-5919
▁පිරි	-5920
▁අවුරුද්දක්	-5921
▁පන්	-5922
▁දෙවෙනි	-5923
▁බලල	-5924
▁නවස	-5925
▁ගෙවන	-5926
▁නවතා	-5927
රභාකර	-5928
▁උෂ්ණ	-5929
▁අවුරුද්දේ	-5930
▁කරගනිමින්	-5931
▁දහවල්	-5932
▁යාන්ත්	-5933
ුවොත්	-5934
▁බලශ	-5935
▁ගන්නෙ	-5936
▁90	-5937
▁මෙන	-5938
▁කෙලින්ම	-5939
▁කොරියානු	-5940
▁ෆෙ	-5941
▁නිලධාරීන්ගේ	-5942
▁කඳුළු	-5943
රදර්ශ	-5944
▁හදාගන්න	-5945
▁සත	-5946
රීඩකයන්	-5947
▁සදාචාර	-5948
ීර	-5949
▁රෝහ	-5950
▁අතිශ	-5951
ර්ය	-5952
▁නිලධාරීන්ට	-5953
▁300	-5954
රදේශවාස	-5955
▁සූදාන	-5956
ලන්	-5957
ලස්	-5958
ිලිමත්	-5959
▁ගව	-5960
රදේශයට	-5961
▁පවතිනවා	-5962
▁කල්ල	-5963
▁පීඩනය	-5964
▁වසරකට	-5965
▁සමරවීර	-5966
ුණ්	-5967
▁මිලට	-5968
▁ලෝකයට	-5969
රීඩාව	-5970
▁ඇතුළුව	-5971
▁සටහනක්	-5972
රතිපත්තිය	-5973
▁දෙන්නම්	-5974
ිනමින්	-5975
යර්	-5976
▁භාවය	-5977
▁සාක්	-5978
▁ජාතියක්	-5979
▁ගොඩනැගිලි	-5980
▁ගෑණු	-5981
▁බදුල්ල	-5982
▁2000	-5983
▁සමාජයක්	-5984
▁විටම	-5985
▁හිතාගන්න	-5986
▁භූමිය	-5987
ගෙයි	-5988
රචණ්ඩ	-5989
▁සුහ	-5990
▁සන්ත	-5991
▁බලාපොරොත්තුව	-5992
යවස	-5993
ිල්ල	-5994
▁ඇත්තෙන්ම	-5995
▁පේරා	-5996
▁ක්ෂ	-5997
ෆ්ට්	-5998
ලේකම්	-5999
▁තරංග	-6000
▁විනි	-6001
▁චම්ප	-6002
▁සයිට්	-6003
▁බැසිල්	-6004
යස්ථාන	-6005
▁වකුගඩු	-6006
▁කැඩ	-6007
▁පත්වී	-6008
▁පින්තූර	-6009
▁යොද	-6010
▁පත්විය	-6011
▁සඳු	-6012
▁දිනපතා	-6013
▁ගිණුම්	-6014
▁වැඩකට	-6015
ෝල	-6016
▁යද්දි	-6017
▁වචනයක්	-6018
▁යනා	-6019
ෝය	-6020
▁රසවත්	-6021
▁නොවීය	-6022
▁කඩිනමින්	-6023
▁අරගලය	-6024
▁හදුනා	-6025
▁ඇතිවිය	-6026
▁දිවුරුම්	-6027
▁කතර	-6028
රතිලාභ	-6029
▁දේශප්	-6030
▁දඟ	-6031
▁රාජකාරි	-6032
▁ජාන	-6033
ිතාව	-6034
▁සම්පුර්ණ	-6035
▁ඇගය	-6036
ෂ්ටික	-6037
▁කරුව	-6038
▁සමගාමී	-6039
දීන්	-6040
▁විදුලිබ	-6041
▁විමර්ශ	-6042
රනය	-6043
▁පොදුජන	-6044
▁ආයෝජ	-6045
▁වේදනාව	-6046
▁2008	-6047
වූයේ	-6048
▁වුණාට	-6049
වසම්	-6050
ස්සා	-6051
▁තනිව	-6052
▁හිතුවා	-6053
ලැ	-6054
▁තනතුරු	-6055
▁ඊටත්	-6056
▁අයිස්	-6057
▁දෙමාපියන්	-6058
▁දුරකතන	-6059
▁වැඩසටහනක්	-6060
පත්තු	-6061
▁වින්ද	-6062
▁දිනක	-6063
▁වේදික	-6064
▁සම්බන්ධතා	-6065
▁පටි	-6066
▁වගකීමක්	-6067
▁විශ්වාසභ	-6068
▁තුළදී	-6069
▁අධී	-6070
▁සැහැ	-6071
▁ලියන්නේ	-6072
ිකාර	-6073
▁පොහොර	-6074
▁උදය	-6075
▁ශත	-6076
▁ලැබිය	-6077
▁මොහොම	-6078
▁විභාගයට	-6079
▁ඔයාලා	-6080
▁සූර්ය	-6081
▁වීමක්	-6082
▁නොයෙක්	-6083
▁සිංහලෙන්	-6084
▁බර්	-6085
▁මුත්	-6086
▁පලව	-6087
▁යොදවා	-6088
▁මුල්ම	-6089
ටික	-6090
▁වශයෙන්ම	-6091
▁යෝජනාවක්	-6092
රිකුණාම	-6093
▁යවන	-6094
▁ටියු	-6095
▁අලුත්ම	-6096
▁හිතලා	-6097
▁නොහැකිව	-6098
▁ස්වාමීන්	-6099
සිනෝ	-6100
▁අබ	-6101
▁තෝර	-6102
▁සිතේ	-6103
▁රචනා	-6104
▁පෙට්ට	-6105
වැලි	-6106
▁සුපුරුදු	-6107
▁සහල්	-6108
▁හවුල්	-6109
▁තනියම	-6110
▁ගවේ	-6111
▁ජනාධිපතිවරයාගේ	-6112
▁උපදේශක	-6113
▁නන්ද	-6114
▁මාතල	-6115
▁කොන්ද	-6116
▁අසී	-6117
▁ආයතනයක්	-6118
▁හමාර	-6119
▁ආසන්නයේ	-6120
යාපාරයක්	-6121
▁ලැබුන	-6122
▁වනුයේ	-6123
▁නායකයින්	-6124
ොක්	-6125
ංකා	-6126
▁පමනක්	-6127
ල්ඩ්	-6128
▁විටෙක	-6129
▁තිබුනෙ	-6130
▁ඒකේ	-6131
දුරා	-6132
වීය	-6133
▁හොයාගෙන	-6134
▁ඇතිකර	-6135
▁පැවැත්වීම	-6136
▁භයානක	-6137
▁පස්වරු	-6138
▁සිතුවිලි	-6139
▁තැනකට	-6140
▁පවත්නා	-6141
ශාල	-6142
▁බහුතරය	-6143
▁විශාලතම	-6144
▁අයිතියක්	-6145
ිවෙලා	-6146
▁හානියක්	-6147
▁ලැජ්ජ	-6148
▁කැසිනෝ	-6149
න්නාර	-6150
▁කලු	-6151
▁පාන්	-6152
▁උනාම	-6153
▁හොදින්	-6154
ත්තෙන්	-6155
▁සියල්ලම	-6156
▁නුවරඑ	-6157
▁දැකල	-6158
▁හැග	-6159
▁සම්මු	-6160
▁මහන්සි	-6161
ුවේය	-6162
▁පනත්	-6163
▁ගිවිසුම්	-6164
ජනක	-6165
▁පෙරට	-6166
▁ආරංච	-6167
▁තනික	-6168
ේට	-6169
▁රැකියාව	-6170
ැඹ	-6171
ෝස්	-6172
සුන	-6173
▁කෙරු	-6174
▁කොල්ලෙක්	-6175
▁කළමනාකරණය	-6176
▁විකිපී	-6177
▁විපක්	-6178
▁පසුවන	-6179
▁වාසය	-6180
▁රුසියාව	-6181
▁ෙ	-6182
▁නෙව	-6183
වියට්	-6184
▁ළමයින්	-6185
▁නිර්මාණයක්	-6186
ුවෙනි	-6187
එල්	-6188
▁චැ	-6189
ැත්තා	-6190
▁හැමදේම	-6191
▁හිමිකර	-6192
පල්	-6193
ගිරි	-6194
න්දෙන	-6195
▁අව්	-6196
▁තත්වයට	-6197
▁කටුනායක	-6198
රචාරය	-6199
▁වයස්	-6200
▁ෆැ	-6201
▁පරිප	-6202
දෙස	-6203
▁සේම	-6204
භාර	-6205
යක්ෂම	-6206
▁දුකක්	-6207
▁සෑහෙන්න	-6208
▁සිද්ධියක්	-6209
▁අධිවේගී	-6210
▁ධනපති	-6211
▁තෘ	-6212
▁සපයන	-6213
▁ඇවිල්ල	-6214
▁රවි	-6215
▁නියෝජිතයන්	-6216
▁කරුණානායක	-6217
▁ලාංකීය	-6218
▁නොප	-6219
ණික්	-6220
▁ගොදුරු	-6221
රියාවේ	-6222
▁තුනකට	-6223
ච්චිය	-6224
▁වෘත්තිය	-6225
ටද	-6226
ලන්තය	-6227
තාන	-6228
▁දකින්නේ	-6229
▁පසුපස	-6230
▁චෝදන	-6231
විලා	-6232
යකුත්	-6233
▁පහතින්	-6234
▁පරක්කු	-6235
▁යෑයි	-6236
රිස්තියානි	-6237
▁ගැනීම්	-6238
▁සුදානම්	-6239
රියට	-6240
▁බෙද	-6241
▁අපේක්ෂක	-6242
▁ඕවා	-6243
▁මහත්වරු	-6244
▁අඟහ	-6245
▁කෙරුණා	-6246
▁හුදෙක්	-6247
විල්ල	-6248
▁පැමින	-6249
▁සහෝදරයා	-6250
සන්ත	-6251
කරුවෙකු	-6252
▁ආකර්	-6253
යෙකි	-6254
ප්තිය	-6255
රතිඵලය	-6256
ගෙම	-6257
▁තිබුණත්	-6258
▁ටිකට්	-6259
▁ඔබත්	-6260
▁කප්පා	-6261
වික්	-6262
▁සිංදුව	-6263
රායෝගික	-6264
ළුම්	-6265
රතිපත්ත	-6266
▁කවුරුවත්	-6267
▁වගකීම්	-6268
▁බිත්තර	-6269
▁නැහැනේ	-6270
▁පිටරට	-6271
▁වියදම	-6272
▁දිනයේදී	-6273
කොළ	-6274
ජින	-6275
▁නිරූපණය	-6276
▁ගිහිල්ල	-6277
▁උත්සාහය	-6278
▁පාතා	-6279
▁අසත්	-6280
▁සෝවියට්	-6281
▁මිනිසුන්ට	-6282
▁සම්පාදනය	-6283
▁සම්මන්ත්	-6284
ිකයන්	-6285
▁සිනා	-6286
▁ඉඩකඩ	-6287
▁දිනකට	-6288
▁දවසට	-6289
ඹුර	-6290
පයක්	-6291
▁කිව්වත්	-6292
▁එතනින්	-6293
▁දැක්කේ	-6294
▁මාවත	-6295
▁උදාව	-6296
ගිරිය	-6297
▁ගෙඩි	-6298
▁150	-6299
▁බලන්නේ	-6300
▁කටයුත්ත	-6301
▁ඇතුලට	-6302
▁නල	-6303
▁එනකොට	-6304
▁අත්දැකීමක්	-6305
තිව්	-6306
▁පළවෙනි	-6307
▁වහල	-6308
▁විනිසුරුව	-6309
වැත්ව	-6310
▁තැබූ	-6311
▁ආනයනය	-6312
▁ගියාට	-6313
භාවික	-6314
▁ධම්ම	-6315
▁පවසමින්	-6316
▁සැස	-6317
රතිපාදන	-6318
▁ආචාර	-6319
▁ආත	-6320
යමක්	-6321
ංසා	-6322
▁දික්	-6323
හිල	-6324
▁වාගේ	-6325
▁ළමුන්	-6326
▁දැන්වීම්	-6327
▁නිසාද	-6328
▁හැරී	-6329
ලයට	-6330
▁පේන	-6331
ඟු	-6332
ීකරණය	-6333
යාවේ	-6334
ැක	-6335
▁සාදා	-6336
රීඩාංගණ	-6337
▁කැපී	-6338
▁හේරත්	-6339
▁උපක්	-6340
▁මෙහෙයුම	-6341
▁එහෙමයි	-6342
▁අත්හදා	-6343
▁හිතුන	-6344
▁සේවාවන්	-6345
▁සේක	-6346
▁ෆෝ	-6347
▁පීඩාවට	-6348
▁අමාරුවෙන්	-6349
▁භූමි	-6350
▁චතුර	-6351
රස්තවාදය	-6352
▁කිතු	-6353
ොඩ	-6354
න්හි	-6355
▁ගොඩනැගිල්ල	-6356
▁භාග්	-6357
▁අධිකාරී	-6358
▁පැවැත්විණි	-6359
නියාව	-6360
▁නගා	-6361
▁ඒම	-6362
▁ජුනි	-6363
▁කටයුතුවල	-6364
වුන්ට	-6365
ිකාවන්	-6366
▁හදනවා	-6367
▁ධා	-6368
▁කුකු	-6369
ිකරුවන්	-6370
▁දළදා	-6371
▁කොහො	-6372
▁සංකල්පය	-6373
▁ගලවා	-6374
▁හමුදාපති	-6375
▁දඹු	-6376
▁කිලෝමීටර්	-6377
නිසා	-6378
▁අන්තිමේ	-6379
▁නිවෙස	-6380
▁මුකුත්	-6381
▁විස්	-6382
▁දුමින්ද	-6383
තුවෙන්	-6384
ීන්ගේ	-6385
ත්තලම	-6386
▁සුලු	-6387
▁නිලධාරියා	-6388
ිසර	-6389
▁චම්පික	-6390
▁ඇන්ඩ්	-6391
▁පේන්න	-6392
▁අපනයන	-6393
ෙනු	-6394
ෙදා	-6395
ශක	-6396
▁යුගය	-6397
▁වටින	-6398
▁ජපන්	-6399
▁මේකෙ	-6400
▁අම්ප	-6401
▁ගෙනිය	-6402
▁හිට්	-6403
▁කාරිය	-6404
▁නිමා	-6405
▁දිනයක්	-6406
ිකරුව	-6407
▁මොනවාද	-6408
▁ගෙන්වා	-6409
▁කාබ	-6410
▁ගාමිණී	-6411
▁ජාතියේ	-6412
රියාවක්	-6413
▁කොස්	-6414
▁සුම	-6415
▁පිලිබදව	-6416
ෑව	-6417
▁ගානේ	-6418
▁හං	-6419
▁අවහිර	-6420
▁අදහ	-6421
▁දරණ	-6422
▁කදු	-6423
▁උපසිරැසි	-6424
▁සුරක්ෂිත	-6425
▁වෙසෙන	-6426
▁ජීවිතයක්	-6427
▁අඩුපාඩු	-6428
▁ජාතීන්	-6429
▁කියූ	-6430
▁කවුන්ස	-6431
▁ගුණාත්මක	-6432
▁ශරීරය	-6433
රම්	-6434
ෘතියක්	-6435
▁ඉරණ	-6436
වුනා	-6437
▁බයිසික	-6438
▁උරුමය	-6439
▁කතරගම	-6440
▁ලක්ෂ්මන්	-6441
▁අනතුරට	-6442
▁ඔල	-6443
▁පැහැදි	-6444
▁කළාය	-6445
වාර	-6446
▁සන්ධාන	-6447
▁පිරිනැම	-6448
▁අවශ්ය	-6449
▁වේලාව	-6450
▁මෙහෙමයි	-6451
▁කෙනෙක්ට	-6452
▁ඔබාමා	-6453
▁ඉදිකර	-6454
▁සනාථ	-6455
▁සොහොයු	-6456
▁ඇතත්	-6457
▁දිර	-6458
▁නොපැ	-6459
▁වැන	-6460
මුණු	-6461
යාලයට	-6462
යක්ම	-6463
▁කලත්	-6464
▁වක	-6465
▁ස්ථානයක්	-6466
රසය	-6467
▁ගෞරවය	-6468
▁පාත්	-6469
▁ඔලි	-6470
▁භී	-6471
▁බොදු	-6472
▁දරුවාගේ	-6473
▁හිතෙන්නෙ	-6474
▁ටිකත්	-6475
▁අපො	-6476
සල	-6477
▁චේ	-6478
▁විනිශ්ච	-6479
▁ගොඩනැඟ	-6480
▁නිලධාරි	-6481
▁නොදී	-6482
▁කාලයක	-6483
▁1000	-6484
▁ගෑස්	-6485
▁65	-6486
▁සැකයක්	-6487
ගාරයේ	-6488
▁උසාව	-6489
ලන්තයේ	-6490
රස්තවාදී	-6491
වේදය	-6492
▁ම්	-6493
රශ	-6494
බට	-6495
▁කාළ	-6496
▁නොකිය	-6497
▁පියවරක්	-6498
▁34	-6499
වතුර	-6500
▁හඳුනාගෙන	-6501
යෙනි	-6502
▁හැරීම	-6503
න්නත්	-6504
▁කරවන	-6505
▁සන්නිවේදන	-6506
ගාව	-6507
▁කිහිපය	-6508
▁කාමරේ	-6509
▁ඔබව	-6510
▁බස	-6511
▁දෙනාම	-6512
▁පුත්තලම	-6513
▁වෙලාවෙ	-6514
▁උපයෝගී	-6515
ඩන්	-6516
ාලි	-6517
▁අලූත්	-6518
▁බොන	-6519
▁ඇෆ්	-6520
▁තමිල්	-6521
▁පුස්තකාල	-6522
ෛල	-6523
▁නඟ	-6524
▁පිටි	-6525
▁සිරා	-6526
▁ආරම්භක	-6527
▁වාසිය	-6528
ෂ්ප	-6529
ියාවේ	-6530
▁පිළිගත්	-6531
▁විකාර	-6532
▁ලෙන	-6533
දෙමින්	-6534
▁සතුටුයි	-6535
▁අරාබි	-6536
රේක්ෂ	-6537
චනය	-6538
▁වර්ජ	-6539
▁ධනේශ්වර	-6540
▁ජාතිවාදී	-6541
▁තිබිණ	-6542
▁නඩත්තු	-6543
▁හමුවී	-6544
▁ඔබ්	-6545
▁මැණික්	-6546
▁දූප	-6547
▁සාද	-6548
▁මාසයේදී	-6549
▁55	-6550
▁සැමට	-6551
▁උන්ගේ	-6552
▁විදුලිබල	-6553
ියුන	-6554
▁ඕනා	-6555
▁බහුල	-6556
▁සකසා	-6557
කාරි	-6558
▁සුල	-6559
▁සංදේශ	-6560
රවාහනය	-6561
▁ජනපදයේ	-6562
▁සියවසේ	-6563
▁තත්ත්වයන්	-6564
▁භේද	-6565
පතක්	-6566
▁යවා	-6567
▁සිදුකෙ	-6568
▁ශාඛ	-6569
▁කර්මාන්තය	-6570
ැට	-6571
▁හැල	-6572
▁ගෝත්	-6573
▁කම්මැ	-6574
▁මන්නාර	-6575
නින්	-6576
▁ආහාරයට	-6577
▁පහන්	-6578
▁නැතහොත්	-6579
▁කොල්ලො	-6580
▁මුහුණු	-6581
▁මිහ	-6582
▁වේදන	-6583
▁උඩට	-6584
▁අත්හිටුව	-6585
▁මිනිසුන්ගේ	-6586
▁උදවිය	-6587
▁කොල්ලෝ	-6588
▁විධිමත්	-6589
න්තො	-6590
▁පළාත	-6591
▁ලබාගැනීම	-6592
▁බබා	-6593
▁විග	-6594
▁බණ	-6595
▁නැවතු	-6596
▁සුළං	-6597
▁ඔලිම්ප	-6598
▁ඉක්මවා	-6599
▁දැනෙනවා	-6600
▁උඩරට	-6601
▁බලාගන්න	-6602
න්ගෙන්	-6603
▁හැඟීම්	-6604
▁ඔෆ	-6605
▁අයකු	-6606
▁නීත්	-6607
▁අපිටත්	-6608
▁තාවකාලිකව	-6609
තුවේ	-6610
ජිට	-6611
▁රයි	-6612
කරුවා	-6613
රාවේ	-6614
▁ආන්	-6615
▁මැර	-6616
▁බුදුරජා	-6617
▁රියදුරු	-6618
▁දේපළ	-6619
▁විසින්ම	-6620
▁ඊශ්	-6621
▁පිටිප	-6622
▁මිනිහෙක්	-6623
▁අහන	-6624
▁යොදාගෙන	-6625
රයෝජ	-6626
▁මේස	-6627
▁ඩොනල්	-6628
කටම	-6629
▁මුර	-6630
▁කාරණයක්	-6631
විස්	-6632
▁අංකය	-6633
▁අම්බ	-6634
▁කකුල්	-6635
▁සංගම්	-6636
▁බැලිය	-6637
ඩාව	-6638
නිජ	-6639
▁හරක්	-6640
▁යටින්	-6641
රාමීය	-6642
▁අහිම	-6643
ඩිව	-6644
▁අරං	-6645
▁කොට්ඨාශ	-6646
දියේ	-6647
▁ආධිපත්	-6648
▁අනාවරණ	-6649
▁සංහිඳ	-6650
▁පෘථිව	-6651
ීටර	-6652
▁ස්ථානාධිපති	-6653
▁හත	-6654
▁මණ්ඩලයට	-6655
▁ඔලුව	-6656
▁මහාධිකරණ	-6657
▁ඝාතනයට	-6658
රේෂ්ඨාධිකරණ	-6659
▁කුමරු	-6660
▁අහස	-6661
රාථ	-6662
▁නගරයට	-6663
රාග්	-6664
ළුවේ	-6665
▁නැමැති	-6666
පං	-6667
▁විකාශය	-6668
සියේ	-6669
▁ගැනයි	-6670
▁කළොත්	-6671
▁විසුරුවා	-6672
රපටි	-6673
▁අපරා	-6674
▁48	-6675
▁වුනොත්	-6676
▁හෙල	-6677
▁පෙළඹ	-6678
ලතා	-6679
▁උල්ලංඝනය	-6680
▁බන්දු	-6681
▁වෙළද	-6682
▁තුන්වන	-6683
ිරිසි	-6684
▁මූලා	-6685
▁කොහෙන්	-6686
රඥ	-6687
ලිත්	-6688
▁දෙරට	-6689
▁කොරියාව	-6690
ජි	-6691
රාථමික	-6692
න්ගෙ	-6693
මණා	-6694
▁වට්ට	-6695
▁ජලාශ	-6696
ොල	-6697
▁2020	-6698
▁සමගාමීව	-6699
▁තියාගන්න	-6700
▁කපු	-6701
▁නිවැරදිව	-6702
යත්ව	-6703
▁මිලිටරි	-6704
▁කරණ	-6705
▁වෙලේ	-6706
▁විකිපීඩියා	-6707
▁මහත්තය	-6708
▁ඛනිජ	-6709
▁කරුවන්	-6710
▁දෙන්නම	-6711
▁වේගවත්	-6712
▁පෙරළ	-6713
▁වැටිලා	-6714
▁දකුණේ	-6715
▁හමුවක්	-6716
▁ඉලෙක්ට්	-6717
▁වැර	-6718
▁පත්වන	-6719
ශාන්ත	-6720
විරෝධ	-6721
▁දැම්මේ	-6722
▁හොරෙන්	-6723
▁කොටු	-6724
▁විමර්ශනය	-6725
▁මෙකී	-6726
▁එයාලා	-6727
යාපාරයේ	-6728
▁අප්පා	-6729
18	-6730
▁කිලිනො	-6731
▁37	-6732
▁කෘති	-6733
▁ඔර	-6734
▁දැක්වේ	-6735
රචාරක	-6736
▁බලහත්	-6737
▁පාරවල්	-6738
▁මොකටද	-6739
▁කිසිවෙකු	-6740
▁මිළ	-6741
ිස්ස	-6742
▁සමෘද්ධ	-6743
▁දීපු	-6744
▁ගහනවා	-6745
▁බුද්ධිමත්	-6746
▁නවසී	-6747
▁මර්දනය	-6748
▁නිවන්	-6749
▁භු	-6750
▁නීතී	-6751
▁අක්ෂ	-6752
රේමය	-6753
▁කෞතු	-6754
ඩික	-6755
▁400	-6756
▁ඥාන	-6757
▁සාග	-6758
ම්පත්	-6759
▁අලංකාර	-6760
කුගේ	-6761
ජිප්	-6762
▁සෙනසුරාදා	-6763
▁ගුවන්තො	-6764
යස්ථානයේ	-6765
▁හෙළිදරව්	-6766
▁නත්ත	-6767
▁බවටයි	-6768
▁කරන්නද	-6769
▁ගංවතුර	-6770
▁ගමට	-6771
▁යමු	-6772
▁අභියාචනා	-6773
▁බිමට	-6774
▁කරමිනි	-6775
▁කොමියුන	-6776
යෂ්ටික	-6777
ට්ටේ	-6778
ැල්ල	-6779
▁කිව්වම	-6780
▁අපහසුතාව	-6781
▁උළෙලේ	-6782
▁අහිත	-6783
▁දෙයක්ම	-6784
ුක	-6785
▁වත්ත	-6786
▁උපාංග	-6787
▁හූ	-6788
▁අපෙ	-6789
▁මේකෙන්	-6790
▁නිරීක්ෂණ	-6791
▁අම්පාර	-6792
▁තබන	-6793
▁අයහ	-6794
ගනී	-6795
▁අධිකාරියේ	-6796
▁යුක්තිය	-6797
▁ගුවන්තොටු	-6798
▁පිපිර	-6799
▁සපයා	-6800
▁අර්ජුන	-6801
▁රණතුංග	-6802
ුවෙලා	-6803
▁භූමික	-6804
▁අවලංගු	-6805
▁පයින්	-6806
ීටී	-6807
▁ගෙනත්	-6808
▁හුස්ම	-6809
▁දඬුවම	-6810
▁මධු	-6811
▁මහත්වරුන්	-6812
ියකට	-6813
▁වන්දනා	-6814
▁නිරා	-6815
▁ආසියාවේ	-6816
▁රෝහණ	-6817
▁ගැටළුව	-6818
▁ක්ෂණ	-6819
▁ගුරුවරුන්	-6820
▁එහාට	-6821
▁පුරවැසි	-6822
කින	-6823
යාන	-6824
රවිඩ	-6825
▁ඔලිම්පික්	-6826
▁පලවෙනි	-6827
▁ගුණසේකර	-6828
▁පිරිමින්	-6829
▁ද්වි	-6830
▁බලශක්ති	-6831
▁ලියැ	-6832
▁බිල්	-6833
▁සිදුවීමක්	-6834
▁හැසිරීම	-6835
▁යත්	-6836
ඩුවක්	-6837
▁අතිශයින්	-6838
▁ගැටළුවක්	-6839
▁විඳින	-6840
▁කියවල	-6841
වීමේදී	-6842
දුරුව	-6843
▁නීතිපති	-6844
▁හැකිද	-6845
▁මහලේකම්	-6846
▁වදින	-6847
නුකූලව	-6848
යක්ෂක	-6849
▁වැඩට	-6850
ඩිස්	-6851
▁ඊජිප්	-6852
▁කැමැති	-6853
යුක්ත	-6854
▁තුන්දෙන	-6855
▁තරුණයා	-6856
▁ඇයව	-6857
ිමක්	-6858
▁බින්	-6859
▁බේර	-6860
▁පීඩා	-6861
▁පිරිසකට	-6862
▁ලැබිණි	-6863
▁එකකුත්	-6864
ෑන්ඩ්	-6865
▁සෙල්	-6866
▁විහාරය	-6867
▁ඇතුලත	-6868
▁අදියර	-6869
ූයේ	-6870
▁නයි	-6871
රාත්ව	-6872
▁නැව්	-6873
▁කරදරයක්	-6874
▁බන	-6875
▁අමතමින්	-6876
▁දෙකෙන්	-6877
▁කාටත්	-6878
ණියේ	-6879
▁ශල්	-6880
▁මාර්ගයෙන්	-6881
රශ්නෙ	-6882
▁සිංදු	-6883
▁කන්ඩා	-6884
▁පුරවැසිය	-6885
▁බෙල්ල	-6886
▁අසාධාරණ	-6887
▁සන	-6888
▁38	-6889
▁අවස්	-6890
▁අපේක්	-6891
▁වියේ	-6892
▁චි	-6893
▁දිවා	-6894
ලාල්	-6895
▁තත්වයන්	-6896
▁මහවැලි	-6897
ණේ	-6898
▁පැමිණීම	-6899
▁රජුගේ	-6900
▁ජාවාරම්	-6901
රුත්	-6902
▁වතාවට	-6903
▁ඇතුලෙ	-6904
▁ගැටුම	-6905
▁ගෙවන්න	-6906
න්තය	-6907
▁දිශ	-6908
ලොව	-6909
▁එෆ්	-6910
නයකට	-6911
රධානී	-6912
▁ආශිර්	-6913
▁ඊලඟ	-6914
▁පිළිම	-6915
▁එක්කෝ	-6916
ගෙදර	-6917
▁කාගේ	-6918
▁අධිකරණයේ	-6919
රසිද්ධියේ	-6920
▁මට්ටමින්	-6921
▁සොයු	-6922
▁මුහුදේ	-6923
▁සේවයක්	-6924
▁තේරුම	-6925
රිගේ	-6926
▁තිබ්බෙ	-6927
▁සිංගප්පූ	-6928
▁පාලම	-6929
▁ශක්තියක්	-6930
▁වරයා	-6931
වුන	-6932
▁දොළ	-6933
▁සුරැ	-6934
▁ඩබ්ලිව්	-6935
▁සමන	-6936
රිකාවේ	-6937
▁වැසිය	-6938
▁උපාධිය	-6939
▁193	-6940
▁තුළට	-6941
▁අවධානයක්	-6942
▁යාපනයේ	-6943
ිතල	-6944
▁දෙමාපිය	-6945
▁තීරණාත්මක	-6946
▁වැව්	-6947
දායී	-6948
▁දෙයිය	-6949
▁ඊළඟට	-6950
▁කොමියුනිස්ට්	-6951
▁අත්දැකීම	-6952
▁සමාගමට	-6953
▁සෙන්	-6954
▁දෙනාට	-6955
▁ආණ්ඩුවෙන්	-6956
සියා	-6957
▁බෝග	-6958
ෂල්	-6959
▁මැරෙන	-6960
සිත	-6961
▁භික්ෂූන්	-6962
▁බෙහෙවින්	-6963
ක්ට	-6964
▁නිර්මා	-6965
▁එකවර	-6966
▁පටු	-6967
රහස්	-6968
▁සග	-6969
▁කෑල්ල	-6970
▁වගන්ත	-6971
▁සාම්ප්	-6972
▁ඇග	-6973
▁පෙන්වන	-6974
▁නසා	-6975
▁ලැබුනේ	-6976
▁රෙජිමේ	-6977
▁ලැබීමට	-6978
▁ඔන්	-6979
▁සැත්	-6980
▁බුදුරජාණන්	-6981
රීවරු	-6982
▁ජනාධිපතිවරයාට	-6983
▁ලැබේවා	-6984
▁විශ්වාසභංග	-6985
ෆෝ	-6986
▁දරුවෝ	-6987
▁බැව්	-6988
▁මිනීම	-6989
▁කවුන්සිල	-6990
▁බද්ද	-6991
▁කාර්යක්ෂම	-6992
▁සම්බන්ධයක්	-6993
12	-6994
▁සිතන	-6995
▁පැවතු	-6996
▁වධ	-6997
▁කර්ම	-6998
▁වාක්	-6999
▁ලෑස්ති	-7000
බායි	-7001
▁හ්	-7002
▁කාන්තාවන්ට	-7003
▁මුණගැ	-7004
▁කද	-7005
▁ගෙවීමට	-7006
▁දරුවෙක්	-7007
▁මූලස්ථානය	-7008
▁ගැළ	-7009
▁නොගැ	-7010
▁කීයක්	-7011
▁තැබීමට	-7012
▁පත්වීම	-7013
▁රහිත	-7014
පාලි	-7015
▁වැරැද්ද	-7016
▁මාතලේ	-7017
තිස්ස	-7018
▁පෙරවරු	-7019
▁සැලකිල්ලට	-7020
▁නර්	-7021
▁පුලුවන්ද	-7022
▁පරපුර	-7023
යවරු	-7024
▁ගූගල්	-7025
▁සේවකයින්	-7026
කරලා	-7027
▁දාගන්න	-7028
▁සංශෝධන	-7029
මහත්	-7030
▁පෙට්	-7031
▁සම්මුඛ	-7032
▁ආදරණීය	-7033
▁තාවකාලික	-7034
බිම්	-7035
▁සත්ත්ව	-7036
රේලියානු	-7037
▁ඩයස්	-7038
▁ස්ථාපනය	-7039
▁සම්පූර්ණයෙන්	-7040
මන්ට්	-7041
▁දවා	-7042
▁අසනීප	-7043
වින	-7044
▁ඩිජිට	-7045
▁සැපයීම	-7046
රගම	-7047
▁නලින්	-7048
▁යුරෝපීය	-7049
▁ජූනි	-7050
▁ලෙසය	-7051
▁භාවනා	-7052
▁ළමයෙක්	-7053
▁බෑග්	-7054
▁කෑල්ලක්	-7055
▁වෙන්නට	-7056
▁කාලෙකින්	-7057
▁සුරංග	-7058
▁කුමාර්	-7059
මිය	-7060
▁සුහද	-7061
ත්මික	-7062
▁විගණ	-7063
යිය	-7064
▁ළමයින්ට	-7065
▁තරමින්	-7066
නික්	-7067
▁වෙනකම්	-7068
▁සිසුන්ට	-7069
▁ගෙදරින්	-7070
හඬ	-7071
▁වළක්වා	-7072
▁පෝෂණය	-7073
ඳුනු	-7074
▁ඩිජිටල්	-7075
▁කෙරෙන්නේ	-7076
යිල	-7077
රතික්	-7078
යක්ෂණය	-7079
▁දැක්වීමට	-7080
විද	-7081
▁වකවා	-7082
▁වරප්	-7083
▁ඇත්තම	-7084
▁කරන්නම්	-7085
▁කියෙව්වා	-7086
▁වූව	-7087
▁මාලාව	-7088
▁මුහුන	-7089
▁ඔත්තු	-7090
▁අසීරු	-7091
▁අමෙරිකානු	-7092
▁2005	-7093
▁සැලැස්	-7094
▁කරන්	-7095
▁බෙදුම්	-7096
▁හමුවකට	-7097
▁දූෂිත	-7098
▁වරෙන්	-7099
▁බීජ	-7100
▁විසිර	-7101
▁කැරැ	-7102
▁පරාජයට	-7103
▁දන්	-7104
▁මයික්	-7105
▁වැඩේට	-7106
▁වම්	-7107
▁ලාබ	-7108
මාල	-7109
▁එකකි	-7110
▁හදල	-7111
▁දැක්වෙන්නේ	-7112
ලීම්	-7113
▁පාඩු	-7114
▁විවිධා	-7115
▁එකමු	-7116
▁සේනාංක	-7117
▁ගහපු	-7118
රහස්පති	-7119
▁ඝන	-7120
▁තර්ජන	-7121
▁සමය	-7122
▁සැකස	-7123
▁දිවයිනට	-7124
▁ශාලාව	-7125
▁හෝටල්	-7126
▁ලිඛ	-7127
▁හොරා	-7128
▁තැන්වල	-7129
▁ප්ලේ	-7130
▁විවාහය	-7131
▁වරු	-7132
▁උගේ	-7133
රතිර	-7134
▁රටවලට	-7135
▁නාය	-7136
▁තිරගත	-7137
▁කීමට	-7138
▁හදාගෙන	-7139
ජ්ජා	-7140
▁වෙළෙඳපොළ	-7141
▁පාරිස	-7142
▁අහනවා	-7143
ණයට	-7144
▁දෙකකින්	-7145
▁හිතවත්	-7146
▁අනිවාර්යයෙන්ම	-7147
▁හරින	-7148
▁දැක්විය	-7149
▁කරුණාරත්න	-7150
▁මහේන්ද්	-7151
රයෙකු	-7152
සම්	-7153
▁පිටතට	-7154
▁නියෝජිතයින්	-7155
▁දහසක්	-7156
▁තැනින්	-7157
▁සම්භාව	-7158
වරයාට	-7159
▁ශු	-7160
ගස්	-7161
▁මිනී	-7162
▁ජිවත්	-7163
කුමාර	-7164
▁තොගයක්	-7165
ංගල	-7166
▁ප්ලාස්	-7167
▁මීගමුව	-7168
▁ඉදිරියෙන්	-7169
▁මඳ	-7170
▁තාරකා	-7171
▁පැමිණීමට	-7172
▁කේස්	-7173
▁පැමිණිල්ලක්	-7174
▁එළැඹ	-7175
යෙකුත්	-7176
සෝ	-7177
▁ලබනවා	-7178
▁ඔෆ්	-7179
▁වැටුප	-7180
▁රේඛ	-7181
▁දිනක්	-7182
▁42	-7183
▁ලේසි	-7184
▁දැකපු	-7185
▁ගැලප	-7186
▁ස්වාභාවික	-7187
චන්ද්	-7188
▁පංච	-7189
▁ළඟා	-7190
▁සෞදි	-7191
▁අපේක්ෂකයා	-7192
▁සුඛ	-7193
▁ඇහු	-7194
▁තක්	-7195
▁නිකම්	-7196
▁ආලේ	-7197
▁ශරීරයේ	-7198
▁නියෝගය	-7199
▁පැවැත්වේ	-7200
▁පච්ච	-7201
▁පුළුවන	-7202
▁පැමිණිය	-7203
▁ගිහිං	-7204
▁අඩවියට	-7205
▁ඵ	-7206
හමාර	-7207
▁වැව	-7208
▁හිරි	-7209
▁විකෘති	-7210
▁වෙනදා	-7211
වුනු	-7212
▁ඔයාව	-7213
දුනේ	-7214
▁සතර	-7215
▁ඉන්නකොට	-7216
▁පෙනෙන්නට	-7217
▁උනන්දුවක්	-7218
▁පොළොන්නරුව	-7219
▁ජනමත	-7220
▁උගු	-7221
▁රැකියාවක්	-7222
▁පාරිසරික	-7223
▁අස්සේ	-7224
▁ජි	-7225
▁වාහනේ	-7226
▁එවැන්න	-7227
ෝගී	-7228
▁උඹල	-7229
▁නොකියා	-7230
වැල්ල	-7231
▁දුරක්	-7232
▁ආයෙමත්	-7233
▁ඇඟිලි	-7234
▁නොකිරීම	-7235
▁දන්නවද	-7236
▁නොවෙන	-7237
▁පලමු	-7238
▁වැළඳ	-7239
▁අසල්	-7240
▁කතුව	-7241
ගරු	-7242
▁පද්ධතියක්	-7243
▁ගොන්	-7244
▁මුහ	-7245
▁සලසා	-7246
▁වෙච්චි	-7247
▁අභාව	-7248
▁මුදලින්	-7249
▁අකිල	-7250
▁කරගන්නා	-7251
ිස්ථ	-7252
▁වාමා	-7253
▁බාධාවක්	-7254
▁ඉක්මන්	-7255
▁කලකට	-7256
▁කටයුතුවලට	-7257
තිකා	-7258
▁ඩුබායි	-7259
▁යොවුන්	-7260
▁වංශ	-7261
▁මාද	-7262
කෝන්	-7263
▁ලොක්ක	-7264
▁අරාබ	-7265
ෙකට	-7266
▁කලොත්	-7267
▁උන්ද	-7268
▁ලුණු	-7269
▁තිබුනත්	-7270
රවර්ධ	-7271
▁වැඩමු	-7272
ුස්	-7273
▁වහන්සේට	-7274
▁සැබැ	-7275
▁ලබාද	-7276
▁ලග්	-7277
▁එළව	-7278
▁අහිතකර	-7279
ඩ්ස්	-7280
▁ලියනවා	-7281
▁ආන්ඩුවේ	-7282
▁තල්ලු	-7283
▁මහජනය	-7284
▁හැඟීම	-7285
▁දේපල	-7286
රේලියාවේ	-7287
බාහු	-7288
▁ලබාගන්න	-7289
▁දෙවි	-7290
▁අය්	-7291
▁මොහොමඩ්	-7292
▁පවත්වනු	-7293
▁පනවා	-7294
▁මර්දන	-7295
▁ඇන්ජ	-7296
ීකරණ	-7297
▁ඉහළට	-7298
රියාදාම	-7299
රික්කය	-7300
▁සීමිත	-7301
▁දුරකථනය	-7302
කමට	-7303
▁කීම	-7304
▁පාදක	-7305
▁දෙදෙනෙක්	-7306
ස්සි	-7307
කුයි	-7308
▁රත්තර	-7309
▁හැදෑ	-7310
▁තරගයට	-7311
▁වැදග	-7312
▁ඇපල්	-7313
▁නිගමනය	-7314
▁නියෝගයක්	-7315
▁ඒකකයේ	-7316
▁ගෙනා	-7317
▁සංකේත	-7318
▁කෙටුම්පත	-7319
▁වීඩියෝව	-7320
▁කලිස	-7321
රොයින්	-7322
▁පෙත්සම්	-7323
▁මෙහේ	-7324
▁සමහරක්	-7325
▁වින්ඩ	-7326
▁සාකච්ඡාවට	-7327
▁දෛනික	-7328
මනය	-7329
රවණ	-7330
▁අමුතුවෙන්	-7331
▁උපයා	-7332
▁කෘත	-7333
▁සාල	-7334
වින්ද	-7335
▁මංගල්	-7336
▁ගීතයක්	-7337
රාවක්	-7338
▁දැරූ	-7339
▁පිටත	-7340
▁වැඩම	-7341
▁සංවත්	-7342
▁ජයරත්න	-7343
▁හිතන්	-7344
▁පිටපත්	-7345
යංශයේ	-7346
▁පැහැති	-7347
රපටයක්	-7348
▁ජිනී	-7349
▁රබර්	-7350
▁සත්තු	-7351
▁පත්තරේ	-7352
රාන්තයේ	-7353
▁උනන්දු	-7354
දෝ	-7355
රසංග	-7356
▁දරුවාට	-7357
▁එදිනෙදා	-7358
ිප්පු	-7359
▁හොයලා	-7360
රපටිය	-7361
▁අක්කේ	-7362
▁නළු	-7363
ුයේ	-7364
▁පැවසුවා	-7365
රශ්නයට	-7366
▁පන්දුවාර	-7367
ව්ස්	-7368
▁ජපානයේ	-7369
▁ආරක්ෂිත	-7370
▁කෞතුකා	-7371
▁පක්ෂයක්	-7372
ඝ්	-7373
▁කොම්ප	-7374
▁ගතිය	-7375
▁නොවන්නේ	-7376
▁අන්ධ	-7377
▁දොඩ	-7378
▁වටපිට	-7379
▁ඛේද	-7380
▁පවසති	-7381
▁රණවක	-7382
▁අවදානම	-7383
▁ආයතනවල	-7384
▁වඩාත්ම	-7385
▁පරිභ	-7386
▁ලන්	-7387
බද	-7388
▁වගාව	-7389
වාන්	-7390
සො	-7391
▁ළඟට	-7392
හුල	-7393
▁තදින්	-7394
▁වක්	-7395
▁ළමයා	-7396
▁කාලෙක	-7397
▁වැටීම	-7398
▁ආච්චි	-7399
▁මමයි	-7400
▁දේශපාලනයට	-7401
▁නීතිපතිවරයා	-7402
▁රේඩියෝ	-7403
15	-7404
▁ගම්මාන	-7405
▁නිවෙස්	-7406
රිස්තු	-7407
▁සිති	-7408
▁කඳවුරු	-7409
▁ලත්	-7410
රමණික	-7411
▁කියමු	-7412
▁රජයෙන්	-7413
▁අයගෙන්	-7414
▁හැමදා	-7415
▁මාසය	-7416
ධි	-7417
සියස්	-7418
▁ඉලක්කය	-7419
▁නොගෙන	-7420
▁56	-7421
▁ඉව	-7422
▁වැඩිහිටි	-7423
▁සුන	-7424
▁ඇඹ	-7425
▁උද්ඝෝෂ	-7426
▁මතයක්	-7427
▁කොට්ට	-7428
න්නක්	-7429
▁ප්ලාස්ටික්	-7430
▁ජයක්	-7431
▁ජනා	-7432
යටම	-7433
▁වැදගත්කම	-7434
ඟින්	-7435
▁යකා	-7436
▁හෙරොයින්	-7437
▁2019	-7438
▁වාහනය	-7439
රිවි	-7440
කාරය	-7441
▁කළමණා	-7442
සුස්	-7443
පුම්	-7444
▁එජාපය	-7445
ෝද්	-7446
කිරීමේ	-7447
බලය	-7448
▁පැනලා	-7449
▁සේවාවක්	-7450
ලාන්	-7451
▁අගනුවර	-7452
▁අඛණ්ඩව	-7453
▁ජයසු	-7454
▁ඕනම	-7455
කිරි	-7456
▁හානිය	-7457
▁එකග	-7458
▁බවටත්	-7459
▁පුළුවන්ද	-7460
▁රුව	-7461
▁මාතෘක	-7462
▁කටයුත්තක්	-7463
▁මඩකල	-7464
▁මහින්දට	-7465
▁වවු	-7466
▁අයහපත්	-7467
▁නවත්ව	-7468
▁යුද්ධයේ	-7469
▁සඳුදා	-7470
▁කෑගල්ල	-7471
මනින්ම	-7472
▁මාතෘකාව	-7473
▁මැතිවරණයට	-7474
▁රෝද	-7475
▁හොල්	-7476
රියාකාරි	-7477
▁කොටින්ම	-7478
▁ධෛ	-7479
▁කෝප්	-7480
▁විශ්වාසයක්	-7481
දියි	-7482
▁ක්ල	-7483
▁චෙ	-7484
▁ආරාධිත	-7485
▁ලිපියෙන්	-7486
▁ඇළ	-7487
▁කියු	-7488
▁මෙහා	-7489
▁අතීතය	-7490
යානය	-7491
▁හෑ	-7492
ඔය	-7493
▁කෝප	-7494
▁ඇමරිකා	-7495
▁මනුස්සයෙක්	-7496
▁ගමනේ	-7497
කෝෂය	-7498
▁මට්ටමක	-7499
▁රිංග	-7500
▁හදාර	-7501
▁ලයිට්	-7502
▁අරලිය	-7503
▁පෙන්නන්න	-7504
▁කාර්යාලයට	-7505
▁පුවත	-7506
වරයාගේ	-7507
▁පන්සල්	-7508
▁බුද්ධාගම	-7509
▁බැද	-7510
▁මඩු	-7511
▁අසමත්	-7512
▁අඩුවෙන්	-7513
▁ආවට	-7514
▁හැරීමට	-7515
▁තහනම	-7516
▁කොපමණ	-7517
ට්ටුවේ	-7518
▁නොහොත්	-7519
▁පාක්ෂ	-7520
▁ජීවත්වන	-7521
▁මෙහෙයව	-7522
▁වෙලාවකට	-7523
නවද	-7524
▁ශිල්	-7525
▁වෙන්කර	-7526
▁අනෙක	-7527
▁ගමගේ	-7528
▁මුතු	-7529
▁ඉහළින්	-7530
▁හෙන්	-7531
▁පුරාව	-7532
▁පෘතු	-7533
▁ඉතිරිව	-7534
ුවර්	-7535
▁ලුති	-7536
▁අඳුරු	-7537
▁පඩි	-7538
ඬු	-7539
▁සංඥා	-7540
▁හිමියන්ගේ	-7541
▁උස්	-7542
▁ෆයි	-7543
රධානියා	-7544
▁ඉවතට	-7545
▁තණ	-7546
ලකා	-7547
▁ඇදගෙන	-7548
▁ගේන්න	-7549
▁ගණිත	-7550
▁දැල්	-7551
▁පාහේ	-7552
▁නොයෙකුත්	-7553
▁පැත්තකින්	-7554
▁මෙන්ඩිස්	-7555
▁කොණ්ඩ	-7556
▁රෑට	-7557
කාරක	-7558
▁සොඳුරු	-7559
▁පහසුව	-7560
▁බවත්ය	-7561
▁කොළඹට	-7562
ාර්මික	-7563
ෂ්වර	-7564
▁හොරකම්	-7565
▁තේරෙන්නේ	-7566
▁මචෝ	-7567
▁යහපාලනය	-7568
ද්වී	-7569
▁එයාව	-7570
▁ලකුණ	-7571
▁සැරේ	-7572
▁මූලස්ථානයේ	-7573
▁කොන්ත්	-7574
▁තිබුනු	-7575
ලයින්	-7576
▁හවු	-7577
▁පන්තියට	-7578
▁ගැනීමයි	-7579
නන	-7580
▁උවමනා	-7581
▁එවා	-7582
▁පොලො	-7583
විරත්න	-7584
▁එව්වා	-7585
▁කුසල්	-7586
▁එකපාර	-7587
▁අවසානයේදී	-7588
▁පුරාණ	-7589
රයත්	-7590
▁ඉහළම	-7591
වංශ	-7592
▁වේදිකා	-7593
▁හැත්ත	-7594
▁ජිනීවා	-7595
රයෝජනවත්	-7596
්ම	-7597
▁කෙල්ලො	-7598
▁ගොල්ල	-7599
▁මිතුරු	-7600
කන්ද	-7601
කාරයා	-7602
▁පරික්ෂණ	-7603
▁තරමේ	-7604
▁කුලී	-7605
▁වාමාංශික	-7606
▁දීමෙන්	-7607
▁දේහය	-7608
▁බැලුවේ	-7609
▁එල්ට	-7610
මල්	-7611
රමයේ	-7612
▁දුන්නෙ	-7613
▁උපාධිධාර	-7614
▁දියුණුව	-7615
▁රිදී	-7616
▁මේකත්	-7617
▁ස්තුති	-7618
වුම	-7619
▁කෘෂි	-7620
▁මොරට	-7621
▁43	-7622
යියා	-7623
ිවන	-7624
▁ඔතන	-7625
▁යෝග	-7626
▁දැකගත	-7627
▁මාතලන්	-7628
▁පැමිණිල්ල	-7629
▁අවධානයට	-7630
▁හිටියත්	-7631
▁හිත්	-7632
▁කීර්ති	-7633
▁ලංකාවෙන්	-7634
▁තේරීම්	-7635
▁තොරතුරක්	-7636
යවේ	-7637
▁ඉදිරිපත්ව	-7638
▁වනජීවී	-7639
▁බාධක	-7640
▁විල්	-7641
▁යන්නත්	-7642
▁වැලික	-7643
▁සැපයු	-7644
▁නුවරඑළිය	-7645
▁කිරිමේ	-7646
යනය	-7647
ජේ	-7648
▁අනූ	-7649
▁ආදරෙයි	-7650
▁විවර	-7651
▁විනාශය	-7652
▁වැසික	-7653
▁රණසිංහ	-7654
▁නිව්ස්	-7655
▁ලොක්කා	-7656
රැන්	-7657
ගික	-7658
රදේශයෙන්	-7659
▁තේරී	-7660
▁අර්ජුන්	-7661
ානේ	-7662
▁තබාගෙන	-7663
▁බුක්	-7664
▁සාකච්ච	-7665
▁ඇමෙරිකාවේ	-7666
▁පොලිස්පතිවරයා	-7667
රිරෝද	-7668
▁ජයග	-7669
▁රියැ	-7670
▁විශේෂිත	-7671
▁ජයසේකර	-7672
▁මේල්	-7673
▁උත්සවයට	-7674
ච්ඡේද	-7675
▁එයයි	-7676
▁අනාවැ	-7677
▁හාර	-7678
▁තුර්	-7679
▁පිලිවෙ	-7680
▁බොහෝවිට	-7681
ඬේ	-7682
▁ඉක්මණ	-7683
▁සපුරා	-7684
රීල	-7685
▁කබ	-7686
▁තියෙ	-7687
▁විච	-7688
ිසන්	-7689
▁සැත	-7690
▁මුලතිව්	-7691
▁බොරුවක්	-7692
▁ගෙන්න	-7693
▁ඩොනල්ඩ්	-7694
▁බද්ධ	-7695
▁සුප්	-7696
▁ගැටලූ	-7697
▁වැල්ල	-7698
▁පිළිතුරක්	-7699
▁අම්මලා	-7700
▁අවදි	-7701
▁හෝල්	-7702
▁අවදානමක්	-7703
▁තුනක	-7704
▁සියුම්	-7705
▁ආයෝජනය	-7706
▁මොහොතක	-7707
▁ශිල්පිය	-7708
කරනය	-7709
▁යටත්ව	-7710
▁පද්	-7711
▁භාවිතයට	-7712
▁ආවොත්	-7713
▁තිබුණෙ	-7714
▁අනුකූ	-7715
රීස්	-7716
ාරාම	-7717
රීක	-7718
▁එහෙයින්	-7719
▁චින්තනය	-7720
▁අපෙන්	-7721
▁එක්වූ	-7722
▁නොදෙන	-7723
▁කමට	-7724
▁දිනෙක	-7725
▁වර්ගය	-7726
▁අතුරින්	-7727
▁පැණි	-7728
▁බලු	-7729
ටේ	-7730
▁මතුපිට	-7731
▁භාෂාවෙන්	-7732
▁ෆී	-7733
▁යටිතල	-7734
▁1998	-7735
▁දශකයේ	-7736
▁එපමණ	-7737
▁මෙතරම්	-7738
▁පෙම්වතිය	-7739
▁එළිය	-7740
▁කොටසේ	-7741
▁නාන	-7742
යද	-7743
▁යුද්ද	-7744
▁පිරී	-7745
▁මෑතකදී	-7746
▁බුද්ධිම	-7747
මහා	-7748
▁හැඟීමක්	-7749
▁රස්සාව	-7750
ිවලින්	-7751
▁හිතුවෙ	-7752
රගමුව	-7753
▁විල	-7754
▁ආයතනයට	-7755
▁අහුව	-7756
▁හාල්	-7757
දියුණු	-7758
▁ගත්හ	-7759
▁ආසාවෙන්	-7760
▁ජනතාවගෙන්	-7761
▁තරගයේදී	-7762
ත්තර	-7763
▁සීතල	-7764
සනය	-7765
▁වෙමු	-7766
▁ජොබ්	-7767
▁මාරුව	-7768
▁තෙවන	-7769
▁රටාව	-7770
ධාරණයක්	-7771
▁44	-7772
▁ආසා	-7773
කිසි	-7774
▁රෝස	-7775
▁ධනය	-7776
දර්	-7777
▁දෙපාර්තමේන්තුවට	-7778
▁ජපානය	-7779
▁විකු	-7780
▁සිටින්න	-7781
▁කරගත්ත	-7782
ාරම්භ	-7783
ැස්	-7784
▁උඹලා	-7785
▁නොවේද	-7786
▁නීතියට	-7787
▁39	-7788
▁යෝධ	-7789
▁බෝතල්	-7790
▁නොසලකා	-7791
▁සබරගමුව	-7792
▁පෝෂණ	-7793
කුරු	-7794
සුමක්	-7795
▁නීතියේ	-7796
කල්ප	-7797
දර්ශ	-7798
▁මාර්ගයක්	-7799
▁අන්තවාදී	-7800
▁ඉස්සෙල්ල	-7801
දුරන්	-7802
▁පෙනෙන්නේ	-7803
▁වටිනාකමක්	-7804
රාමික	-7805
▁ජනාධිපතිවරණය	-7806
▁පුට	-7807
▁ඔහුගෙන්	-7808
▁විශ්වකෝෂය	-7809
▁හිතල	-7810
▁ඔෆිස්	-7811
▁දණ්ඩ	-7812
යාඥයන්	-7813
▁බංග	-7814
▁ආයෙම	-7815
▁තොග	-7816
වෙතත්	-7817
▁ධාවන	-7818
යවස්ථාවේ	-7819
▁එංගලන්තයේ	-7820
දෑ	-7821
▁සෘජ	-7822
▁නෙත්	-7823
▁ආයුර්	-7824
▁ලන්ඩන්	-7825
▁2007	-7826
▁දන්නව	-7827
▁වෙල්	-7828
▁සමස්ථ	-7829
▁ලබමින්	-7830
වැව	-7831
▁වික්ටර්	-7832
▁පරීක්ෂණය	-7833
▁සිහිනය	-7834
▁උදවු	-7835
▁කනගා	-7836
▁ඉස්මතු	-7837
▁යුරෝපයේ	-7838
යවස්ථාවක්	-7839
න්ධි	-7840
දීම්	-7841
▁විත්තික	-7842
▁තැත්	-7843
▁භාජනය	-7844
▁අනාගතයේ	-7845
▁වාහනයක්	-7846
▁ජාතිවාදය	-7847
▁නවකතාව	-7848
ාගේ	-7849
▁අහම්බ	-7850
▁දඩුවම්	-7851
▁ඔබටත්	-7852
▁තේමාව	-7853
කං	-7854
▁රටකට	-7855
▁කතාබහ	-7856
▁යාලුවෙක්	-7857
▁උපවාස	-7858
▁සමාගමක්	-7859
▁පෙති	-7860
▁මගීන්	-7861
▁මිරිස්	-7862
▁කෙන්	-7863
▁මුදලා	-7864
▁ගන්නත්	-7865
▁වැරදියි	-7866
▁ගැබ්	-7867
▁බිස්නස්	-7868
▁ඉඟ	-7869
කීර්	-7870
▁වරින්	-7871
▁පෙරදිග	-7872
▁ඇණ	-7873
▁මෛත	-7874
▁හැරෙ	-7875
▁පාන්දර	-7876
▁බීබී	-7877
▁කරද්දි	-7878
▁අවදානම්	-7879
▁කාලයට	-7880
▁දෙනාගේ	-7881
▁කැමැත්තක්	-7882
▁කතික	-7883
▁සජීවී	-7884
▁තක්සේ	-7885
▁කෙරුණේ	-7886
▁කිසිඳු	-7887
ේෂන්	-7888
▁නීතීඥ	-7889
▁පරිශී	-7890
▁තියේ	-7891
යවකාශ	-7892
▁කොලඹ	-7893
දක්	-7894
▁පාලනයක්	-7895
▁සාකච්ඡාවක	-7896
යන්න	-7897
▁මටනම්	-7898
▁වලටත්	-7899
▁දීප	-7900
▁හිඳ	-7901
ප්පෙ	-7902
රභාකරන්	-7903
ග්ග	-7904
යාත	-7905
කුනු	-7906
▁ඉන්නවද	-7907
▁අඩංගුවට	-7908
▁අත්හැර	-7909
▁පැද	-7910
▁කකා	-7911
▁සියවස	-7912
නම	-7913
▁බැරිද	-7914
▁බලයෙන්	-7915
▁යුද්ධයෙන්	-7916
▁මොර	-7917
▁බන්දුල	-7918
▁රක්ෂණ	-7919
▁පුතේ	-7920
▁බෙන්	-7921
ඇල්ල	-7922
රවර්ධනය	-7923
▁නොසිත	-7924
▁දෙද	-7925
▁සුපර්	-7926
▁බැඳී	-7927
▁ලැබුනා	-7928
▁සමි	-7929
තුමාගේ	-7930
▁සියද	-7931
▁බුලත්	-7932
සිල	-7933
▁ටයිප්	-7934
▁කසළ	-7935
▁හයක්	-7936
▁හාමුදුරුවෝ	-7937
කන්න	-7938
▁තෑගි	-7939
▁ගාස්තුව	-7940
ිටු	-7941
▁පණ්ඩ	-7942
▁අගයක්	-7943
වුනේ	-7944
▁කේක්	-7945
▁ගානට	-7946
▁මෙවල	-7947
▁රාජපක්ෂගේ	-7948
▁බුරු	-7949
▁අනුපා	-7950
▁නිවසක්	-7951
▁කෙල්ලෝ	-7952
▁කොල්ලා	-7953
▁යම්කිසි	-7954
දැක්	-7955
▁කෑමට	-7956
▁සබැ	-7957
▁යෝජිත	-7958
▁පනස්	-7959
▁කූඩ	-7960
▁ඇබ්	-7961
▁වේදනා	-7962
මිළ	-7963
▁ලලිත්	-7964
▁අසන්නට	-7965
▁පාලිත	-7966
▁වාසනාවන්ත	-7967
▁බහුලව	-7968
▁ඉරණම	-7969
▁දඹුල්ල	-7970
ගිර	-7971
▁අගවින	-7972
▁හඩ	-7973
සම	-7974
රවන	-7975
රබන්ධ	-7976
▁කාව්	-7977
▁මෙමගින්	-7978
▁පන්දුවට	-7979
▁තැනැත්ත	-7980
▁බදාදා	-7981
ම්පු	-7982
රතාන්	-7983
▁තියුණු	-7984
▁පොදුවේ	-7985
▁ගණනය	-7986
▁නිරතව	-7987
▁මැතිවරණයේදී	-7988
රමණ	-7989
ේදී	-7990
10	-7991
ධානය	-7992
▁සංස්ථාව	-7993
▁විඳි	-7994
දයේ	-7995
▁අනුකම්	-7996
ෆා	-7997
▁රසායන	-7998
▁නොබ	-7999
▁දහයක්	-8000
▁අනතුරක්	-8001
▁හෙමින්	-8002
රදේශවාසීන්	-8003
▁ගැහුවා	-8004
▁පාලනයට	-8005
▁මතවාද	-8006
▁ගතියක්	-8007
▁පෙම්වතා	-8008
▁සිදුකිරීමට	-8009
▁අභය	-8010
▁ස්නා	-8011
රදේ	-8012
▁චැන	-8013
රේෂ්ඨාධිකරණය	-8014
රදිග	-8015
▁තට්ටු	-8016
කරුවකු	-8017
ගැනීම්	-8018
▁මාම	-8019
▁එන්නම්	-8020
▁හැටන්	-8021
▁ඉන්ටර්	-8022
දේව	-8023
රාගල	-8024
▁වාතාව	-8025
ිමෙන්	-8026
▁වියළි	-8027
▁ඉන්දියන්	-8028
ාගත	-8029
▁වෝ	-8030
යැ	-8031
▁විරහිත	-8032
▁මූලාශ්	-8033
▁දිරි	-8034
▁ආසියා	-8035
▁චාරිත්	-8036
▁ප්ල	-8037
▁බුදුද	-8038
යාපෘතියක්	-8039
ාරණය	-8040
▁අඩුවක්	-8041
▁වැඩිහිටිය	-8042
▁වුණොත්	-8043
තුමිය	-8044
▁කතන්ද	-8045
වොත්	-8046
▁පතනවා	-8047
▁සයිබර්	-8048
▁තමිල්නා	-8049
රේලියාව	-8050
▁ශාරී	-8051
ගුරු	-8052
ීමය	-8053
▁භාරයට	-8054
▁සරසව	-8055
▁ජනක	-8056
▁ෆයිල්	-8057
▁සංචාරයක	-8058
▁ලබාදිය	-8059
▁අවුල	-8060
▁පරිහ	-8061
▁ශාලාවේ	-8062
▁වීම්	-8063
ගැනීමක්	-8064
▁එල්ටීටී	-8065
▁එතැන්	-8066
▁දේශපාලනයේ	-8067
▁අතරෙ	-8068
▁කොංග්	-8069
▁කොපි	-8070
▁අයිතියට	-8071
රමිත	-8072
▁කියාය	-8073
▁අයෙකුට	-8074
රහස්පතින්දා	-8075
ාරණ	-8076
ිමාර්ග	-8077
▁කට්ටියට	-8078
රියන්ත	-8079
▁දැනගන්නට	-8080
▁විශිෂ්ඨ	-8081
▁වලංගු	-8082
▁සිතු	-8083
රමවේදය	-8084
▁කර්තෘ	-8085
▁සැකකාර	-8086
▁ලැබෙයි	-8087
▁අනුරාධපු	-8088
▁උෂ්ණත්වය	-8089
▁විවාද	-8090
▁හමුවකදී	-8091
▁සලකන	-8092
▁නානා	-8093
▁කප්පාදු	-8094
▁පදක්ක	-8095
▁චන්දි	-8096
ලෝඩ්	-8097
▁ඉන්නා	-8098
▁තිබුනි	-8099
▁ටැං	-8100
▁පේරාදෙණිය	-8101
ෝදා	-8102
චර	-8103
▁පංති	-8104
▁දියවැ	-8105
▁සැරයක්	-8106
▁දේම	-8107
▁ටිකේ	-8108
▁දිනෙන්	-8109
සිස්	-8110
▁ජාලය	-8111
▁තරඟය	-8112
▁නත්තල්	-8113
▁භික්	-8114
▁තේරුමක්	-8115
▁අනිවා	-8116
▁පාතාල	-8117
▁හසුව	-8118
▁පිරිසට	-8119
▁හැදින්	-8120
▁නියමයි	-8121
▁සරලව	-8122
▁යුද්ධයක්	-8123
▁සියදිවි	-8124
▁හදි	-8125
▁සිතට	-8126
▁විස්තරයක්	-8127
▁ජෛ	-8128
▁පෙළේ	-8129
▁බලකාය	-8130
▁පුතු	-8131
▁මැක්	-8132
▁වසරක	-8133
▁දෙපැත්ත	-8134
▁විස්සයි	-8135
▁හදුන්වා	-8136
මුවෙන්	-8137
▁ගෙවී	-8138
▁වීසා	-8139
▁ස්වදේශ	-8140
▁ගුණරත්න	-8141
▁සම්බන්ධය	-8142
▁හොත්	-8143
මාලි	-8144
▁මාලිංග	-8145
යිනි	-8146
▁අරමුදල්	-8147
▁මානු	-8148
▁ස්පා	-8149
▁අපද්	-8150
යාවශ්	-8151
▁පැත්තකට	-8152
▁නැව	-8153
▁ටෙන්	-8154
මාන්ඩ්	-8155
▁පමණින්	-8156
▁ඕකට	-8157
▁සාගර	-8158
50	-8159
ාංග	-8160
රාන්	-8161
▁2006	-8162
▁අනතුරකින්	-8163
රාවට	-8164
▁අරුණ	-8165
යාධික	-8166
▁කස්ට	-8167
▁මොකුත්	-8168
▁47	-8169
රයක	-8170
නින්න	-8171
▁ජැක්	-8172
▁ෂෙ	-8173
▁නවති	-8174
▁එළවළු	-8175
▁ඔවුන්ගෙන්	-8176
▁විමල	-8177
▁වයසට	-8178
▁භූමියේ	-8179
දාව	-8180
▁පය	-8181
▁සම්මේල	-8182
▁හෙද	-8183
▁කනවා	-8184
රුවාදා	-8185
යායාම	-8186
▁හඳුන්වන	-8187
▁ඔක්ක	-8188
▁ඇරලා	-8189
▁ඒවට	-8190
▁තැනැත්තා	-8191
මන්ත	-8192
රතිචාරයක්	-8193
▁පිළිගන්න	-8194
▁හලාව	-8195
▁බරක්	-8196
▁පෙදෙස	-8197
▁නිලධාරියෙකු	-8198
ගන්නෙ	-8199
▁සිගර	-8200
▁මධ	-8201
▁ලැබෙන්න	-8202
▁කසාද	-8203
▁සැලකිලිමත්	-8204
▁කරවා	-8205
බදු	-8206
▁සැපයුම්	-8207
ිවුඩ්	-8208
ඩියර්	-8209
▁කැලෑ	-8210
▁චූටි	-8211
▁එක්කෙනෙක්	-8212
කරුවෝ	-8213
▁ශාලා	-8214
ස්ථා	-8215
▁ලොක	-8216
▁වංචාව	-8217
▁බැති	-8218
▁අන්දමින්	-8219
▁වර්ෂය	-8220
▁සිනමාව	-8221
▁පවර	-8222
ුවහොත්	-8223
▁රථවාහන	-8224
▁තරුණියන්	-8225
▁සනත්	-8226
▁රුසියාවේ	-8227
▁පැවි	-8228
▁ගොවිත	-8229
▁බලෙන්	-8230
▁කමිටුවක්	-8231
▁ගාලු	-8232
▁කදී	-8233
▁අරමුදල	-8234
▁සරු	-8235
▁ඕවර	-8236
▁කිසිවකු	-8237
▁එකඟතාව	-8238
▁දෙමව්පියන්	-8239
රියාවන්	-8240
▁තේරෙන	-8241
▁හමුවූ	-8242
▁බහි	-8243
▁ටොන්	-8244
▁ශාරීරික	-8245
▁එළඹෙන	-8246
▁කෘත්	-8247
▁කිට්ටු	-8248
බට්	-8249
▁ජපාන	-8250
▁නෝනා	-8251
▁කරනා	-8252
යතාවක්	-8253
කමින්	-8254
රයාත්මක	-8255
▁ආවත්	-8256
▁එල්ටීටීඊ	-8257
▁ඉස්ලාම	-8258
වැසි	-8259
▁පදිංචිව	-8260
▁අයටත්	-8261
▁පත්තු	-8262
▁අලුතෙන්	-8263
▁වෙලඳ	-8264
▁සිදුකල	-8265
▁ශෝක	-8266
▁ගංජා	-8267
▁ධුරයෙන්	-8268
▁ආරිය	-8269
▁අධිකාරි	-8270
ඹා	-8271
රමවේදයක්	-8272
▁විප්ලවය	-8273
▁සෘජු	-8274
▁බැරිය	-8275
▁මහරගම	-8276
ඩරල්	-8277
▁කලාට	-8278
▁දක්ෂතා	-8279
▁පස්සෙන්	-8280
▁ගහගෙන	-8281
▁ද්ව	-8282
▁ඥාතීන්	-8283
▁සෛල	-8284
▁ගේම්	-8285
▁මනාප	-8286
▁වැටුණු	-8287
▁තර්ජනයක්	-8288
වගේ	-8289
▁කයි	-8290
▁වයසේ	-8291
▁කිසිදා	-8292
▁අන්දමට	-8293
▁අදට	-8294
▁කෙළවර	-8295
රිකුණාමලය	-8296
▁සිද්ධි	-8297
▁සිරුරු	-8298
රහාරයෙන්	-8299
▁පිළිගැනීම	-8300
▁බලන්නකෝ	-8301
▁අහපු	-8302
▁සමීක්ෂණ	-8303
▁52	-8304
▁එස	-8305
▁සිරිපාල	-8306
ෆික්	-8307
▁මගී	-8308
▁පෙන්වන්න	-8309
▁භාවිතයෙන්	-8310
දූ	-8311
▁වැඳ	-8312
▁හමුදාධිපති	-8313
▁අරි	-8314
▁යන්තම්	-8315
▁දැනෙන්නේ	-8316
වීමත්	-8317
▁නැටු	-8318
▁වන්නේය	-8319
▁ජයන්ත	-8320
ම්බි	-8321
හිලා	-8322
▁ඇබ්බැ	-8323
ගෙට	-8324
▁චෙක්	-8325
▁සිතමි	-8326
▁කැමැත්තෙන්	-8327
▁කාරයෝ	-8328
▁කාලෙට	-8329
▁හලාවත	-8330
▁වැඩසටහනේ	-8331
▁සිරස	-8332
ත්වැ	-8333
▁කෙහෙ	-8334
▁භාණ්ඩා	-8335
▁විටින්	-8336
▁මක්	-8337
▁පෙත්සම	-8338
▁මොහොතකට	-8339
▁කෙසේවෙතත්	-8340
▁හැකියාවන්	-8341
▁මනාව	-8342
▁එතෙක්	-8343
▁කාරියවසම්	-8344
▁සතියකට	-8345
▁පේන්නේ	-8346
▁මන්නාරම	-8347
▁දානය	-8348
▁නීතිවිරෝධ	-8349
▁ශිල්පීන්	-8350
රචලිත	-8351
▁තරුණයන්	-8352
▁කොහොමහරි	-8353
▁සැලකෙන	-8354
▁58	-8355
▁නළ	-8356
▁තිහ	-8357
▁හින්දි	-8358
බස්	-8359
රාහ	-8360
▁ගාලා	-8361
▁පුවතක්	-8362
▁උම	-8363
යවාදී	-8364
▁පැහැදිළි	-8365
▁බයික්	-8366
▁කොමිසමට	-8367
▁රඟපෑ	-8368
▁කරනකොට	-8369
▁ඇහුව	-8370
▁අලුයම	-8371
▁එකිනෙකට	-8372
රගති	-8373
▁සම්බා	-8374
විටම	-8375
▁සහා	-8376
▁ගනියි	-8377
▁ගැනීමේදී	-8378
▁දවසකට	-8379
▁අවකාශය	-8380
▁උත්සාහයක්	-8381
▁විඳින්න	-8382
▁තුලට	-8383
▁යථා	-8384
මද	-8385
▁ආන්ද	-8386
▁අභියෝගයක්	-8387
රභූ	-8388
ම්ම්	-8389
▁නියැ	-8390
▁කතාකර	-8391
රුවල	-8392
▁විවේචන	-8393
ෆි	-8394
ිකිර	-8395
▁සිවු	-8396
▁යටපත්	-8397
▁පොරක්	-8398
ාධිපති	-8399
▁ගත්තත්	-8400
▁වුනාම	-8401
▁46	-8402
▁සොල්	-8403
▁ඉන්දුනී	-8404
▁සවු	-8405
ුවක්කු	-8406
▁හිංස	-8407
▁දුරින්	-8408
▁ටීවී	-8409
ාරක්	-8410
ිනව	-8411
▁හදවත්	-8412
ෂාව	-8413
▁කොටා	-8414
▁නිරන්තරයෙන්	-8415
▁පර්යේෂ	-8416
යැයි	-8417
▁සෝද	-8418
▁ගීය	-8419
▁දැක්ම	-8420
▁කප්ප	-8421
▁යෝග්	-8422
▁පැහැරගෙන	-8423
වැට	-8424
▁කුණා	-8425
▁දයාසිරි	-8426
▁තීන්දුවක්	-8427
කයාට	-8428
▁නුගේ	-8429
▁කඩිනම්	-8430
හිදී	-8431
▁බලපු	-8432
▁පඩ	-8433
දායි	-8434
පෙන්	-8435
ලිංගික	-8436
▁මෑන්	-8437
▁ලිබරල්	-8438
▁සාමකාමී	-8439
▁රටම	-8440
▁වස්	-8441
ක්කම්	-8442
යවරයාගේ	-8443
▁කරුණකි	-8444
▁නැන්ද	-8445
දෙයි	-8446
▁පැවසී	-8447
▁සිතින්	-8448
▁ජයසිංහ	-8449
▁කුමක්දැයි	-8450
යාද	-8451
▁හෙම	-8452
▁රේගු	-8453
▁වැදගත්ම	-8454
▁මැතිතුමාගේ	-8455
▁තිදෙනා	-8456
▁අමුත්තන්	-8457
▁අවාසනාවන්ත	-8458
▁ඇඳුම	-8459
▁යැවීම	-8460
▁රැස්වීම්	-8461
▁අනන්ත	-8462
▁රටින්	-8463
▁සිගරට්	-8464
▁ගැනීමක්	-8465
▁ආලෝකය	-8466
▁උපුල්	-8467
▁කවුරුන්	-8468
▁විහාරස්ථානය	-8469
▁සම්පන්න	-8470
යක්කාර	-8471
▁කලහ	-8472
ිරිස්	-8473
▁වුවමන	-8474
▁99	-8475
▁ඇසූ	-8476
▁අනුවයි	-8477
▁ඇෆ්ගන	-8478
▁57	-8479
▁2004	-8480
▁අවන්	-8481
▁කෙරෙනවා	-8482
▁කාපු	-8483
▁ගැනද	-8484
▁සිටිමින්	-8485
▁මෙයයි	-8486
මිණි	-8487
▁අනෙ	-8488
▁කුරුල්ල	-8489
▁ගණු	-8490
වො	-8491
▁41	-8492
▁ඉන්දික	-8493
▁අයක	-8494
▁තිදෙන	-8495
▁54	-8496
▁මාණ්ඩ	-8497
ර්මා	-8498
▁පොඩ්ඩ	-8499
රාප්ත	-8500
▁දිල්	-8501
ට්ටුවක්	-8502
▁රන්ජන්	-8503
▁ආබාධිත	-8504
ගත්තු	-8505
▁ගැහැනු	-8506
▁ශූරතාව	-8507
▁දෙදෙනාම	-8508
▁සමඟම	-8509
ෂින්	-8510
▁පැවසේ	-8511
ප්තිමත්	-8512
▁ඇමතිවරුන්	-8513
▁ඇදී	-8514
▁හෙලි	-8515
රාණ	-8516
▁නැමති	-8517
▁පරිපාලනය	-8518
▁කාගෙ	-8519
▁අවස්තාව	-8520
▁නොතකා	-8521
▁හෙට්ටි	-8522
▁රවු	-8523
කොල	-8524
ඳුන්	-8525
▁බැල්	-8526
▁පාලකයන්	-8527
▁පිටව	-8528
▁වගෙයි	-8529
▁64	-8530
▁අසළ	-8531
▁පෙරහ	-8532
ිලී	-8533
කුළු	-8534
▁හරස්	-8535
▁ඩවුන්	-8536
▁ඇමෙරිකාව	-8537
▁කුමාරතුංග	-8538
▁ඇමතු	-8539
▁හෙහ්	-8540
▁පෝස්ට	-8541
▁යාන්ත	-8542
▁සංරක්ෂණ	-8543
▁වැරැද්දක්	-8544
▁දන්නෑ	-8545
▁අයව	-8546
▁ඇමතුම්	-8547
▁ශීත	-8548
▁දෙමව්පිය	-8549
▁දුෂණ	-8550
▁සහනා	-8551
▁ඉබේ	-8552
▁ලසන්ත	-8553
▁නැත්තෙ	-8554
ළක්	-8555
▁ඇසුරු	-8556
▁ඊයෙ	-8557
ලක්ෂ	-8558
රේන්ද්	-8559
ෙක්ස්	-8560
▁ලවා	-8561
දානය	-8562
▁උගන්න	-8563
▁ජුලි	-8564
▁අහන්නේ	-8565
▁මාණ්ඩලික	-8566
▁නොන	-8567
යවසායක	-8568
▁ලැබුණි	-8569
▁ගමනට	-8570
ිරිස	-8571
බෑ	-8572
වණ	-8573
▁මගෙත්	-8574
▁හිරේ	-8575
▁එහිදි	-8576
▁බිරිය	-8577
ිඳ	-8578
▁පලාත්	-8579
▁රණවිරුවන්	-8580
▁අවස්ථාවලදී	-8581
▁උදව්වක්	-8582
▁ජීවිතේට	-8583
සුදු	-8584
▁මුදලට	-8585
යතාවයක්	-8586
▁ඊළ	-8587
▁බෙල්	-8588
▁බලහත්කාරයෙන්	-8589
රකාශන	-8590
එච්	-8591
▁අවතැන්	-8592
▁කාර්යයන්	-8593
▁විවිධාකාර	-8594
▁නගරා	-8595
▁නායකත්වයෙන්	-8596
සිතා	-8597
▁ඇරෙන්න	-8598
▁කෙටික	-8599
රදාන	-8600
▁පුරව	-8601
▁ඔවුන්ව	-8602
▁ආරම්භයේ	-8603
▁ගෙවීම්	-8604
යිස්	-8605
ලුන්	-8606
▁පළාත්වල	-8607
▁ජාතිකයන්	-8608
▁රැසක	-8609
▁හැමදාමත්	-8610
▁තෙවැනි	-8611
▁කොට්ඨාසය	-8612
▁කොරියාවේ	-8613
ංකො	-8614
▁සිතුවම්	-8615
▁අැ	-8616
▁මල්ලී	-8617
▁මනුස්සයා	-8618
▁ආදරයක්	-8619
▁දවසෙ	-8620
▁සුනඛ	-8621
▁මිතුරා	-8622
▁රැසකට	-8623
▁සිටුව	-8624
බන	-8625
▁එයත්	-8626
වහන්සේ	-8627
▁උත්තරයක්	-8628
නාට	-8629
▁මදු	-8630
ඩියාව	-8631
▁කවියක්	-8632
▁සංස්ථා	-8633
▁උපාය	-8634
පාට	-8635
ලාන	-8636
▁වැඩකරන	-8637
▁සාව	-8638
රුවන්ට	-8639
රිවිධ	-8640
▁අවවාද	-8641
▁ගත්තම	-8642
▁පථ	-8643
▁පත්වීම්	-8644
▁ආග	-8645
▁රෝම	-8646
▁සපත්තු	-8647
▁ක්ෂේත	-8648
ාලේ	-8649
▁යුද්ධයට	-8650
▁වැඩියෙන්ම	-8651
▁කම්කරුවන්ගේ	-8652
▁නොකල	-8653
▁කියවීම	-8654
▁මවා	-8655
රේණි	-8656
▁රැවට	-8657
▁වෙස්	-8658
▁තමුන්	-8659
▁සතියක්	-8660
▁යාවත්	-8661
▁දෙනෙකුගේ	-8662
▁සාධ	-8663
▁වැටහ	-8664
▁ගජ	-8665
▁ගැබ	-8666
▁ආයුර්වේද	-8667
යකම	-8668
▁එක්ස්	-8669
▁සංස්ථාවේ	-8670
රකාර	-8671
ීමකට	-8672
▁නොවෙ	-8673
▁නාහිම	-8674
ාක්	-8675
▁පරම්පරාව	-8676
▁තැනම	-8677
▁නුවණ	-8678
▁කැමරාව	-8679
▁අයියට	-8680
රතිපත්තියක්	-8681
▁දියණ	-8682
රයෝ	-8683
▁අර්ථය	-8684
රවල	-8685
▁නිශාන්ත	-8686
▁දාන්නේ	-8687
▁මුඛ	-8688
▁නේපාල	-8689
▁ස්වර්ණ	-8690
දෙනු	-8691
▁ඇප්	-8692
න්තුව	-8693
▁විහිල	-8694
යානුකූල	-8695
රදීප්	-8696
▁කැත	-8697
▁හතරේ	-8698
▁දේට	-8699
▁ආකෘතිය	-8700
▁කාලයකට	-8701
▁නොවිය	-8702
▁පැවැත්	-8703
▁62	-8704
▁පොලීසියේ	-8705
▁ජනරජ	-8706
▁සිනහ	-8707
▁සැලැස්ම	-8708
▁බිලි	-8709
▁එකාට	-8710
හාමි	-8711
▁ඉටුකර	-8712
▁පිලිබද	-8713
රීඩකයින්	-8714
▁සහනාධාර	-8715
ැන්න	-8716
▁ඉදිකිරීම	-8717
▁බැලුවොත්	-8718
▁එන්නට	-8719
▁පදක්කම්	-8720
▁ලඟට	-8721
▁දමිළ	-8722
දර්ශන	-8723
▁53	-8724
▁බැක්	-8725
▁රහසි	-8726
▁ලැබිලා	-8727
රුවෝ	-8728
▁කෙස්	-8729
රදේශවලට	-8730
කින්න	-8731
▁තීරු	-8732
පිරි	-8733
▁පාසලට	-8734
ිච්ච	-8735
▁යාපා	-8736
▁කාමරය	-8737
ප්පුව	-8738
▁මාසික	-8739
▁වැඩපිළිවෙළක්	-8740
▁250	-8741
▁වෙතට	-8742
තනයේ	-8743
▁ක්ලාස්	-8744
▁යෙදීම	-8745
▁පෙරහැර	-8746
▁දිස්ත	-8747
▁සමරු	-8748
කරුවෙක්	-8749
නර්	-8750
▁ඔළුව	-8751
▁නිකමට	-8752
▁තරගාවලියට	-8753
▁අහිමිව	-8754
▁ගොවීන්	-8755
▁අබ්	-8756
පසින්	-8757
▁ලුතිනන්	-8758
▁මීළඟ	-8759
▁නුගේගොඩ	-8760
▁අඟහරුවාදා	-8761
▁තියල	-8762
▁අමරවීර	-8763
▁කැපවීම	-8764
වුන්ගේ	-8765
▁හිතුනේ	-8766
▁උදේට	-8767
▁ඉඳගෙන	-8768
▁පළමුවෙන්	-8769
▁පතා	-8770
▁එතුමාගේ	-8771
▁ඉසු	-8772
▁අවස්ථාවන්	-8773
▁ලොරි	-8774
▁සල්ල	-8775
▁එවන්න	-8776
තව	-8777
රහණයක්	-8778
▁කරන්ඩ	-8779
පයේ	-8780
▁වාර්ෂිකව	-8781
▁ජිවිතේ	-8782
▁යුදෙව්	-8783
▁විකුණා	-8784
▁අසාමාන්	-8785
▁නිර්මානය	-8786
▁දණ	-8787
▁සිරුරේ	-8788
▁ලිව්වේ	-8789
▁යෝජනාවට	-8790
▁සවන්	-8791
▁නෙළුම්	-8792
▁වැඩිපු	-8793
▁එහෙනං	-8794
▁ටයිම්ස්	-8795
▁උත්සවයක්	-8796
රිල	-8797
▁දේශගුණ	-8798
▁ලමයි	-8799
▁වදන්	-8800
▁සමලිංගික	-8801
▁සමුද්	-8802
▁කර්නල්	-8803
▁ඉපැ	-8804
▁වනවිටත්	-8805
ස්ටේ	-8806
දට	-8807
ැහැ	-8808
▁නිවේදනයේ	-8809
▁කැලේ	-8810
▁හැංග	-8811
▁පලතුරු	-8812
▁නිකා	-8813
වියන්	-8814
▁වන්	-8815
▁ඉඩම	-8816
තිපාල	-8817
▁විරාජ්	-8818
▁ලිව්වා	-8819
▁කිරු	-8820
බලන	-8821
ාර්ශ	-8822
▁වලදි	-8823
▁නමුදු	-8824
▁ගල්කි	-8825
ෂණයක්	-8826
17	-8827
▁කළහොත්	-8828
▁නිදි	-8829
▁නිශ්ශ	-8830
▁මැච්	-8831
▁වැඩිදියුණු	-8832
බෙ	-8833
යිකල්	-8834
▁එයාලට	-8835
▁තත්පර	-8836
▁ගම්මන්	-8837
▁නොතේ	-8838
▁වැලැක්	-8839
▁ලබාදු	-8840
▁ඇමෙරිකා	-8841
▁පැහැදිලිය	-8842
▁මහින්දගේ	-8843
▁වැදී	-8844
▁ස්ථානවල	-8845
▁රජ්	-8846
▁හැබෑ	-8847
▁සොරකම්	-8848
▁තුඩු	-8849
▁නළුව	-8850
▁හෙලික	-8851
රුණේ	-8852
▁සෙබළු	-8853
▁ෆො	-8854
ාවෙනි	-8855
▁මතට	-8856
▁කෙසෙල්	-8857
▁පුවත්පතේ	-8858
▁ඕව	-8859
නෙත්	-8860
▁ගැඹුර	-8861
▁දක්වාම	-8862
▁ගැනිමට	-8863
▁සම්මේලනය	-8864
▁පැස	-8865
▁ගොඩනගා	-8866
▁යටි	-8867
▁පුෂ්ප	-8868
▁රීති	-8869
ුවත්ව	-8870
▁චිත්ත	-8871
▁හරවා	-8872
▁රිමාන්ඩ්	-8873
▁ධූර	-8874
පර්	-8875
▁ඔසවා	-8876
▁ලබාදීමේ	-8877
යාත්මික	-8878
▁බළකා	-8879
▁ලිහි	-8880
රිගේඩියර්	-8881
▁පරතර	-8882
▁රඟපා	-8883
▁සීයා	-8884
▁අම්මයි	-8885
▁උල්	-8886
සයක්	-8887
▁නිත්	-8888
▁ගාණක්	-8889
සිත්	-8890
▁දෙතුන්	-8891
▁දෙව්	-8892
▁මහේෂ්	-8893
කික	-8894
▁ආවම	-8895
ලියම්	-8896
රාත්වරයා	-8897
▁එදාට	-8898
පූ	-8899
▁ආදායමක්	-8900
▁මාලාවක්	-8901
තනයක්	-8902
▁පිරිවැ	-8903
▁නය	-8904
▁හිතුණා	-8905
▁හාස්	-8906
▁වස්තු	-8907
▁දෙයකි	-8908
▁කොළඹදී	-8909
▁දිනට	-8910
▁කල්ලි	-8911
▁ආරම්භය	-8912
▁ලියුම්	-8913
▁විහාරස්ථානයේ	-8914
▁ධුරයට	-8915
▁පිළිගත	-8916
පුවා	-8917
කන	-8918
ිත්තු	-8919
▁සොයි	-8920
▁වත්තේ	-8921
▁මෙලෝ	-8922
▁ස්වකීය	-8923
▁ලව්	-8924
ීව	-8925
ළියට	-8926
▁කැණ	-8927
▁බීලා	-8928
▁වව්	-8929
▁නීතියක්	-8930
▁අනවස	-8931
රස්තවාදීන්	-8932
නුයේ	-8933
▁පිස	-8934
▁පීඩිත	-8935
ෂයට	-8936
▁බෝඩ්	-8937
▁ලේසිය	-8938
▁ස්ටාර්	-8939
▁මාළි	-8940
බො	-8941
▁දැන්ම	-8942
▁සමයේදී	-8943
▁වදාළ	-8944
▁මිනිස්සුන්ගේ	-8945
▁ෂෝ	-8946
▁උනන්දුව	-8947
▁බීබීසී	-8948
ාදී	-8949
▁600	-8950
▁කුඹුරු	-8951
ළේ	-8952
ප්ති	-8953
▁සිදුවූයේ	-8954
▁සංචිත	-8955
▁චර්	-8956
රශ්නේ	-8957
▁වෙමි	-8958
▁තිබේද	-8959
▁පිටියේ	-8960
▁රූපවාහින	-8961
▁එතැනින්	-8962
වාච	-8963
▁තිළි	-8964
ෂී	-8965
රණයට	-8966
▁ඉන්දියා	-8967
ානම්	-8968
▁ගාවට	-8969
▁තුලදී	-8970
▁දේශන	-8971
▁හැදුවා	-8972
▁විනෝදා	-8973
▁වැඩිපුරම	-8974
▁අසීම	-8975
▁නාස්ති	-8976
▁අශ්ව	-8977
▁නොනැ	-8978
▁කිසිසේත්	-8979
▁වත්කම්	-8980
▁මාසේ	-8981
▁ලැප්	-8982
▁කව්ද	-8983
▁පෙනුම	-8984
▁රහස	-8985
▁මැරෙන්න	-8986
පහ	-8987
▁පුත	-8988
▁පිරිත්	-8989
▁දෑස්	-8990
▁ගැසීම	-8991
▁ඒකීය	-8992
▁වන්නි	-8993
භි	-8994
යුහ	-8995
▁නියුතු	-8996
▁මේවන	-8997
▁සුළඟ	-8998
▁තරමක	-8999
▁පමණකි	-9000
කොටම	-9001
▁හැදෙන	-9002
ාවකින්	-9003
▁රැදී	-9004
▁කුතු	-9005
▁චන්දිමාල්	-9006
19	-9007
ලෑ	-9008
▁කළද	-9009
▁වින්ඩෝස්	-9010
දුමක්	-9011
▁දොස්	-9012
රමාණයේ	-9013
▁දම්	-9014
▁යාමෙන්	-9015
▁පාප්	-9016
▁බොරැ	-9017
▁කලාපීය	-9018
▁මෙහෙවර	-9019
රසිරි	-9020
▁ගමන්ම	-9021
▁මඩකලපුව	-9022
▁මාවතේ	-9023
▁විදි	-9024
▁කරගන්නට	-9025
▁සමඟින්	-9026
▁අස්වැන්න	-9027
▁වේදිකාව	-9028
▁බලාපොරොත්තුවෙන්	-9029
යාවට	-9030
▁ගැනීමත්	-9031
▁වෘත්තික	-9032
▁පැරා	-9033
▁ගියපු	-9034
▁ගුරුවරයා	-9035
▁ඇත්ද	-9036
▁තුනෙන්	-9037
▁නිකම්ම	-9038
▁විශේෂත්වයක්	-9039
▁ගෙවීම	-9040
▁අවධාන	-9041
▁භුක්ති	-9042
▁සොල්දා	-9043
▁තත්ත්වයේ	-9044
▁මීටර	-9045
▁නික්ම	-9046
▁ලෙන්	-9047
▁වෙනකන්	-9048
▁එංගලන්තය	-9049
▁වඳ	-9050
දිවට	-9051
▁සමරසිංහ	-9052
▁පිටිපස්ස	-9053
▁දක්වන්නේ	-9054
රශ්නවලට	-9055
▁යුක්	-9056
සාන	-9057
▁කාටද	-9058
▁ලිපිනය	-9059
▁මියු	-9060
▁කිසිසේත්ම	-9061
▁ලොවට	-9062
▁එපැයි	-9063
▁නිව්යෝ	-9064
▁පුලු	-9065
▁හැන්ද	-9066
▁උග්	-9067
ලියට	-9068
▁කෝපි	-9069
▁පරමා	-9070
▁උගන්ව	-9071
▁කොහ	-9072
▁අපව	-9073
ෆර්	-9074
ශීලි	-9075
රධානම	-9076
වෙන්නෙ	-9077
▁දෙනාටම	-9078
▁හුදු	-9079
▁රැජින	-9080
▁හොල්මන්	-9081
▁නිවසක	-9082
▁පුහුණුකරු	-9083
▁වෙන්ට	-9084
▁පරිගණකය	-9085
▁වැල්	-9086
▁මුදලාලි	-9087
▁තක්ක	-9088
▁බලකායේ	-9089
▁කෙටියෙන්	-9090
▁නිරෝගී	-9091
▁නවාතැන්	-9092
▁පොටෝ	-9093
▁ගිණුම	-9094
යාපෘතියේ	-9095
▁ඉස්සෙල්ලා	-9096
▁හොදටම	-9097
▁සිද්ධීන්	-9098
▁චැනල්	-9099
▁ආඩම්බ	-9100
▁රාවණා	-9101
▁වියට්	-9102
න්දර්	-9103
▁නිම්	-9104
▁රජයක්	-9105
▁තරගයෙන්	-9106
▁යහපත	-9107
▁කලාතුර	-9108
▁මිනිත්තු	-9109
ින්ගේ	-9110
▁හිට්ලර්	-9111
ිපෝ	-9112
ස්ටන්	-9113
මටත්	-9114
රිප්	-9115
▁ස්ථානයක	-9116
▁ගෙනියන්න	-9117
ක්කාර	-9118
ාද	-9119
සරය	-9120
▁කසල	-9121
යිට	-9122
▁ලබන්න	-9123
▁කිරිඇල්ල	-9124
▁නිසාවෙන්	-9125
30	-9126
භරණ	-9127
▁ජෝර්	-9128
▁ගෙව	-9129
▁කොන්ඩ	-9130
▁තරගයක්	-9131
▁හෙලා	-9132
ත්වලට	-9133
රධානතම	-9134
▁තරමටම	-9135
▁පුරවැසියන්	-9136
▁මද්	-9137
▁ශේ	-9138
▁සල්	-9139
▁ලාංකේය	-9140
▁සමෘද්ධි	-9141
▁කුතුහල	-9142
▁බැරුව	-9143
▁ජර්මන්	-9144
▁අහවල්	-9145
▁සිරකරුවන්	-9146
යූ	-9147
▁49	-9148
▁තිඛ	-9149
භිත	-9150
▁වෝල්	-9151
▁අංකල්	-9152
▁සෙනෙවිරත්න	-9153
නුවන්	-9154
හෙර	-9155
▁තොගය	-9156
▁කියලද	-9157
▁අකමැත්ත	-9158
▁සැබැවින්ම	-9159
▁බෝතල	-9160
▁කුමාරි	-9161
▁රැස්වීමට	-9162
▁විදියටම	-9163
▁අනතුරුවයි	-9164
▁සහභාගිව	-9165
▁හොයල	-9166
▁මත්ස්	-9167
▁පැවතිය	-9168
▁දඹ	-9169
▁පාක්ෂික	-9170
▁සැමරුම්	-9171
ගත්තේය	-9172
▁බස්ස	-9173
තෙ	-9174
මුන	-9175
ව්වෙ	-9176
▁ඉරිය	-9177
▁පියාගේ	-9178
▁පත්කළ	-9179
▁වීරසිංහ	-9180
▁මහෙ	-9181
▁ඔච්චර	-9182
▁වෙනවද	-9183
ව්වට	-9184
▁පරිණා	-9185
රවේ	-9186
යකුට	-9187
▁සැබවින්ම	-9188
▁විකිණීමට	-9189
▁ඒවගේම	-9190
▁එකක්වත්	-9191
▁සුරැක	-9192
▁නැරඹීමට	-9193
▁දෘෂ්	-9194
▁කිරිබ	-9195
▁දසුන්	-9196
▁යාන	-9197
ාවෙ	-9198
යන්තරයේ	-9199
▁විචාරක	-9200
▁හැරුණු	-9201
▁ගැනීමටත්	-9202
▁බයයි	-9203
▁සතුර	-9204
▁සලකුණු	-9205
▁සොයිසා	-9206
▁යැවීමට	-9207
ක්ටර්	-9208
▁ගුටි	-9209
ිපෙ	-9210
▁මිහි	-9211
▁බලන්නට	-9212
ෂ්ක	-9213
▁ගෙවිය	-9214
▁මැතිවර	-9215
▁130	-9216
▁දරුවෙකු	-9217
▁පැහැදිලිවම	-9218
▁අරක්කු	-9219
▁ස්පර්ශ	-9220
රලා	-9221
▁තෙත්	-9222
▁සතුටට	-9223
▁ඉස්ලාමීය	-9224
▁කුණුහ	-9225
රවාද	-9226
න්නේය	-9227
▁සාම්ප	-9228
▁දැක්කෙ	-9229
ථ්	-9230
▁එලි	-9231
▁සාධන	-9232
▁අහගෙන	-9233
ුවල්	-9234
කොල්ල	-9235
▁පාඨමාලා	-9236
▁පරිහරණය	-9237
▁මැතිවරණයෙන්	-9238
▁භාග	-9239
▁නාමයෙන්	-9240
▁ජෛව	-9241
රසී	-9242
▁අරලියගහ	-9243
▁කොදෙව්	-9244
▁නොදන	-9245
▁ස්වල්	-9246
▁දකිනවා	-9247
▁අලෙව	-9248
▁හදවති	-9249
ඩුවේ	-9250
ුණත්	-9251
▁හන්දා	-9252
භේද	-9253
▁ෆෙඩරල්	-9254
▁පාරෙ	-9255
▁චීනයට	-9256
▁විසඳුම	-9257
▁සහනයක්	-9258
▁තනා	-9259
▁කායික	-9260
▁අනුන්ගේ	-9261
▁වුණාම	-9262
▁අනිවාර්යෙන්ම	-9263
▁ඇද්ද	-9264
▁පුටුව	-9265
▁බල්	-9266
▁දැඩිව	-9267
▁ඇදුම්	-9268
▁වෙන්ඩ	-9269
▁චෛ	-9270
ිකුරු	-9271
▁දක්වයි	-9272
යවස්ථාවට	-9273
▁පහළට	-9274
▁සිටියාය	-9275
▁යොමුකර	-9276
▁හමුවේදී	-9277
ීක	-9278
▁ස්තූති	-9279
▁පප	-9280
▁දෙදෙනකු	-9281
▁මයිකල්	-9282
▁ජනයාට	-9283
ශි	-9284
▁අසුන්	-9285
▁ඇමතිවරු	-9286
▁හමුවීමට	-9287
▁සමාජවාදය	-9288
▁සංහිඳියාව	-9289
යවල	-9290
▁කොඩ	-9291
▁අනුමාන	-9292
▁පිහිටුවීමට	-9293
▁ජයවර්ධනපුර	-9294
ිකාවක	-9295
▁ආසාද	-9296
කින්ම	-9297
▁සහතිකය	-9298
▁මහල්	-9299
▁ගෙඩිය	-9300
▁කලෙක	-9301
▁පුණ්	-9302
රදාය	-9303
▁ඇලෝ	-9304
යාවන්	-9305
▁ඇහුවේ	-9306
▁දාර්ශ	-9307
▁කරනුයේ	-9308
▁විස්වාස	-9309
ලියක්	-9310
▁එයාර්	-9311
ප්පෙරුම	-9312
▁බැලුවම	-9313
▁අප්පච්චි	-9314
▁ගම්මන්පිල	-9315
▁දෙකයි	-9316
▁පෙරටු	-9317
▁පුරුද්ද	-9318
ිපිටිය	-9319
▁ස්වාමින්	-9320
▁විනිමය	-9321
▁ආකාරයක	-9322
සයි	-9323
▁පරිච්ඡේද	-9324
▁අන්තර්ජාලයේ	-9325
ර්ක්	-9326
▁නිවැරැ	-9327
▁යනුවෙනි	-9328
▁අසූ	-9329
▁මැතිව්ස්	-9330
▁දුරකතනය	-9331
▁බිත්ති	-9332
▁මොහොතක්	-9333
▁ලාල්	-9334
▁66	-9335
▁පරිසරයට	-9336
▁විහාරාධිපති	-9337
▁සැසිව	-9338
යවහාර	-9339
▁හොයන	-9340
▁ලිවීම	-9341
▁සම්පාදන	-9342
▁ඔන	-9343
▁ගර්භ	-9344
▁බැහැලා	-9345
▁රස්තියා	-9346
▁පිහිටුවීම	-9347
රීඩකයා	-9348
▁ඉමහත්	-9349
මැද	-9350
▁හිල	-9351
▁හුගක්	-9352
ිපි	-9353
▁නායකයෙක්	-9354
▁දුවන	-9355
▁දිනාගත්	-9356
▁වූවාය	-9357
▁ළග	-9358
▁මරාගෙන	-9359
▁51	-9360
▁මැටි	-9361
▁මට්ටමට	-9362
රිඩා	-9363
▁අභිර	-9364
▁දුරු	-9365
▁වනාහි	-9366
▁අමතා	-9367
▁ධූරය	-9368
▁දෙරණ	-9369
▁ගත්තට	-9370
▁හදු	-9371
▁සංවිධානයට	-9372
▁පරිව	-9373
ිබි	-9374
▁වේලාවක්	-9375
▁අරමුණක්	-9376
▁ලබාගන්නා	-9377
▁ඉල්ලන	-9378
කිරීම්	-9379
▁තැන්ප	-9380
▁සුඛෝප	-9381
▁එන්ට	-9382
▁අමරතුංග	-9383
▁ඔයාලගේ	-9384
▁ලිපියට	-9385
රවර්ධන	-9386
▁වර්ෂා	-9387
▁හදිස්ස	-9388
▁අඳ	-9389
▁එකටම	-9390
▁විපා	-9391
▁රාමනායක	-9392
ුවක	-9393
▁කාලසීම	-9394
▁මොරටුව	-9395
▁වැඩවර්	-9396
▁වෙළඳපොළ	-9397
රහාරයට	-9398
▁මාලදිව	-9399
▁දැනුනා	-9400
▁නුසුදු	-9401
▁ආකාරයකින්	-9402
▁නොදු	-9403
▁හරිද	-9404
▁විහාරයේ	-9405
▁බිස	-9406
විණි	-9407
▁කඩුල්ල	-9408
▁විත්	-9409
▁පාරටම	-9410
▁නීතිගත	-9411
▁ආඥාපති	-9412
▁මායිම්	-9413
ෂේත්	-9414
▁නිළිය	-9415
ද්දර	-9416
ෙනුයි	-9417
▁එතනට	-9418
▁අවබෝධය	-9419
විම	-9420
▁මෙසේය	-9421
▁අතවර	-9422
▁ආහාරය	-9423
▁ගෙයක්	-9424
▁විදියක්	-9425
රසි	-9426
▁අයියෙ	-9427
▁නිසැක	-9428
▁සිටියත්	-9429
▁උර	-9430
▁තොට	-9431
▁සංස්	-9432
▁යලිත්	-9433
▁කලයුතු	-9434
▁නානායක්කාර	-9435
නෙට්	-9436
▁උපන්දි	-9437
▁වර්ගයක්	-9438
▁අභිලා	-9439
▁දැමිය	-9440
ොම්	-9441
ෝපා	-9442
▁අශෝක	-9443
යප	-9444
පියු	-9445
▁සැතපුම්	-9446
ාලු	-9447
ාවරණය	-9448
භාරය	-9449
ගමගේ	-9450
▁දැව	-9451
▁කරනවද	-9452
▁දීමනා	-9453
▁ඇතුලූ	-9454
රකාශනය	-9455
▁කොහේද	-9456
▁සියලූම	-9457
▁කරන්නන්	-9458
▁හිදී	-9459
▁අභියෝගය	-9460
▁නාශක	-9461
▁වැඩසටහනට	-9462
මතා	-9463
▁සරණාගත	-9464
▁බලයේ	-9465
▁හදන්නෙ	-9466
▁192	-9467
▁පහරදීම	-9468
▁ලැබෙනු	-9469
▁උන්නා	-9470
▁වැඩිහිට	-9471
▁නිමිත්තෙන්	-9472
▁සමුළුවේ	-9473
ුදු	-9474
හිය	-9475
ශවය	-9476
▁පතු	-9477
▁පහරක්	-9478
▁සාක්ක	-9479
▁අල්ලපු	-9480
▁කෝට්ටේ	-9481
▁බැස්ස	-9482
▁ආරක්ෂාවට	-9483
සොන්	-9484
▁ගිර	-9485
▁තියනවද	-9486
▁ගලව	-9487
රංශයේ	-9488
▁ලෙසම	-9489
▁සංඝරත්	-9490
▁කරන්ට	-9491
▁89	-9492
▁ඉන්පසුව	-9493
▁කරන්නැයි	-9494
▁අනියම්	-9495
▁කෝච්ච	-9496
සීමට	-9497
කාලීනව	-9498
▁නඩුවේ	-9499
▁ගිවිසුමක්	-9500
▁ඉගෙනුම	-9501
▁දන්නවනේ	-9502
▁කියවනවා	-9503
▁එපමණක්	-9504
▁පුනරුත්	-9505
▁සංවිධානයක්	-9506
▁කියාගෙන	-9507
▁සතා	-9508
▁ඛේදවාච	-9509
▁පුද්ගලයාගේ	-9510
▁ඇතුළේ	-9511
▁1990	-9512
▁මහත්මයා	-9513
▁අරූ	-9514
▁සුමන	-9515
▁නිර්ම	-9516
▁පේන්නෙ	-9517
සියට	-9518
▁හිමිකරු	-9519
▁හැඳුනු	-9520
ංහ	-9521
▁කොයිතරම්	-9522
▁දේශනය	-9523
▁සිටිමු	-9524
▁තෝරාගත්	-9525
▁අමුතුම	-9526
▁ලියන්නට	-9527
▁සමුළුවට	-9528
▁මිනිසාගේ	-9529
▁නයිට්	-9530
▁නිකු	-9531
චන	-9532
▁සීය	-9533
▁පැන්	-9534
▁පෙනු	-9535
ලකට	-9536
▁කදිම	-9537
කත්	-9538
▁ටි	-9539
▁අත්කර	-9540
▁සැපයුම	-9541
▁එකෙ	-9542
ලට්	-9543
▁ගල්කිස්ස	-9544
▁වර්තමානය	-9545
කරයේ	-9546
▁කුලියට	-9547
▁සිද්ධියෙන්	-9548
▁රෙද්ද	-9549
▁මොබ	-9550
▁සිදුකරනු	-9551
▁උත්තරේ	-9552
▁පුළුවනි	-9553
▁පුරාවට	-9554
▁බාගත	-9555
▁භාරත	-9556
▁මතකද	-9557
▁කිහිපයකින්	-9558
හිරු	-9559
▁නැන	-9560
▁රැගත්	-9561
▁සංවාදය	-9562
▁පුද්ගලයන්ට	-9563
▁දමමින්	-9564
▁වශයෙනි	-9565
▁සිනමාවේ	-9566
ිකරු	-9567
▁දූත	-9568
▁රථයක	-9569
▁අරුම	-9570
▁ධෛර්	-9571
▁එව්ව	-9572
▁ලාංකිකයන්	-9573
▁ගැටුමක්	-9574
▁මහණ	-9575
▁77	-9576
▁පටිගත	-9577
▁අමිල	-9578
▁මෙගා	-9579
යාපනයට	-9580
▁දුර්ල	-9581
ණී	-9582
▁කසුන්	-9583
යවතුන්	-9584
▁කිසිවෙක්	-9585
▁ඔප	-9586
▁විදේශික	-9587
▁පානීය	-9588
▁යානයේ	-9589
▁බන්ධනාගාරගත	-9590
▁බාර්	-9591
▁පුපුරා	-9592
යේම	-9593
▁පද්ධතියේ	-9594
▁දැනගත්ත	-9595
ඩාවේ	-9596
▁ඥානසාර	-9597
වාය	-9598
▁රාවය	-9599
▁හඹා	-9600
▁නගරාධිපති	-9601
ියකින්	-9602
▁තුන්වැනි	-9603
▁බලනකොට	-9604
▁වැලිකඩ	-9605
▁වූවන්	-9606
▁කියවපු	-9607
ධා	-9608
ංශය	-9609
▁ඔරලෝ	-9610
▁මුළුමනින්ම	-9611
▁සොයාගත්	-9612
▁පැමිණියා	-9613
▁මහම	-9614
▁කිරීමය	-9615
▁එවැන්නක්	-9616
▁හෝද	-9617
▁කළයුතු	-9618
▁කාරණාව	-9619
▁මාසයක්	-9620
පෙළ	-9621
▁ගන්නව	-9622
▁හානික	-9623
▁කියති	-9624
▁නේවාස	-9625
▁ඥාති	-9626
ල්ටන්	-9627
▁88	-9628
▁කම්මැලි	-9629
තූන්	-9630
▁මැණික	-9631
▁මෙහිදි	-9632
▁අනාවැකි	-9633
ිවෙත්	-9634
▁වහල්	-9635
රාහී	-9636
▁වීරයා	-9637
▁උපකල්ප	-9638
▁ඊමේ	-9639
▁අනෙකා	-9640
▁මැතිවරණයක්	-9641
ාර්ථය	-9642
තියෙන්	-9643
▁සූරිය	-9644
▁පරික්ෂා	-9645
▁උනු	-9646
▁සමාජීය	-9647
▁පැකට්	-9648
▁තේරෙනවා	-9649
ාන්තික	-9650
▁මතකයන්	-9651
▁රාජකාරිය	-9652
▁ඒකම	-9653
▁හමුවන	-9654
▁කොස්තා	-9655
▁වනතුරු	-9656
කොටුව	-9657
▁බලමින්	-9658
▁වාර්ගික	-9659
▁කාර්යයක්	-9660
ිවරු	-9661
▁දස්	-9662
▁එබඳු	-9663
▁මෝදි	-9664
▁බාලිකා	-9665
▁කාරයෙක්	-9666
▁ගෙඩියක්	-9667
▁ඉදල	-9668
▁එලිය	-9669
▁පාඨමාලාව	-9670
සෙන්	-9671
▁හරිත	-9672
▁කුඩ	-9673
▁සුවය	-9674
▁කෝට	-9675
▁පවිත්	-9676
සන්න	-9677
▁කලාකරුවන්	-9678
▁සිම්බා	-9679
ණ්ඩු	-9680
▁අපය	-9681
වුම්කරු	-9682
▁දාර්ශනික	-9683
▁සිටිනා	-9684
ගේ	-9685
▁ජීවී	-9686
ිට්ට	-9687
▁පළි	-9688
▁ආඩම්බර	-9689
▁පුන්	-9690
වත්වා	-9691
▁ස්ටී	-9692
▁වීදුරු	-9693
▁ඉද්දි	-9694
▁මතින්	-9695
▁ලෝහ	-9696
▁මෙදා	-9697
▁වගන්තිය	-9698
▁පෙන්වීම	-9699
▁ජර්මනියේ	-9700
▁සෝභිත	-9701
▁විනිවි	-9702
▁සච	-9703
▁ගොස	-9704
▁කෙනෙකුගේ	-9705
▁පරාක්	-9706
▁එකිනෙක	-9707
▁හයේ	-9708
ිරාල්	-9709
▁අවා	-9710
▁ජේම්ස්	-9711
▁පානදුර	-9712
▁පැවැත්වුණා	-9713
▁කැද	-9714
▁පන්සලේ	-9715
▁මායා	-9716
රධානීන්	-9717
▁තංග	-9718
රීති	-9719
▁සිතන්නේ	-9720
▁කිඹු	-9721
▁බෝධි	-9722
මේදී	-9723
▁කරුණාකර	-9724
▁එවන	-9725
▁හෙට්ටිආරච්චි	-9726
▁කියන්නෙත්	-9727
▁රූපය	-9728
▁කිවුවා	-9729
තියන්	-9730
▁දක්වන්න	-9731
▁නොසන්	-9732
▁ඛාන්	-9733
▁පනතේ	-9734
ත්වන	-9735
ඩිම	-9736
▁විනිශ්චය	-9737
නොත්	-9738
සික්	-9739
ස්තමේ	-9740
▁අන්තර	-9741
▁පෘතුගී	-9742
▁සංවිධා	-9743
▁ජර්මනිය	-9744
▁නැත්තන්	-9745
▁දෙහි	-9746
▁පිළිගෙන	-9747
ිටර්	-9748
▁ජන්ද	-9749
▁උපකාරී	-9750
▁මංකොල්ල	-9751
▁5000	-9752
▁නීතිවිරෝධී	-9753
▁සමාලෝ	-9754
▁රංගනය	-9755
▁ගනුදෙනුව	-9756
▁කෙරුව	-9757
ලගේ	-9758
ංගල්	-9759
▁චැට්	-9760
රියතම	-9761
▁තිදෙනෙකු	-9762
▁හංග	-9763
▁වගයක්	-9764
▁කරගත්තා	-9765
▁ලියනගේ	-9766
▁කුළ	-9767
▁සේනාව	-9768
▁ඕං	-9769
▁එක්වී	-9770
▁කොතැන	-9771
▁රජා	-9772
▁රිස	-9773
▁මැතිවරණයේ	-9774
▁මුන	-9775
▁යාළුවෙක්	-9776
▁චන්දන	-9777
▁ගුණතිලක	-9778
▁බැදුම්	-9779
▁කෘෂිකාර්මික	-9780
▁රග්	-9781
යවරයාට	-9782
▁මහෙස්ත්	-9783
දුණ	-9784
රේ	-9785
▁යව	-9786
▁තතු	-9787
ට්ස්කි	-9788
කයි	-9789
▁එමඟින්	-9790
▁සිම්බාබ්	-9791
▁චෝදනාවක්	-9792
▁පදනමක්	-9793
වුණා	-9794
▁පහලට	-9795
▁වෛරසය	-9796
▁පහලින්	-9797
▁එකතුවෙලා	-9798
▁මැද්ද	-9799
▁වාඩ	-9800
▁ඩෝ	-9801
▁හෝටල	-9802
▁දේශපාලඥ	-9803
▁යානයක්	-9804
▁රාජධානිය	-9805
රලිය	-9806
විඩ්	-9807
▁මවගේ	-9808
▁කුස්ස	-9809
ජිත	-9810
▁අසම	-9811
▁ගැනම	-9812
▁කාර්යාලයේදී	-9813
න්වන	-9814
▁නංවා	-9815
▁ඡු	-9816
▁පහේ	-9817
▁සභික	-9818
▁කිම්	-9819
▁හිටියට	-9820
▁සැහැල්ල	-9821
▁95	-9822
▁ඉල්ලුම්	-9823
▁එන්නත්	-9824
▁නොවනු	-9825
▁කාන්ත	-9826
▁යනාදී	-9827
▁ෂුවර්	-9828
රතිසංස්කරණය	-9829
▁දෙනව	-9830
▁යක්ෂ	-9831
රයෝජනයට	-9832
▁නිවුස්	-9833
▁උන්නැ	-9834
▁නැවැත්ව	-9835
▁කැලණිය	-9836
▁මහත්තයෝ	-9837
ීහු	-9838
▁නර	-9839
▁තිරි	-9840
▁නොසිට	-9841
▁පැවිදි	-9842
▁රැු	-9843
▁අම්මේ	-9844
▁දෙනෙකුගෙන්	-9845
▁ගවේෂණ	-9846
▁නොපෙනෙන	-9847
▁සොබා	-9848
ටය	-9849
▁බලාගාර	-9850
▁දාන්නම්	-9851
▁අල්ලාගෙන	-9852
▁කොට්ඨාශය	-9853
▁කුමරිය	-9854
▁අහම්බෙන්	-9855
▁මිසයිල	-9856
▁72	-9857
යවේදිය	-9858
නාට්	-9859
▁පහරදී	-9860
▁විප්ලවවාදී	-9861
▁ආදරයෙන්	-9862
ත්වා	-9863
▁ඇතිවී	-9864
ොට්	-9865
▁කිහිපයක්ම	-9866
▁රත්තරන්	-9867
▁අතකින්	-9868
▁පලි	-9869
▁මූලධර්ම	-9870
▁කෝප්ප	-9871
▁නදී	-9872
▁ට්විට	-9873
▁විකුණන	-9874
▁තුවක්කු	-9875
▁ජලයෙන්	-9876
▁බොරුවට	-9877
▁අල්ලගෙන	-9878
▁කිරීමටද	-9879
▁උය	-9880
▁රජරට	-9881
▁මැදින්	-9882
▁කීපයකට	-9883
▁යථාර්ථය	-9884
▁එක්කර	-9885
▁රණවිරුව	-9886
▁ස්ථාවරය	-9887
▁නිසාවෙනි	-9888
තොට	-9889
සම්ප	-9890
▁නිරුවත්	-9891
▁පඬ	-9892
තුමාට	-9893
▁මොලේ	-9894
▁පොරොන්දුව	-9895
▁රැස්වීමක්	-9896
ුණුව	-9897
▁ඩිම	-9898
▁බවටද	-9899
▁ඇඳගෙන	-9900
▁බාව	-9901
▁සඟවා	-9902
විදු	-9903
තාක්	-9904
රසාදය	-9905
සියක්	-9906
▁ගංගා	-9907
▁පාසල්වල	-9908
▁ජනයාගේ	-9909
▁ධර්මපාල	-9910
▁ආදේශ	-9911
දරු	-9912
▁ජන්ම	-9913
▁ස්ට්	-9914
▁සුරා	-9915
▁අපූ	-9916
▁හික්	-9917
▁තුරන්	-9918
▁සිටිමි	-9919
▁පිට්	-9920
▁උණ්ඩ	-9921
බඩ	-9922
▁සාදර	-9923
▁චාම	-9924
ළුවන්	-9925
▁කන්ට	-9926
▁ආශිර්වාද	-9927
▁විසඳා	-9928
▁අංශක	-9929
▁දෙන්නත්	-9930
ත්වයකි	-9931
රශ්ණයක්	-9932
ෂ්ඨා	-9933
ුවෙමි	-9934
▁ජනේ	-9935
▁සුපිර	-9936
▁තරඟාවල	-9937
▁කොලො	-9938
▁පාඩුවක්	-9939
▁වෙර	-9940
න්නෙමු	-9941
▁ගණනාවක	-9942
▁සතුරු	-9943
▁කුළු	-9944
▁දක්ෂිණ	-9945
▁පළකර	-9946
14	-9947
▁කියනු	-9948
▁වලත්	-9949
▁ලිස්ට්	-9950
▁හැඳින්වෙන	-9951
▁තරං	-9952
▁මවක්	-9953
▁පාඩමක්	-9954
▁හතළ	-9955
ගැනීමෙන්	-9956
▁පුරුද්දක්	-9957
ලියන්	-9958
▁කඩාව	-9959
▁ජොන්	-9960
▁දන්ස	-9961
▁රග්බි	-9962
▁විමසීමකදී	-9963
▁තොටුපළ	-9964
▁සැහැල්ලු	-9965
▁කටහඬ	-9966
▁හිමියන්ට	-9967
මාගම	-9968
▁කාරුණ	-9969
▁සම්බන්ධතාව	-9970
▁රතන	-9971
▁රනිල්ට	-9972
▁ළං	-9973
සුනක්	-9974
ංගේ	-9975
▁සුසිල්	-9976
කාරයෝ	-9977
▁නොදැවී	-9978
▁මෙව්වා	-9979
▁ස්වේ	-9980
▁ඇමතුමක්	-9981
▁එකක්ම	-9982
▁හොරණ	-9983
▁රැස්වීමේදී	-9984
බුන්	-9985
▁68	-9986
▁සුඛෝපභෝග	-9987
▁මොණ	-9988
මාර්ග	-9989
▁දිවිය	-9990
ගතු	-9991
▁59	-9992
▁සර්ප	-9993
▁පුංච	-9994
රොයිඩ්	-9995
▁ධනවත්	-9996
▁එන්ජින්	-9997
▁හෙළා	-9998
▁හෙළිව	-9999
▁තර්කය	-10000
▁ලෙසිනි	-10001
▁ථ	-10002
▁අනතුරින්	-10003
▁අහසේ	-10004
▁සංවේ	-10005
▁දෙවරක්	-10006
▁වර්ෂයේදී	-10007
▁බොරුව	-10008
▁මදිවට	-10009
▁රණවිරු	-10010
▁පසුවයි	-10011
▁විදුහලේ	-10012
▁මහතාගෙන්	-10013
▁මලල	-10014
▁සමාජයක	-10015
▁රාජකාරී	-10016
කුම්	-10017
▁අපේම	-10018
රතන	-10019
▁පෝල	-10020
කෑ	-10021
▁කිසිවෙකුට	-10022
▁පක්ෂයෙන්	-10023
▁අධිෂ්ඨ	-10024
▁ආගන්තු	-10025
ෂයක්	-10026
▁සරසවිය	-10027
▁නොලැබෙන	-10028
▁ඒකාධිපති	-10029
▁නැවැ	-10030
▁කිලෝමීටර	-10031
▁ජයසුන්දර	-10032
▁සංකීර්ණය	-10033
පාලන	-10034
රදේශයක්	-10035
▁පිළිගන්නා	-10036
▁පූජක	-10037
▁ඉදිකිරීමට	-10038
▁සිරගත	-10039
රයකු	-10040
▁ඉරාන	-10041
▁නෝර්	-10042
▁විවේක	-10043
▁නොහැකියි	-10044
▁සිංහලයන්	-10045
රතිචාරය	-10046
රහල	-10047
▁නඩුවක්	-10048
▁2001	-10049
▁ඇස්තමේ	-10050
රීට්	-10051
▁අත්තන	-10052
▁පැවැත්විය	-10053
▁මිදු	-10054
▁ආන්දෝල	-10055
▁නිලධාරියෙක්	-10056
ඩො	-10057
වනං	-10058
▁හබ	-10059
▁ඇතිවීම	-10060
▁ඩොල	-10061
වුල	-10062
▁ඇතැයිද	-10063
▁නායකයෝ	-10064
▁බඹ	-10065
නාවේ	-10066
▁අගේ	-10067
▁විගස	-10068
▁අඳින	-10069
ලම්	-10070
යාපනයේ	-10071
▁වාරිමාර්ග	-10072
ශාන්	-10073
▁කණගාටු	-10074
▁වෙනකල්	-10075
▁එකටත්	-10076
▁වැඩික	-10077
▁තාත්තට	-10078
▁සිම්බාබ්වේ	-10079
▁අයගෙ	-10080
▁හතක්	-10081
▁ට්විටර්	-10082
▁සරසවියේ	-10083
▁සිදුවනු	-10084
▁විකල්පයක්	-10085
▁සදාකාල	-10086
▁විශ්ලේෂණය	-10087
▁ඩිස්	-10088
ජික්	-10089
▁පෙරල	-10090
▁ඊමේල්	-10091
▁සාමූහ	-10092
▁ගනේ	-10093
▁ලිඛිත	-10094
▁භාණ්ඩාගාර	-10095
▁අඩේ	-10096
▁තාල	-10097
යාලයීය	-10098
▁මහින්	-10099
▁විහිළු	-10100
දිත්	-10101
▁වැඩකටයුතු	-10102
▁කවුරුහරි	-10103
▁රාජපක්ෂට	-10104
▁විපර්	-10105
▁තිබුණද	-10106
ියත්	-10107
▁අල්ලලා	-10108
ුවෙල	-10109
▁ධනවාදය	-10110
▁සිරියානු	-10111
ාවෝ	-10112
▁රඹු	-10113
▁පුද්ගලයෙකුට	-10114
▁උච්ච	-10115
▁සන්නා	-10116
▁සාකච්	-10117
▁මාතෘකාවක්	-10118
▁වැඩිහිටියන්	-10119
▁බෙදී	-10120
▁සංවාදයක්	-10121
▁කළාට	-10122
▁සංසාර	-10123
▁පිහිටුවන	-10124
▁නෙට්	-10125
▁පාඩම	-10126
සියාවට	-10127
▁හර්ෂ	-10128
▁වලි	-10129
රාවක	-10130
මාකාර	-10131
▁යුතුද	-10132
▁පංතිය	-10133
▁පිරිහ	-10134
▁අයදුම්පත්	-10135
▁කාලීනව	-10136
ියර්	-10137
▁බුවා	-10138
ලොග්	-10139
▁කෙරෙනු	-10140
රොට්ස්කි	-10141
▁නිරීක්	-10142
▁සොෆ්ට්	-10143
▁මියන්	-10144
▁හදුන්ව	-10145
සහ	-10146
▁රංගනයෙන්	-10147
හාන	-10148
▁පොහොසත්	-10149
▁විදිහටම	-10150
▁නුසුදුසු	-10151
▁අවයව	-10152
▁මොනාද	-10153
▁සෙවීම	-10154
▁සුනා	-10155
▁අර්ථක	-10156
▁ඇතැමුන්	-10157
▁ද්විත්ව	-10158
▁සමූ	-10159
▁බසින්	-10160
▁ආවරණ	-10161
▁උපහාර	-10162
රත	-10163
▁ගෙල	-10164
▁නගි	-10165
▁නමට	-10166
▁ඇතුව	-10167
▁පුහු	-10168
▁වාසු	-10169
යවරයෙකු	-10170
▁බ්ල	-10171
▁මැනවින්	-10172
රියක	-10173
ක්සික	-10174
▁නොගත්	-10175
පිරිතා	-10176
▁ඇත්තට	-10177
▁අඩවියක්	-10178
▁එසේත්	-10179
▁බැදුම්කර	-10180
▁ගොවී	-10181
▁මෙහෙයුමක්	-10182
▁එළිදැක්	-10183
රපාල	-10184
▁අතිවි	-10185
▁පදවිය	-10186
▁නරේන්ද්	-10187
▁ගියහ	-10188
▁දෙහිව	-10189
▁දේශය	-10190
රලේඛ	-10191
▁සැණ	-10192
▁වැළැක්වීම	-10193
ිකො	-10194
සාව	-10195
▁යාළුවෝ	-10196
රවණා	-10197
▁ගණිතය	-10198
▁කරන්නා	-10199
▁පුටු	-10200
▁කුහක	-10201
▁ඉස්පිරිතා	-10202
▁දෙපාර්තමේන්තු	-10203
▁අනිද්දා	-10204
ියකි	-10205
▁ස්ත	-10206
▁වර්ෂාව	-10207
▁හිමියෝ	-10208
▁පවුලට	-10209
▁ජීප්	-10210
▁මිලක්	-10211
▁පිරුණු	-10212
▁ඔබ්බට	-10213
▁කුසලානය	-10214
▁කඳවුරේ	-10215
ෙනව	-10216
▁පිහි	-10217
▁යුරෝපය	-10218
▁ගයා	-10219
▁සහයෝගී	-10220
▁1980	-10221
හාව	-10222
රගතිය	-10223
▁අභිම	-10224
▁විනිවිද	-10225
▁සෙනෙහස	-10226
▁සනීප	-10227
▁කිලෝග්	-10228
▁විවාදයට	-10229
▁විමසීමක්	-10230
▁අයියෝ	-10231
▁බෞද්ධයන්	-10232
▁බත්තර	-10233
▁කුර්	-10234
▁විපතට	-10235
▁කියෙව්ව	-10236
▁ගායන	-10237
යාර	-10238
කෙන	-10239
▁සාමාජිකත්වය	-10240
▁දෙයියනේ	-10241
▁අපෝ	-10242
ිනුයි	-10243
▁මට්ටම්	-10244
▁මතකයක්	-10245
▁ටෙලිනාට්	-10246
▁යාවත්කාලීන	-10247
▁මුදු	-10248
▁රජ්ජු	-10249
▁පුනරුත්ථා	-10250
▁සනිටු	-10251
▁තිබිලා	-10252
▁නිවන	-10253
▁සීට්	-10254
▁සිදුවීමට	-10255
▁චික	-10256
▁නොසන්සුන්	-10257
▁වළක්	-10258
▁ටීචර්	-10259
ෂ්වරන්	-10260
▁තනතුරට	-10261
▁දෙති	-10262
▁සුන්	-10263
▁85	-10264
▁අල්ලන්න	-10265
▁පණිවිඩයක්	-10266
▁නැංවීම	-10267
▁අවභාව	-10268
▁ගැන්ව	-10269
▁සමන්ත	-10270
▁කුසලතා	-10271
▁පිළිකු	-10272
▁අස්ගිරි	-10273
▁අබේවර්ධන	-10274
▁ෆා	-10275
▁කලාවේ	-10276
▁නෞකාව	-10277
▁හටගත්	-10278
▁සමාරම්භ	-10279
▁බෝට්ටු	-10280
නගේ	-10281
▁නෑදෑ	-10282
▁හෝමාගම	-10283
▁අභාවප්	-10284
▁ශතක	-10285
ධිකාර	-10286
සිටි	-10287
▁සනිටුහන්	-10288
දාර	-10289
▁වදන	-10290
▁චෛත්	-10291
▁සිටින්නට	-10292
▁රහසක්	-10293
▁වැටෙනවා	-10294
▁ගනනක්	-10295
▁පත්කිරීම	-10296
▁යටතට	-10297
▁ඕනැ	-10298
ෙද්දී	-10299
▁ඔයත්	-10300
▁පැවසිය	-10301
▁මතකයේ	-10302
තව්	-10303
▁ආනයන	-10304
▁සිටිනු	-10305
▁ජර්මානු	-10306
▁සාර්	-10307
ඹේ	-10308
ිවර්ධන	-10309
▁කිරිබත්	-10310
▁නවත්තන්න	-10311
▁පැරැ	-10312
වාදි	-10313
▁හඳුන්වාද	-10314
▁හෙයිනි	-10315
▁කියනවනම්	-10316
▁සන්නිවේදනය	-10317
කස්	-10318
▁භික්ෂු	-10319
▁අදාලව	-10320
කාම	-10321
▁කිරීමටයි	-10322
▁එහේ	-10323
▁1989	-10324
▁බිව්	-10325
▁පත්වුණා	-10326
▁එලෙසම	-10327
▁විද්වතුන්	-10328
ලාද	-10329
▁නවකතා	-10330
▁කලාතුරකින්	-10331
▁ටෙක්	-10332
▁වැටලීම	-10333
▁හානිකර	-10334
යිද	-10335
වස්	-10336
▁ටු	-10337
▁අටක්	-10338
▁නිති	-10339
▁මල්වතු	-10340
▁පෙන්වීමට	-10341
▁කණ්	-10342
▁පරස්	-10343
▁තෙම	-10344
▁පරමාණ	-10345
ීමටත්	-10346
▁කරුණාව	-10347
▁දුර්ලභ	-10348
▁ජනතාවක්	-10349
▁හැත්තෑ	-10350
▁දැන්නම්	-10351
▁800	-10352
▁පෙන්නලා	-10353
▁වයසක	-10354
▁සිරිත	-10355
▁යාළුවා	-10356
▁සලකන්න	-10357
▁ජනාධිපතිවරණයට	-10358
දුරේ	-10359
▁එඩ්	-10360
වුවා	-10361
▁ගෙනැ	-10362
බර්ග්	-10363
විල්ලක්	-10364
▁කරන්නයි	-10365
▁අා	-10366
▁ගැටී	-10367
▁ලංගම	-10368
රමාණයෙන්	-10369
▁ලැබෙන්නෙ	-10370
▁බිද	-10371
▁ගැහුව	-10372
▁තත්ත්වයකට	-10373
▁පැළඳ	-10374
▁වසංග	-10375
ුද්	-10376
▁කෙනාට	-10377
▁පහකට	-10378
▁පුතාට	-10379
▁පිලේ	-10380
▁මරුට	-10381
▁නෛ	-10382
▁එවුන්ට	-10383
▁කෙරී	-10384
▁විදියේ	-10385
▁මාතෘකා	-10386
▁ඉහලින්	-10387
▁කරගන්නේ	-10388
▁පෙරා	-10389
▁මලක්	-10390
▁දුකයි	-10391
ලන්ඩ්	-10392
▁දැකීම	-10393
▁පොළොව	-10394
▁කැරක	-10395
නිති	-10396
▁ආශාව	-10397
▁රොෂාන්	-10398
▁ගමනාගමන	-10399
▁2002	-10400
▁දස්කම්	-10401
▁1970	-10402
▁හෙන්රි	-10403
▁ලියන්නෙ	-10404
▁බොහෝමයක්	-10405
▁රක්	-10406
▁පැයට	-10407
▁වෙලාද	-10408
තියා	-10409
රමාණයට	-10410
▁දේවාල	-10411
වුව	-10412
▁බල්ලා	-10413
▁බිරිද	-10414
▁වැන්න	-10415
▁නැවුම්	-10416
▁ගාන්ධි	-10417
▁කන්නේ	-10418
▁තැබිය	-10419
▁ටිකෙන්	-10420
භූත	-10421
යවස්ථාදායක	-10422
▁බොක්ක	-10423
පණ	-10424
▁නොග	-10425
▁නොබලා	-10426
▁දෙදෙනාගේ	-10427
▁අඳුර	-10428
යන්තරය	-10429
▁අපනයනය	-10430
▁ධාරිතාව	-10431
▁වර්ධනයක්	-10432
▁හේතුවෙනි	-10433
රීඩාංගණයේදී	-10434
▁කිරුළ	-10435
▁රූපවාහිනිය	-10436
▁ගිග	-10437
▁රස්සාවක්	-10438
▁සාප	-10439
▁තුර	-10440
▁ධනු	-10441
▁ඇඟට	-10442
▁උපාලි	-10443
▁යාළුවො	-10444
▁පකිස්තා	-10445
▁රාජා	-10446
▁ආයිත්	-10447
▁සංගක්කාර	-10448
▁චො	-10449
ඹලා	-10450
▁පුද්ගලයාට	-10451
▁කතාබහට	-10452
▁තොටුපොළ	-10453
▁කලින්ම	-10454
▁උත්තේ	-10455
▁හෙලිකොප්	-10456
▁දිරිමත්	-10457
දීප	-10458
▁පසුවය	-10459
▁රාමුව	-10460
▁නිර්මාතෘ	-10461
හින්	-10462
රිස්ට	-10463
▁මන්දිරයේ	-10464
ිවරයා	-10465
▁ගීතයේ	-10466
▁ඉක්මනින්ම	-10467
▁ස්කො	-10468
▁සෝදා	-10469
▁වැඩබලන	-10470
▁අවස්ථාවකදී	-10471
▁මෘදුකාංගය	-10472
▁සම්මේලනයේ	-10473
▁කාමරයේ	-10474
▁දර්ශනයක්	-10475
▁ශික්ෂණ	-10476
▁මාරයා	-10477
▁පීඨයේ	-10478
▁ජීවීන්	-10479
ූත	-10480
ෝජනා	-10481
▁නාර	-10482
▁ස්කන්ධ	-10483
▁අනිකුත්	-10484
යාමට	-10485
රතිපල	-10486
▁මාර්ගයට	-10487
▁සොරා	-10488
▁සංවිධානාත්මක	-10489
▁උසාවි	-10490
▁තෙන්න	-10491
▁නොඑ	-10492
ිමිනි	-10493
ෝව	-10494
▁ගම්මානය	-10495
▁මලේ	-10496
▁බිර	-10497
▁ෆුල්	-10498
ට්ටුවට	-10499
▁පාඨලී	-10500
දැම	-10501
▁ලෙනින්	-10502
▁පවුල්වල	-10503
▁නවසීලන්ත	-10504
▁ඇඩ	-10505
▁ඩේවිඩ්	-10506
▁සරළ	-10507
▁නිපැ	-10508
▁කඩාගෙන	-10509
▁ලබාදෙන්න	-10510
▁නිරාවරණය	-10511
සන්ධ	-10512
සීන්	-10513
▁අද්ම	-10514
▁ගම්ම	-10515
▁දමන්න	-10516
▁බැක්ටී	-10517
▁ශරීරයට	-10518
▁හිතෙනව	-10519
යස්ථානයක්	-10520
▁හේම	-10521
▁තේරුනේ	-10522
රහාරක	-10523
▁නොගන්නා	-10524
රතාව	-10525
▁කඳවුර	-10526
▁මදක්	-10527
▁නුවන්	-10528
▁ඒගොල්ල	-10529
▁දේශපාලනඥයන්	-10530
ගුලා	-10531
දෙන්නට	-10532
ඩිකල්	-10533
▁පරිවර්තන	-10534
▁කුඹු	-10535
රතිරූප	-10536
▁රජමහා	-10537
▁ඵලදායී	-10538
▁මිනිසාට	-10539
▁විජේවීර	-10540
ිකාවේ	-10541
▁නිරෝ	-10542
▁බලන්නෙ	-10543
▁පසක්	-10544
▁කරවීම	-10545
▁ගැටීමෙන්	-10546
▁කියමන	-10547
▁අසීමිත	-10548
▁කුවේ	-10549
ීමකින්	-10550
▁බුද්ධිය	-10551
▁සාදරයෙන්	-10552
▁කාසි	-10553
▁ක්රීඩා	-10554
▁මෙතනට	-10555
▁සරි	-10556
▁කෙරිණ	-10557
▁හිතුව	-10558
▁ගිවිසුමට	-10559
▁අනුස්ම	-10560
▁ඒකි	-10561
▁71	-10562
▁එකනම්	-10563
කාරයෙක්	-10564
▁දෙහිවල	-10565
▁පිළිගැනීමට	-10566
▁යාළු	-10567
▁නිපදවන	-10568
▁පිවිසු	-10569
හාල්	-10570
▁තිසර	-10571
ිනු	-10572
▁ටේ	-10573
▁වරෙ	-10574
▁සුනාමි	-10575
න්ඩර්	-10576
▁වෙළෙන්	-10577
දින්නේ	-10578
▁එකින්	-10579
▁එකමුතුව	-10580
▁බලාපොරොත්තුවක්	-10581
රතිශතයක්	-10582
▁ඉනිමේ	-10583
▁කඩදා	-10584
▁ඇමරිකන්	-10585
ාවාස	-10586
කවත්	-10587
සුවක්	-10588
ංගෙ	-10589
▁පදිංචිකරුව	-10590
ඩිට්	-10591
▁තමන්ව	-10592
▁වෙන්දේ	-10593
▁2003	-10594
▁ආදරෙන්	-10595
▁තුනකින්	-10596
▁ගනිමු	-10597
▁බඳුන්	-10598
නාත්	-10599
▁ලෝකෙට	-10600
වාට	-10601
▁ඇඟේ	-10602
▁අලියා	-10603
▁සිනමාපට	-10604
▁උත්සවයකට	-10605
▁අධිකරණයෙන්	-10606
▁ගඳ	-10607
ෙන්ඩ	-10608
යාපනික	-10609
▁රසය	-10610
රතිශතය	-10611
▁මුලදී	-10612
▁ගණනක	-10613
▁නිදහසක්	-10614
කියේ	-10615
▁ඇතුළට	-10616
▁කළෙමි	-10617
▁ඉක්මණින්	-10618
රටම	-10619
▁උන්නේ	-10620
▁1994	-10621
▁දේහ	-10622
▁බිං	-10623
▁මාධ	-10624
ක්තික	-10625
▁නිළධාරීන්	-10626
▁එජාපයේ	-10627
▁තුනේ	-10628
▁මහාව	-10629
▁සමාවෙන්න	-10630
▁එක්වන	-10631
▁මර්වින්	-10632
▁තත්වයේ	-10633
▁මහාධිකරණය	-10634
25	-10635
▁අද්මිරාල්	-10636
▁ආන්ඩුවට	-10637
▁වෙන්නෙත්	-10638
▁ඊලග	-10639
▁කැලි	-10640
▁පරිස්සම්	-10641
▁පදිංචිකරුවන්	-10642
යින	-10643
▁උලෙ	-10644
▁නිර්ව	-10645
▁පොකුණ	-10646
▁දෙමු	-10647
රීඩාවේ	-10648
▁පුරවා	-10649
▁සන්ධ්	-10650
යයා	-10651
▁බුදුදහම	-10652
▁අවසරය	-10653
▁කෝවිල	-10654
▁පිළිප	-10655
යත්වය	-10656
▁යුගල	-10657
▁අනිවාර්යයෙන්	-10658
▁අවධානයෙන්	-10659
රියාකාරීත්වය	-10660
▁ඒකනායක	-10661
රැස්	-10662
▁දිනයට	-10663
▁පූජාව	-10664
▁රෙගුලා	-10665
▁ඒවායින්	-10666
▁ඇම්	-10667
▁කර්තව්	-10668
රහයක්	-10669
▁මෙලොව	-10670
▁මේවගේ	-10671
▁සංස්කෘත	-10672
▁මුහුදට	-10673
▁මගු	-10674
▁මෝස්තර	-10675
▁ලොතර	-10676
▁පැත්තක	-10677
▁විකාශනය	-10678
ජාත	-10679
▁පමනි	-10680
▁පෙට්ටි	-10681
▁භූමිකාව	-10682
▁සොහොන්	-10683
▁හැදුවේ	-10684
▁දූපත්	-10685
▁කාලයත්	-10686
▁වරායේ	-10687
▁ඔක්කෝම	-10688
▁පිදුම්	-10689
▁කොලේ	-10690
▁පාරම්ප	-10691
▁පත්වෙලා	-10692
ගයට	-10693
▁මහත	-10694
▁හීනයක්	-10695
▁නිෂ්පාදිත	-10696
ලීමට	-10697
මුත්තා	-10698
ත්වැඩියා	-10699
▁පෞද්ගලිකව	-10700
වරම	-10701
▁අල්ප	-10702
▁මාංශ	-10703
හනය	-10704
▁ඇබ්බැහි	-10705
ැව	-10706
▁සහනය	-10707
▁වරුන්	-10708
▁නාලක	-10709
▁ලොක්	-10710
▁දෙවල්	-10711
දුවට	-10712
න්දනය	-10713
ටුවට	-10714
▁නොඅ	-10715
▁සාධකයක්	-10716
▁වැඩපිළිවෙලක්	-10717
▁ගණනින්	-10718
▁ශිල්පී	-10719
▁ලැබුනු	-10720
▁සම්බන්ධීකරණ	-10721
▁120	-10722
▁දැනගත	-10723
▁රැස්ක	-10724
▁විමසූ	-10725
▁රාජධානියේ	-10726
▁කැබලි	-10727
▁බඳ	-10728
▁සූරා	-10729
▁පරිසරයක්	-10730
සස්	-10731
ංගම්	-10732
▁විශේෂාංග	-10733
ලද	-10734
▁මෙක	-10735
▁නැගලා	-10736
▁දරුවො	-10737
චික	-10738
ගාමික	-10739
▁1977	-10740
▁සුඛෝපභෝගී	-10741
▁කථිකා	-10742
▁කමින්	-10743
▁ආවේණික	-10744
▁දැමීමේ	-10745
▁රුධිරය	-10746
▁ශාස්ත	-10747
▁දන්නෙත්	-10748
▁දෙසින්	-10749
▁මහජනයා	-10750
▁වලක්වා	-10751
▁මුසු	-10752
▁හටගෙන	-10753
▁සාර්ථකත්වය	-10754
භ්	-10755
▁එතුම	-10756
ගමු	-10757
▁ඒවත්	-10758
▁විවාදය	-10759
ක්ෂන්	-10760
▁එද්දි	-10761
▁විටමින්	-10762
▁අස්ථි	-10763
▁ආකර්ෂණය	-10764
▁පත්වීමට	-10765
▁මගුල්	-10766
▁අධීක්ෂණය	-10767
▁ලන්දේ	-10768
▁සංචාරයක්	-10769
රණයේ	-10770
▁කොම්	-10771
▁තිරය	-10772
▁තේරෙන්නෙ	-10773
▁බලං	-10774
▁මුං	-10775
▁සින්දුවක්	-10776
රියාකාරිත්වය	-10777
රණිය	-10778
▁පසෙක	-10779
▁රස්තියාදු	-10780
▁සටනට	-10781
▁ගොවිප	-10782
▁මන්ඩ	-10783
▁පිළිය	-10784
ිස්ථානය	-10785
▁සිසුවා	-10786
▁රද	-10787
▁නැත්	-10788
රේණිගත	-10789
ච්ඡා	-10790
▁සද්ධ	-10791
▁සැලැස්මක්	-10792
▁විමර්ශනයක්	-10793
ඩියේ	-10794
▁ගැමුණු	-10795
යාලයෙන්	-10796
▁කොස්තාපල්	-10797
රෝල්	-10798
▁තරහා	-10799
පිලිවෙ	-10800
▁මණ්ඩලයක්	-10801
▁අහක	-10802
▁එතුමාට	-10803
▁ධාතු	-10804
▁දිනමිණ	-10805
▁සිසුවිය	-10806
▁පාරම්පරික	-10807
▁අලාභ	-10808
▁පිලිතුරු	-10809
▁අන්තර්ජාලයට	-10810
▁67	-10811
▁අගනා	-10812
▁විදිහක්	-10813
▁ගබ්	-10814
▁කස්ටිය	-10815
▁ඩවුන්ලෝඩ්	-10816
▁ගුණය	-10817
▁විශේෂත්වය	-10818
▁ඇතිනේ	-10819
▁අන්තර්ගතය	-10820
▁විටක	-10821
▁අමරදේ	-10822
▁අවැසි	-10823
▁ඔන්ලයින්	-10824
▁සිසුන්ගේ	-10825
▁යෞ	-10826
▁ගෙට	-10827
▁අවුරුද්දට	-10828
පසු	-10829
▁සංඥ	-10830
▁මහබැ	-10831
▁සතුරා	-10832
▁පෘථිවිය	-10833
ගෝල	-10834
පොත	-10835
ෙති	-10836
▁කොඩිය	-10837
▁පාඨමාල	-10838
▁එමෙන්	-10839
▁අවධියේ	-10840
▁පැකේ	-10841
▁තත්ත්වයෙන්	-10842
▁රිද	-10843
▁ඉදිරිය	-10844
▁කුසල	-10845
▁විසූ	-10846
▁ධ්	-10847
▁ගේම	-10848
හලේ	-10849
▁දිනූ	-10850
▁අස්සෙ	-10851
▁පලස්ත	-10852
▁බබ	-10853
▁ගායික	-10854
▁තුන්ව	-10855
▁වැඩපිළිවෙල	-10856
▁පිටපත	-10857
▁පණ්ඩිත	-10858
වැටි	-10859
▁පැනල	-10860
ිලිය	-10861
▁අසන	-10862
රාති	-10863
▁වසන්	-10864
▁රචනය	-10865
▁කන්ත	-10866
▁ලොකුවට	-10867
▁විරෝධයක්	-10868
කයාගේ	-10869
▁ලිහිල්	-10870
ිනා	-10871
▁මේකයි	-10872
ුවල	-10873
▁සුමිත්	-10874
▁තුවක්ක	-10875
▁මුදුන්	-10876
▁ඩීසල්	-10877
▁අන්දම	-10878
▁ස්වයංක්	-10879
▁තෝම	-10880
ධුනික	-10881
▁ඕනෙම	-10882
▁කොරන්න	-10883
▁ශෛ	-10884
▁බෝල්	-10885
▁එක්වෙ	-10886
▁සිස්ට	-10887
▁වැහි	-10888
▁ජනගහනය	-10889
▁ස්නායු	-10890
රේණියේ	-10891
▁පරිභෝජනය	-10892
▁කළින්	-10893
▁වාරයක්	-10894
▁නිත	-10895
▁එල්ලා	-10896
▁මිනිහට	-10897
▁වින්	-10898
▁පහසුකම	-10899
▁පැන්න	-10900
▁මාලාවේ	-10901
▁පුදුමාකාර	-10902
▁ලබාදෙමින්	-10903
▁සිහිව	-10904
▁අමා	-10905
▁නෞක	-10906
▁පද්ධතියට	-10907
▁මොඩ	-10908
▁ඇදලා	-10909
▁අතරමං	-10910
▁කාබන්	-10911
▁වරටත්	-10912
▁පුලුල්	-10913
▁විද්වත්	-10914
▁රියදුරන්	-10915
ාවර	-10916
▁කතාවෙන්	-10917
▁ගිගුරුම්	-10918
▁ඩිල්	-10919
▁කැණීම්	-10920
▁හැදිලා	-10921
▁ගණනාවකට	-10922
යාපාරයට	-10923
▁සමත්විය	-10924
▁වේදනාවක්	-10925
▁මෙහෙයවන	-10926
ුවේදී	-10927
▁පහුව	-10928
▁තමන්ගේම	-10929
▁දායකත්වයක්	-10930
▁වනෝද්	-10931
▁හැසිරීම්	-10932
▁පෙළක්	-10933
දුල්	-10934
මාර්ට්	-10935
▁සැලකේ	-10936
▁විලාසිතා	-10937
මුල	-10938
▁ආලේප	-10939
▁අයෙකි	-10940
▁අදහසයි	-10941
▁ආධුනික	-10942
▁වාසන	-10943
▁තක්සේරු	-10944
▁සැලසුම	-10945
රවර්	-10946
▁ගණනකට	-10947
න්සේ	-10948
▁ඇඹිල	-10949
▁රෝගයක්	-10950
▁හයියෙන්	-10951
▁නාමයෝජනා	-10952
▁යුන	-10953
▁ගානෙ	-10954
▁විධියට	-10955
සමා	-10956
▁යාලුවො	-10957
▁කරන්නෙත්	-10958
කයට	-10959
රුප	-10960
▁හාම	-10961
▁අච්ච	-10962
▁නිහත	-10963
ඡ්	-10964
▁අමානු	-10965
▁ඉරානය	-10966
▁තොරතුර	-10967
▁යුතුකම	-10968
▁තාත්තයි	-10969
▁සූදානමින්	-10970
▁සාය	-10971
▁මනුස්සය	-10972
රභේද	-10973
▁පතන	-10974
▁පපුව	-10975
▁තීරණයට	-10976
▁මලයා	-10977
▁ගැනිම	-10978
▁පොලි	-10979
▁පරිඝ	-10980
▁පිනිස	-10981
▁පුරප්පා	-10982
▁සුන්දරත්වය	-10983
▁මිථ්	-10984
▁තාක්ෂ	-10985
▁වැඩිකර	-10986
▁මත්තල	-10987
▁දේශපාලකයන්	-10988
▁කටේ	-10989
▁උත්සන්න	-10990
▁ගැළපෙන	-10991
▁උවමනාවක්	-10992
▁සංවර්ධනයට	-10993
▁අතිගරු	-10994
▁අඟල්	-10995
▁කෑවා	-10996
▁පුවරුව	-10997
▁ගුවන්විදු	-10998
▁රව	-10999
▁ඇමරිකාවට	-11000
▁ගෑනි	-11001
▁භාගයේ	-11002
▁බාල්	-11003
▁වාසියක්	-11004
සාධන	-11005
සට්	-11006
▁පෙරහර	-11007
▁පිළියෙ	-11008
පොලිස්	-11009
රාදේශිය	-11010
▁පත්කරන	-11011
කැම	-11012
වේය	-11013
▁මීත	-11014
▁නියත	-11015
▁ජනාධිපතිතුමාගේ	-11016
▁බෝල	-11017
▁වලා	-11018
▁පුපුර	-11019
▁නැටුම්	-11020
▁අනුයුක්ත	-11021
▁කාමරයට	-11022
▁නිහඬව	-11023
ඩියට	-11024
▁එකෙත්	-11025
▁බලද්දි	-11026
▁හෝටලයේ	-11027
▁ගියෙ	-11028
ාර්ගික	-11029
▁පල්	-11030
▁අලිය	-11031
යාංශයට	-11032
▁අපූර්	-11033
▁සහෝදරිය	-11034
▁190	-11035
▁අමනා	-11036
▁වාදනය	-11037
▁පිටියට	-11038
ර්ජන	-11039
වුණේ	-11040
▁දල්	-11041
▁අපොහො	-11042
▁ස්මාර	-11043
▁පවුලක්	-11044
▁යුක්ති	-11045
ිනියක්	-11046
තාවයන්	-11047
ිවරුන්	-11048
▁ගතයුතු	-11049
▁සංරක්ෂණය	-11050
▁ඔක්තෝම්බර්	-11051
▁සෙනඟ	-11052
▁ගිලන්	-11053
▁කුමාරයා	-11054
▁වේදිකාවේ	-11055
▁නිලධාරීහු	-11056
▁69	-11057
▁දිම	-11058
▁අනුපාත	-11059
▁තරයේ	-11060
▁යේසුස්	-11061
▁පින්තුර	-11062
රයේදී	-11063
▁ඉරිස	-11064
▁තියෙයි	-11065
▁කලාම	-11066
ගෙනුත්	-11067
▁නොගැල	-11068
▁සිදුවෙනවා	-11069
▁ටැබ්	-11070
▁දික්ක	-11071
▁අයිතික	-11072
▁ඉතිහාසයක්	-11073
▁නිලධාරියකු	-11074
▁දන්ව	-11075
▁ලිවීමට	-11076
▁වසරෙ	-11077
▁ඇලෝසියස්	-11078
▁ලයින්	-11079
▁ජාවාරම	-11080
▁අමුත්තා	-11081
▁දෙස්	-11082
▁රෝගා	-11083
▁එකක්ද	-11084
▁විකිණීම	-11085
▁ඉන්දියාවෙන්	-11086
රුවන්ගේ	-11087
රසාද්	-11088
▁නායකත්ව	-11089
▁සිරියාවේ	-11090
▁කපලා	-11091
▁බියර්	-11092
ෝෂිත	-11093
▁සනී	-11094
▁නායකයෙකු	-11095
▁යුවළ	-11096
▁හිටියොත්	-11097
ඟා	-11098
රෙස්	-11099
▁එකිනෙකාට	-11100
▁කිරණ	-11101
▁නරඹන්න	-11102
රිසි	-11103
යානයේ	-11104
▁කර්මාන්තයේ	-11105
▁නොසැ	-11106
▁සත්කාරක	-11107
▁ඇසුරින්	-11108
▁මසකට	-11109
▁නොකී	-11110
▁විලියම්	-11111
▁දුන්නොත්	-11112
▁ඉගන	-11113
▁ෆු	-11114
▁ලියු	-11115
▁ක්ෂණික	-11116
▁සැකසීම	-11117
▁ධනංජ	-11118
▁දරුවකු	-11119
▁ඉල්ලමින්	-11120
ැතියි	-11121
▁දඩයම්	-11122
▁දේකට	-11123
▁මහේල	-11124
▁අලින්	-11125
▁පුහුණුවක්	-11126
▁සංඛ	-11127
▁කලාවට	-11128
▁උන්නැහේ	-11129
13	-11130
කප්ප	-11131
▁කරත්	-11132
▁විශේෂත්වයකි	-11133
▁තරණය	-11134
▁කරගන්නවා	-11135
▁63	-11136
ස්ගේ	-11137
▁වහන්	-11138
▁ලගට	-11139
▁මරන්න	-11140
භාග්	-11141
ිපිට	-11142
▁සිංගප්පූරු	-11143
▁හඳුන්වන්නේ	-11144
▁රූගත	-11145
▁වූයේය	-11146
▁ලක්ෂයක්	-11147
▁සංසිද්ධ	-11148
▁කියන්නත්	-11149
ංගොඩ	-11150
ිල්ලක්	-11151
▁විකිර	-11152
▁දිස	-11153
▁ඉලක්කයක්	-11154
ණයේ	-11155
▁ගුණාංග	-11156
▁ස්වාමි	-11157
▁දෙදෙනාට	-11158
▁බන්ධනාගාරයේ	-11159
▁ශෝ	-11160
▁මුලා	-11161
▁කතාවෙ	-11162
▁පණිවුඩයක්	-11163
යවර	-11164
▁ඇන්ද	-11165
▁හඬින්	-11166
පස්	-11167
ෙට්	-11168
▁වලක්	-11169
▁වොෂ	-11170
▁ආයතනයක	-11171
යස	-11172
රිපූ	-11173
▁කටාර්	-11174
▁පසුබිම්	-11175
▁රුපියල	-11176
▁ඉවහල්	-11177
▁කාශ්	-11178
▁පරිපූර්ණ	-11179
▁අගවිනිසුරු	-11180
▁භව	-11181
රමිතිය	-11182
▁අම්මෝ	-11183
▁පාක්	-11184
▁වසරට	-11185
▁නිෂ්පාදක	-11186
▁පිරිසකගේ	-11187
▁උබට	-11188
▁ටැංකි	-11189
▁අපරාදේ	-11190
▁කාර්යභාරය	-11191
▁සිදුකිරීම	-11192
16	-11193
න්තුවේ	-11194
▁එකද	-11195
▁අසලට	-11196
▁දිළි	-11197
▁දුන්නට	-11198
▁පාඩුව	-11199
▁පටල	-11200
▁කොඩි	-11201
▁අනුශා	-11202
▁බිහික	-11203
▁කෙරුනු	-11204
▁වෙඩ	-11205
▁සිරිම	-11206
▁ලක්වන	-11207
▁බාගයක්	-11208
▁බෙදුම්වාදී	-11209
▁උපත්	-11210
රේට	-11211
හේන	-11212
▁අවතී	-11213
රමරත්න	-11214
▁නිහඩ	-11215
▁දේශයේ	-11216
ජනීය	-11217
▁මටම	-11218
▁චාමර	-11219
▁සඟරාව	-11220
▁සිසුවියන්	-11221
▁යැවූ	-11222
ටාචාර	-11223
▁රාවණ	-11224
▁දෙකටම	-11225
▁පන්සල	-11226
▁කරාවි	-11227
▁වුවමනා	-11228
▁ස්මාර්ට්	-11229
▁වැටෙන්න	-11230
ලිස	-11231
ණුම්	-11232
▁එකඟයි	-11233
▁අපරාධයක්	-11234
න්ජ්	-11235
▁රඳා	-11236
▁සාකච්චා	-11237
▁අදයි	-11238
කප්පල්	-11239
▁කොමෙන්	-11240
▁හිමිවිය	-11241
▁ආධ්	-11242
▁අනුබල	-11243
▁දැනෙන්න	-11244
▁78	-11245
රංශය	-11246
▁රත්ම	-11247
▁පෙරලා	-11248
▁අසාධාරණයක්	-11249
▁ගම්මානයේ	-11250
▁අනුකම්ප	-11251
▁බොලිවුඩ්	-11252
රාජා	-11253
රුවෙක්	-11254
▁වැඩෙන	-11255
▁යාලුවෝ	-11256
ෙකින්	-11257
රමබාහු	-11258
▁දුන්නු	-11259
▁සුවපත්	-11260
▁මාරාන්තික	-11261
▁කඩුවෙල	-11262
▁කියවෙන	-11263
▁මිහින්	-11264
▁වොෂින්ට	-11265
▁බංග්ලාදේශය	-11266
▁පිළිස	-11267
▁උත්සවයේ	-11268
▁සාවද්	-11269
රථමයෙන්	-11270
▁වරම්	-11271
▁බෙදීම	-11272
▁පියාසර	-11273
▁ආසාව	-11274
▁පැහැදිලියි	-11275
කක්	-11276
දයක්	-11277
▁පණිවිඩය	-11278
▁සම්බාධක	-11279
▁අභියෝගයට	-11280
▁අංගයක්	-11281
▁ගොඩනැගීම	-11282
▁මියන්මාර	-11283
▁සිල්ල	-11284
▁ටියුෂන්	-11285
රවේශය	-11286
▁වාම	-11287
▁පතිරණ	-11288
▁එකනේ	-11289
▁පරාස	-11290
▁මෙක්සික	-11291
▁පල්ලිය	-11292
▁සෙවීමට	-11293
▁වටිනාකම්	-11294
▁සංස්කෘතියක්	-11295
▁මංජු	-11296
▁දෙගුණ	-11297
▁සාකච්ඡාවකට	-11298
▁වෙන්නැති	-11299
ජීවි	-11300
▁රොබෝ	-11301
▁අපේක්ෂාව	-11302
▁ආකාරයකට	-11303
▁විපර්යාස	-11304
▁කමෙන්	-11305
▁හැරිලා	-11306
▁හිරිහැර	-11307
▁ආන්ඩු	-11308
▁ධීවරයින්	-11309
▁බයිට්	-11310
▁සිරිසේනගේ	-11311
▁හිති	-11312
▁ඇවිදින	-11313
තලා	-11314
රුවෙන්	-11315
▁හිතකර	-11316
▁තෙන්නකෝන්	-11317
▁සපුර	-11318
▁කල්හි	-11319
නවට	-11320
▁පදක්කම	-11321
▁කඩාකප්පල්	-11322
▁බුව	-11323
▁උන්ගෙ	-11324
▁ඉතාලියේ	-11325
▁මාස්ටර්	-11326
▁පිටුවේ	-11327
▁තරඟාවලිය	-11328
▁වැඩිමහල්	-11329
වියට	-11330
▁නළුවා	-11331
▁පිහින	-11332
▁තරුණියක්	-11333
▁අමුද්	-11334
▁වජ	-11335
▁වෛරය	-11336
▁අමරදේව	-11337
▁දේශසීම	-11338
▁ගොවිතැන	-11339
යකො	-11340
රාස	-11341
▁කිලිනොච්චි	-11342
▁මීතොට	-11343
▁රග	-11344
වැල්	-11345
▁භාවනාව	-11346
▁ඔක්කොටම	-11347
▁ආසම	-11348
▁අවකාශයේ	-11349
▁දෙපස	-11350
▁අපා	-11351
▁කපිල	-11352
▁ගහක්	-11353
▁ඇතුන්	-11354
▁හඳුනාගත	-11355
▁කථිකාචාර්ය	-11356
▁යක්	-11357
▁වැඩපිලිවෙ	-11358
ගමුවේ	-11359
▁පැවතීම	-11360
▁ශිෂ්ටාචාර	-11361
▁ජයතිලක	-11362
▁අස්ථාවර	-11363
▁අවුරුද්දකට	-11364
▁ගතකර	-11365
▁බිබ	-11366
▁ගාල්ලේ	-11367
▁පරපුරේ	-11368
▁මහන	-11369
▁ජෝර්ජ්	-11370
▁උන්වහන්සේගේ	-11371
▁තෝමස්	-11372
▁තමුසෙ	-11373
ටොප්	-11374
▁උයන	-11375
▁බලපන්	-11376
▁රූපවාහිනි	-11377
▁උප්ප	-11378
▁පුරෝග	-11379
▁ගුප්ත	-11380
▁සිහින්	-11381
ෆො	-11382
▁පයි	-11383
▁තන්ත්	-11384
▁කාර්යබ	-11385
▁සම්පාද	-11386
යාධිකාරී	-11387
ිනිශ්ච	-11388
▁එයාලගේ	-11389
▁මුම්බා	-11390
▁වරම	-11391
▁ටින්	-11392
▁ගුණයක්	-11393
ශාලා	-11394
වැනිදා	-11395
▁මමනම්	-11396
▁වචනයෙන්	-11397
▁මාලිග	-11398
▁කොටගෙන	-11399
▁වීදි	-11400
රීඩිකාවන්	-11401
▁කොට්ඨාසයේ	-11402
▁කරුනු	-11403
▁නාලිකාව	-11404
▁පහක	-11405
▁ආකර්ෂණ	-11406
▁කියන්නද	-11407
▁මැරිලා	-11408
▁අවුරුද්දෙ	-11409
ඥාන	-11410
▁අයයි	-11411
▁සාකච්ඡාවේදී	-11412
පිර	-11413
▁වීඩියෝවක්	-11414
▁83	-11415
▁සංවත්සරය	-11416
▁තරම්ම	-11417
▁නැවති	-11418
▁අනාගතයක්	-11419
▁දුන්හ	-11420
▁දායාද	-11421
▁ලෝකයක්	-11422
▁ආර්ථිකයට	-11423
▁අනාථ	-11424
රදේශයක	-11425
▁පවතියි	-11426
▁නිපුණ	-11427
▁විකුන	-11428
රේක්	-11429
ාන්ත	-11430
▁කාරයා	-11431
ාණ	-11432
තාවන්	-11433
▁මුදාහැර	-11434
▁තිත්ත	-11435
▁යුත්ත	-11436
▁සැරිස	-11437
රික්කවල	-11438
▁නර්තන	-11439
▁එතුමන්	-11440
මො	-11441
▁ගන්ඩ	-11442
▁පිටුවහල්	-11443
▁පුලුවන්නම්	-11444
▁අනුගාමික	-11445
▁මහජනතාවට	-11446
රැක්	-11447
ගාන	-11448
ගන්ට	-11449
▁ඇරඹු	-11450
▁ස්වී	-11451
▁කරගැනීමේ	-11452
▁තරගාවලියේදී	-11453
▁පාඨක	-11454
▁සෙවන	-11455
▁ඉතාලි	-11456
තො	-11457
▁හඬක්	-11458
▁අකුණු	-11459
▁තෝරාගෙන	-11460
▁ගිලී	-11461
▁දැනගැනීමට	-11462
▁හතරකට	-11463
ශු	-11464
▁මේවට	-11465
▁කෙල්ලට	-11466
▁දෙවියන්ට	-11467
▁සංකල්පයක්	-11468
▁සැළසුම්	-11469
▁නිපදව	-11470
▁විසදුම්	-11471
▁බොරැල්ල	-11472
▁නීතියෙන්	-11473
▁උං	-11474
නියාවේ	-11475
▁සිතන්නට	-11476
▁සිනමාවට	-11477
▁ලිංගිකත්වය	-11478
යාපනයක්	-11479
▁නැන්දා	-11480
▁වව්නියාව	-11481
▁ගමු	-11482
▁ඉල්ලූ	-11483
▁දැරියගේ	-11484
▁ගෝලය	-11485
▁යාලු	-11486
▁ඡුන්ද	-11487
▁කාර්යාංශය	-11488
ැනිම	-11489
▁කෙළේ	-11490
ියේය	-11491
▁ඉඳලම	-11492
▁සුළි	-11493
▁යථාර්	-11494
▁සුද්දා	-11495
▁මන්දිරය	-11496
නයි	-11497
▁අරුත	-11498
▁ඇසුව	-11499
▁පැයක්	-11500
▁බිත්ත	-11501
▁අල්ලාහ්	-11502
▁පිළිගන්නවා	-11503
▁ශූ	-11504
ිපාට	-11505
▁පදය	-11506
▁3000	-11507
▁දවසකින්	-11508
▁පෙනෙනවා	-11509
▁සිටියෙමි	-11510
▁කෙමෙන්	-11511
▁සිදුවු	-11512
යස්ථ	-11513
▁ඔබලා	-11514
▁පිරිප	-11515
▁සැරයන්	-11516
කූල	-11517
යන්ති	-11518
▁ඇහෙන	-11519
▁ඉල්ලනවා	-11520
▁තංගල්ල	-11521
▁හාමුදුරුවන්	-11522
▁දෙවියන්ගේ	-11523
ශ්වය	-11524
▁පුපු	-11525
▁මසුන්	-11526
▁තමුන්ගේ	-11527
▁මලික්	-11528
▁පිටපතක්	-11529
යකුගේ	-11530
▁විවෘතව	-11531
ණියට	-11532
▁මෛතී	-11533
▁දෘෂ්ටි	-11534
▁දිවෙන	-11535
▁ගැවස	-11536
▁විදිහේ	-11537
▁2500	-11538
▁සිස්ටම්	-11539
පාතී	-11540
▁ආච්ච	-11541
▁පක්ෂව	-11542
▁තියන්නේ	-11543
බින්	-11544
කාන්ත	-11545
▁ඝාතක	-11546
▁දහමට	-11547
▁පෝස්ටර්	-11548
ියයි	-11549
▁ගෑන	-11550
▁සැඟවී	-11551
▁හඳුන්වනු	-11552
හං	-11553
හනක්	-11554
▁එනකම්	-11555
▁ලංකන්	-11556
▁සබද	-11557
▁උපන්ද	-11558
▁අනුපාතය	-11559
රන්ථය	-11560
▁හැරු	-11561
▁හැරිය	-11562
▁247	-11563
▁අතක්	-11564
▁සැපයීමට	-11565
▁ඉස්සෙල්ලම	-11566
ගෙත්	-11567
▁පලක්	-11568
▁හුදෙ	-11569
▁ඔට්ටු	-11570
▁කෙරුණි	-11571
▁නාසා	-11572
ිපාණන්	-11573
ෑරුම්	-11574
ිසුණු	-11575
▁වේලා	-11576
▁සාමූහික	-11577
▁මිරි	-11578
▁බයිසිකල්	-11579
▁සාකච්ඡාවකදී	-11580
▁අසලින්	-11581
▁මුහුණේ	-11582
▁නාට	-11583
▁නොඉ	-11584
▁හොඳේ	-11585
කාරයන්	-11586
ඩබ්ලිව්	-11587
▁ඇසුරෙන්	-11588
▁එතු	-11589
▁පළතුරු	-11590
▁ආරක්ෂණ	-11591
▁අනුභව	-11592
▁අඳින්න	-11593
▁තිත	-11594
▁සංහාර	-11595
▁දැනුනේ	-11596
▁පාර්ශවය	-11597
▁විපාක	-11598
▁රාජසිංහ	-11599
▁ඇල්බ	-11600
▁චරිතයට	-11601
ංගුවේ	-11602
▁නගරයක්	-11603
ාරම්	-11604
▁ඇක්	-11605
▁පෝය	-11606
▁අංශු	-11607
▁ලක්විය	-11608
▁එනු	-11609
උත්තර	-11610
▁බෙදාහැර	-11611
▁හැකිනම්	-11612
▁ගය	-11613
භාරයක්	-11614
වම්	-11615
ිඹු	-11616
▁ඉඩමක්	-11617
▁උපේ	-11618
▁රුප	-11619
යකර්ම	-11620
▁කොතන	-11621
▁දුවන්න	-11622
▁සම්භ	-11623
▁තනිවම	-11624
▁කිවුව	-11625
▁සුගත	-11626
▁පියතුමා	-11627
පිටියේ	-11628
රදර්ශන	-11629
▁විතාන	-11630
▁ධවල	-11631
වාසීන්	-11632
ෂනය	-11633
රෙඩ්	-11634
▁සහජීව	-11635
▁කතාවත්	-11636
රීසියෙන්	-11637
වාසී	-11638
▁බලද්දී	-11639
▁අමානුෂික	-11640
▁ගෝල්	-11641
▁දැනුන	-11642
▁සමාරම්භක	-11643
සේවා	-11644
තුවක්	-11645
▁සෝදිසි	-11646
▁වූවත්	-11647
▁වැසිකි	-11648
කිනි	-11649
ිපති	-11650
▁රවට	-11651
▁සිදුවුණා	-11652
රියස්	-11653
▁කියෝ	-11654
▁මියුසික්	-11655
දොර	-11656
▁චමින්ද	-11657
පණය	-11658
▁සාධකය	-11659
▁උමා	-11660
▁කිසිවිට	-11661
එෆ්	-11662
රපටයට	-11663
▁ඉටුව	-11664
▁ජාතියට	-11665
▁දමන්නට	-11666
මර්	-11667
▁දේවල	-11668
▁බම්බ	-11669
රායෝගිකව	-11670
▁73	-11671
▁ඉඳන්ම	-11672
▁හෘදයා	-11673
▁ඉල්ලුම	-11674
කොම	-11675
▁ගැමි	-11676
▁සහන්	-11677
▁මහිය	-11678
ිස්ටර්	-11679
▁පුක	-11680
▁නෛතික	-11681
▁මුම්බායි	-11682
▁කට්ටියක්	-11683
සියම්	-11684
▁සමිත	-11685
▁තාප්ප	-11686
▁තිරසාර	-11687
දුවක්	-11688
▁කටට	-11689
▁කපන	-11690
▁සමානව	-11691
▁ඩයස්පෝ	-11692
▁පැවසුවේය	-11693
▁කිරීමද	-11694
▁පරම්පරා	-11695
▁විනාශයට	-11696
▁ජැ	-11697
ියාවට	-11698
▁දෙයින්	-11699
▁ලැප්ටොප්	-11700
▁රෙජිමේන්තු	-11701
▁පසුබ	-11702
▁ඔහෙ	-11703
▁සෑහ	-11704
▁ධනාත්මක	-11705
ීතර	-11706
▁ආගමක්	-11707
ගත්තෙ	-11708
යාඥයින්	-11709
▁ඉස්කෝල	-11710
▁කලක	-11711
▁සාරා	-11712
රමි	-11713
▁එවක	-11714
▁උඹත්	-11715
▁දහමේ	-11716
▁මිදී	-11717
▁ඩිලාන්	-11718
▁ඇව	-11719
▁මැදපෙ	-11720
▁එක්කෙනා	-11721
▁තරුණයෙක්	-11722
▁මවට	-11723
▁නොවෙන්න	-11724
▁රිෂා	-11725
▁කටින්	-11726
▁අදහසට	-11727
▁අපේක්ෂිත	-11728
▁මූලස්ථාන	-11729
ජට්	-11730
යේ	-11731
ුවාට	-11732
▁ගතව	-11733
▁උදුරා	-11734
▁තිළිණ	-11735
▁නිහාල්	-11736
▁මව්බිම	-11737
▁හදිසියේම	-11738
▁රථයකින්	-11739
▁මුරු	-11740
▁කැමතිම	-11741
▁සෙනග	-11742
▁තිරසර	-11743
▁මතකයට	-11744
▁තැබීමේ	-11745
▁හිටගෙන	-11746
▁සාධාරණය	-11747
▁කාන්තාවන්ගේ	-11748
▁චාරිකාව	-11749
▁ඡායාරූපයක්	-11750
▁සුරේ	-11751
යක්ෂවරයා	-11752
▁ඉහලට	-11753
▁ඇතිවෙන	-11754
▁තබමින්	-11755
▁මහියංග	-11756
▁පැවැත්වෙනවා	-11757
▁සොයන	-11758
▁ගණිකා	-11759
▁විගණන	-11760
▁දුටුවේ	-11761
▁අයුර	-11762
▁සියඹලා	-11763
▁ලෙඩේ	-11764
▁සමාන්තර	-11765
▁ටොර	-11766
▁රචිත	-11767
න්ටම	-11768
▁භංග	-11769
▁තිලකර	-11770
▁ස්වරූපය	-11771
▁හැඳින්විය	-11772
▁අමි	-11773
▁වාදය	-11774
▁කරුම	-11775
▁පංතියේ	-11776
▁සංඝරත්නය	-11777
▁ගාමිණි	-11778
▁දියවැඩියාව	-11779
▁අනුබද්ධ	-11780
▁ආශ්ච	-11781
▁නොගිය	-11782
▁රහසිගත	-11783
▁පර්වත	-11784
▁පෙරමුණට	-11785
ශේ	-11786
▁කප්පම්	-11787
▁මහන්ස	-11788
▁කොන්ක්	-11789
▁මෙවලම්	-11790
▁ලින	-11791
▁නපුරු	-11792
▁දෙයක්ද	-11793
▁එවු	-11794
▁පවුලක	-11795
රාල	-11796
▁සැකය	-11797
රීඩාංගණයේ	-11798
▁රාහු	-11799
▁ටෙන්ඩර්	-11800
දක්ෂ	-11801
▁දේවි	-11802
සාධක	-11803
▁පතිත	-11804
▁ශෙ	-11805
▁ලේසියෙන්	-11806
යාගය	-11807
▁යන්ඩ	-11808
▁සළකා	-11809
යාවෙන්	-11810
▁කිව්වලු	-11811
▁පොට	-11812
▁ශේෂ	-11813
▁කාබනික	-11814
▁ඔනේ	-11815
▁බලසේ	-11816
▁දොරටු	-11817
▁පාස්කු	-11818
▁සාන්ත	-11819
▁ස්තූතිය	-11820
ස්ටින්	-11821
▁මකා	-11822
▁උචිත	-11823
▁ජනාවාස	-11824
▁අනුකූලව	-11825
▁නැතික	-11826
▁රෝගයට	-11827
රශ්නයකට	-11828
▁පිළිවෙළ	-11829
▁ගැසූ	-11830
▁බණ්ඩාරවෙල	-11831
▁සහභාගීත්වයෙන්	-11832
▁චින්තන	-11833
▁මුන්ට	-11834
▁වෙන්ව	-11835
▁ඉදිරිපස	-11836
තාර	-11837
බුදු	-11838
ලාගෙන	-11839
▁ඔක්සි	-11840
▁මෘත	-11841
▁කැක්කු	-11842
▁සංයුක්ත	-11843
▁ඉෂ්ට	-11844
▁පෞරු	-11845
▁හැසිරෙන	-11846
▁ඡායාරූපය	-11847
▁නියාමන	-11848
▁බහින්න	-11849
▁අරගලයක්	-11850
යුරු	-11851
▁මෙයාල	-11852
▁ලිව්ව	-11853
▁මැදිහත්වීම	-11854
▁රාත	-11855
කිරීමෙන්	-11856
▁අර්බුදයක්	-11857
▁කරවන්න	-11858
▁නින්දට	-11859
▁පිතිකරු	-11860
ෝජ්	-11861
▁කථානායකවරයා	-11862
ිසෝ	-11863
▁මුහුණට	-11864
▁සංචාරකයන්	-11865
▁ඇදහ	-11866
▁නාවල	-11867
▁දෙපාරක්	-11868
▁තත්වයකට	-11869
වීමයි	-11870
▁සටනේ	-11871
▁ඇන්ටි	-11872
▁කියවීමට	-11873
▁බියෙන්	-11874
▁සුමතිපාල	-11875
යිනේ	-11876
ලීන්	-11877
▁ඇරැ	-11878
▁ඇත්තෙ	-11879
▁කොහෙන්ද	-11880
▁වැසී	-11881
▁අරමුදලේ	-11882
▁එකතුවක්	-11883
▁ජයකො	-11884
▁ආත්මය	-11885
▁හ්ම්ම්	-11886
▁ගේමක්	-11887
▁ලක්වී	-11888
▁උපාධියක්	-11889
▁ඡන්දයෙන්	-11890
▁ලඟා	-11891
▁සංයෝග	-11892
▁ආයතනවලට	-11893
▁සෙවණ	-11894
ෆෝන්	-11895
▁පිළිබඳවත්	-11896
හරින	-11897
▁හවසට	-11898
▁විනාස	-11899
▁ඉදිරියටත්	-11900
රවු	-11901
▁නිදාගන්න	-11902
0000	-11903
▁සැරසී	-11904
මහ	-11905
▁හලාල්	-11906
▁සිප	-11907
▁නිර්ණය	-11908
▁බියක්	-11909
▁මෙබඳු	-11910
▁දැනගත්	-11911
▁ඇමත	-11912
▁බඩගි	-11913
▁ලෙඩක්	-11914
▁ඩොක්ටර්	-11915
ධාරනය	-11916
▁ජාතක	-11917
▁ආසාවක්	-11918
▁පෙත්සමක්	-11919
ෝට්	-11920
ස්වා	-11921
රියම	-11922
▁1960	-11923
▁කථාවක්	-11924
▁සිහිනයක්	-11925
▁උතු	-11926
යයකි	-11927
▁පනතට	-11928
▁පරිප්පු	-11929
▁මාවත්	-11930
හකට	-11931
රහලෝක	-11932
▁වර්ජන	-11933
▁විශේෂයක්	-11934
▁බැණ	-11935
▁එකහමාර	-11936
▁සිතන්න	-11937
▁94	-11938
▁ලද්ද	-11939
▁ස්ටැ	-11940
▁සීමාවන්	-11941
රිත්	-11942
▁දෙදින	-11943
ොස්තර	-11944
විට්	-11945
▁ඇමතික	-11946
රස්තවාද	-11947
ෂෙ	-11948
▁උද්ඝෝෂණය	-11949
▁නායකත්වයට	-11950
දියාව	-11951
▁අදින	-11952
▁රැස	-11953
ණයෙන්	-11954
▁පාපැ	-11955
▁අම්මගේ	-11956
▁ළිඳ	-11957
▁පමා	-11958
▁නැංවීමට	-11959
▁ජනාධිපතිවරණයේදී	-11960
▁කුනු	-11961
▁සිතනවා	-11962
▁තැන්පතු	-11963
11	-11964
▁සෙබළුන්	-11965
▁ගහන්නේ	-11966
▁රැකවරණය	-11967
▁වැළැක්වීමට	-11968
▁අවන	-11969
ශන්	-11970
ලේඛන	-11971
▁ආර්ථිකයේ	-11972
▁තේරුණා	-11973
▁නිපදවා	-11974
▁එබ	-11975
ලාම්	-11976
ට්ටක්	-11977
▁බැලු	-11978
ුවෙල්	-11979
▁කමල්	-11980
▁නැග්	-11981
▁සිංගප්පූරුව	-11982
▁හොල	-11983
▁ඒකනේ	-11984
▁සදහ	-11985
▁සිඳ	-11986
▁ආර්ය	-11987
▁සරා	-11988
ලිලා	-11989
▁ටෝක්	-11990
▁ක්ෂුද්	-11991
▁සඳහාත්	-11992
කයො	-11993
▁ෂේ	-11994
ෑමෙන්	-11995
▁අම්බලන්	-11996
න්ඩි	-11997
▁විජේදාස	-11998
▁කට්	-11999
නායකට	-12000
රියාවලියක්	-12001
ාවලි	-12002
▁කුට	-12003
▁නිවැරැදි	-12004
ලෝපා	-12005
▁බිඳී	-12006
▁පිටිය	-12007
ංගා	-12008
▁කැරලික	-12009
▁කැඳවුම්කරු	-12010
▁වම	-12011
▁එද්දී	-12012
▁සවිකර	-12013
▁ජයකොඩි	-12014
▁සුළුතර	-12015
▁උඹව	-12016
▁නොයන	-12017
▁මැදි	-12018
▁හවස්	-12019
▁අපොයි	-12020
▁ඉහතදී	-12021
රෝන	-12022
▁විදින	-12023
▁මගේම	-12024
▁උත්සු	-12025
▁කෑමක්	-12026
▁කරවීමට	-12027
▁දීමක්	-12028
▁නිවසේදී	-12029
▁වර්ධන	-12030
▁අරින්න	-12031
රිවරයා	-12032
▁පිටසක්	-12033
▁විධිවි	-12034
▁අනාගතයේදී	-12035
▁හංස	-12036
▁සමාජගත	-12037
▁මහත්මියගේ	-12038
▁ලසිත්	-12039
කලේ	-12040
▁ඉදිකළ	-12041
▁බුද්ධිමය	-12042
▁සිතිවිලි	-12043
▁යතුරුපැදි	-12044
▁පොන්න	-12045
▁හැරෙන	-12046
▁ගොඩක්ම	-12047
රිපිට	-12048
▁මැඩම්	-12049
▁පාලනයේ	-12050
▁ලියන්නම්	-12051
▁රහසේ	-12052
▁ඉදිකරන	-12053
▁හිමිවන	-12054
▁දෘශ්	-12055
▁1987	-12056
▁හැඩය	-12057
රම්ප්ගේ	-12058
▁මිනීමැ	-12059
කුව	-12060
▁හෂ	-12061
▁ඇසින්	-12062
කිරීමක්	-12063
▁තියෙද්දි	-12064
▁මෙහෙට	-12065
▁ඉක්මනටම	-12066
▁හැමෝගෙම	-12067
▁ලාභය	-12068
▁පාසලක	-12069
කියා	-12070
▁දන්ත	-12071
▁සටනක්	-12072
▁ලේසියි	-12073
▁කම්කරුවන්ට	-12074
රෝහ	-12075
පැතුම්	-12076
▁ධනංජය	-12077
▁නාද	-12078
කරනවා	-12079
▁කුරිර	-12080
▁සාපේක්	-12081
▁දුම්රියේ	-12082
දාමය	-12083
▁ලක්ක	-12084
▁අහන්නෙ	-12085
▁දුවගෙන	-12086
▁යන්ට	-12087
▁කොමසාරිස්වරයා	-12088
▁දහස	-12089
රසංගය	-12090
▁නැගීම	-12091
▁1978	-12092
▁කරාට	-12093
▁තුළම	-12094
▁හුස්	-12095
▁වාර්ථා	-12096
▁තීන්ත	-12097
▁උවමනාව	-12098
▁කාන්තාවගේ	-12099
රුන්ගේ	-12100
▁ඇඳුමක්	-12101
▁පත්කිරීමට	-12102
මිත	-12103
▁යස	-12104
▁මාලිගාව	-12105
▁තියෙන්නෙත්	-12106
▁නොවුනත්	-12107
▁මහත්තයට	-12108
▁ගෙනය	-12109
▁අංශයෙන්	-12110
▁වැඩිවීම	-12111
▁ආන	-12112
පත්ව	-12113
ස්සට	-12114
▁ධම්මික	-12115
රකා	-12116
▁ඇතිද	-12117
▁නුවරට	-12118
▁ඉතාමත්ම	-12119
▁මියග	-12120
▁සයිස්	-12121
▁පුද්ගලිකව	-12122
▁තඹ	-12123
▁අක්ෂර	-12124
▁ස්ථානයෙන්	-12125
▁අතකට	-12126
▁විෂ්	-12127
ත්වයන්	-12128
▁මැදිරි	-12129
▁හිතින්	-12130
▁පෙනුමක්	-12131
▁රෙගුලාසි	-12132
▁වර්ථ	-12133
▁ඇන්ජලෝ	-12134
▁පුස්	-12135
මන්ති	-12136
▁ගිලිහ	-12137
▁හැකිවේ	-12138
▁මේකා	-12139
යවරුන්ගේ	-12140
ේම	-12141
▁74	-12142
▁හන්	-12143
▁ඉසව්	-12144
▁හදවතින්ම	-12145
ෝත්	-12146
▁බත්තරමුල්ල	-12147
▁සිදුවෙමින්	-12148
රැන්සිස්	-12149
▁ගතහොත්	-12150
▁ලැයිස්තු	-12151
▁හතුරු	-12152
▁නගන	-12153
▁නොතිබු	-12154
▁නොතිබූ	-12155
▁තරුණයෙකු	-12156
▁නිරු	-12157
▁සම්පත	-12158
▁කොළො	-12159
▁ගැහැණිය	-12160
▁සමේ	-12161
▁දුන්නත්	-12162
▁කවුරුන්ද	-12163
▁තිලකරත්න	-12164
▁සරම	-12165
▁ඩිප්	-12166
▁හෝමෝ	-12167
▁සමාජයෙන්	-12168
▁ගඩ	-12169
▁මාලු	-12170
▁කළෙමු	-12171
කව	-12172
▁ජරා	-12173
▁දකුනු	-12174
▁තියෙනවනම්	-12175
හැටි	-12176
▁හැකිවිය	-12177
▁නිදහසට	-12178
▁සිකුරු	-12179
▁බිහිසුණු	-12180
ෆී	-12181
බුද්ධ	-12182
▁දැන්වත්	-12183
▁රෝගීන්ට	-12184
▁සේනාංකයේ	-12185
▁කරුණාතිලක	-12186
න්ටි	-12187
▁නිරුව	-12188
මූ	-12189
▁එකසිය	-12190
▁කුරුටු	-12191
▁මෙතැනින්	-12192
▁ඇවන්	-12193
▁වජිර	-12194
▁දේශනාව	-12195
▁භික්ෂුන්	-12196
▁පල්ලෙ	-12197
▁වැදගත්ය	-12198
▁විමසීමට	-12199
▁ඕන්	-12200
▁ක්ම	-12201
▁උඹලට	-12202
▁කීවෙ	-12203
වුන්ට්	-12204
▁සන්තෝ	-12205
▁අරගලයේ	-12206
▁වැරැදි	-12207
▁පොළොන්න	-12208
▁රටවලින්	-12209
▁පැමිණියේය	-12210
▁සරිලන	-12211
▁සැකපිට	-12212
▁ඉස්සරහා	-12213
▁වීමය	-12214
▁නාලිකා	-12215
ෂනල්	-12216
▁බොක්	-12217
▁වැට්	-12218
▁අම්බලන්ගොඩ	-12219
කෙක්	-12220
▁පිහිටීම	-12221
වලටත්	-12222
▁වහලා	-12223
▁දාන්නෙ	-12224
▁රිද්	-12225
▁දැකීමට	-12226
▁සියල්ලටම	-12227
▁කරනවාද	-12228
▁විග්නේ	-12229
▁සංස්කෘතියට	-12230
රහ්ම	-12231
▁නන්	-12232
▁අනූව	-12233
▁පිවි	-12234
▁රියදුර	-12235
▁ආධාරයෙන්	-12236
▁කොන්දොස්තර	-12237
▁පාබල	-12238
මිනුයි	-12239
▁දැරියන්	-12240
▁වගකීමෙන්	-12241
▁ගනින්	-12242
▁පසුතැ	-12243
▁වූවක්	-12244
▁අයියලා	-12245
▁සංචාරයේ	-12246
යවේද	-12247
රායෙ	-12248
හුරු	-12249
▁එයද	-12250
ෆේ	-12251
ගල්ල	-12252
ෙක්ස	-12253
▁මණ්ඩලීය	-12254
▁වවුනියාව	-12255
▁දමනු	-12256
▁උපදින	-12257
▁යාවි	-12258
▁ඇමැතිවරුන්	-12259
▁නියඟ	-12260
▁දේවාලය	-12261
ගයෙන්	-12262
ටුවක්	-12263
▁ලෙවල්	-12264
▁විරුද්ද	-12265
▁ආගමන	-12266
80	-12267
▁නැඟී	-12268
▁නොකෙ	-12269
▁තනිකරම	-12270
▁සම්මුති	-12271
කුඩු	-12272
▁සසර	-12273
▁ඉසුරු	-12274
කතා	-12275
▁කඩදාසි	-12276
▁සබඳතාව	-12277
ෙනිස්	-12278
▁දශකය	-12279
▁එසේනම්	-12280
▁ටියුබ්	-12281
▁අඟහරු	-12282
▁තාන්ත්	-12283
▁ආමන්ත්	-12284
▁ටිකට	-12285
▁වගේමයි	-12286
▁අඟුරු	-12287
▁තියන්	-12288
රීවරුන්ට	-12289
දුරට	-12290
▁ලමය	-12291
▁පදනම්ව	-12292
▁ගෞතම	-12293
▁රසවි	-12294
රීඩිකාව	-12295
▁ඉල්ලන්න	-12296
▁සොහොයුරා	-12297
දිත	-12298
▁නිවසින්	-12299
මතුන්	-12300
▁වකවාන	-12301
▁කල්පනාව	-12302
කීම්	-12303
▁තේමා	-12304
▁රිප	-12305
▁තැපෑ	-12306
▁පිවිසි	-12307
න්දුවෙන්	-12308
▁තමිල්නාඩු	-12309
▁රොක්	-12310
▁ගෙනාවා	-12311
▁700	-12312
▁ශාස	-12313
▁අත්වි	-12314
▁කීවාය	-12315
▁නොකරන්න	-12316
▁බෙලි	-12317
▁වයින්	-12318
▁පෙරටුගාමී	-12319
22	-12320
▁අනුන්	-12321
▁නොසිටි	-12322
ාදය	-12323
ුවෝ	-12324
▁රේස්	-12325
▁කිවහොත්	-12326
▁නෝන	-12327
▁උදාර	-12328
රතිමා	-12329
▁1983	-12330
▁පිරිලා	-12331
▁කැඳවීමට	-12332
▁පෙට්ටිය	-12333
▁විවේචනයට	-12334
කරණයට	-12335
▁ධුරයේ	-12336
▁සීමාවක්	-12337
▁සඳහාද	-12338
▁වෙමිනි	-12339
▁අමාරුව	-12340
▁පළමුවැනි	-12341
කදි	-12342
රෝහී	-12343
▁උන්ව	-12344
▁මෙට්	-12345
▁අම්මාගේ	-12346
වරට	-12347
▁හුර	-12348
▁සෘජුව	-12349
ෝ	-12350
▁බවකි	-12351
යාත්මකව	-12352
▁සමස්තයක්	-12353
▁දැණු	-12354
▁පාලි	-12355
▁ඉල්ලීමට	-12356
▁ඇමැතිවරු	-12357
▁පුද්ගලයන්ගේ	-12358
▁ගලාගෙන	-12359
රහාරයකින්	-12360
▁අජ	-12361
▁උළෙලට	-12362
▁ගනිති	-12363
▁කොතල	-12364
▁සියලුදෙනා	-12365
▁සිරිවර්ධන	-12366
▁මේසය	-12367
▁පුදුමයට	-12368
▁ගෞරවයක්	-12369
▁සීන	-12370
▁ම්ලේ	-12371
▁ගෙනාවේ	-12372
ියස	-12373
රාහක	-12374
▁හස්ත	-12375
රාම්	-12376
▁චතු	-12377
▁විෂයන්	-12378
▁හැරෙන්නට	-12379
▁ලාං	-12380
▁මොකා	-12381
▁මැදපෙරදිග	-12382
ණ්ඩුව	-12383
▁මහතාද	-12384
දහස්	-12385
රෙන්නේ	-12386
▁තිලංග	-12387
▁සෘජුවම	-12388
▁අරඹා	-12389
දීමක්	-12390
▁හොයනවා	-12391
▁යොදාගත්	-12392
▁නිහතමාන	-12393
▁අර්බුදයට	-12394
▁ගත්තද	-12395
▁සටහනේ	-12396
▁රජුට	-12397
▁මාසෙ	-12398
▁වරදට	-12399
රෑන්ඩ්	-12400
▁ෂර්ට්	-12401
▁සිමෙන්	-12402
▁පණිවුඩය	-12403
වෝ	-12404
යවරයකු	-12405
පොලේ	-12406
▁1500	-12407
▁කල්ලිය	-12408
▁සිසිල්	-12409
▁හස	-12410
ණායක	-12411
▁ඒවගේ	-12412
▁ස්ථානගත	-12413
▁අපොහොසත්	-12414
▁නිදසුනක්	-12415
▁ගෙනාව	-12416
▁සිරියාව	-12417
යයක	-12418
▁සිතූ	-12419
රැකිය	-12420
ටුවෙන්	-12421
▁ශාන්ති	-12422
රේක්ෂක	-12423
▁කපන්න	-12424
▁මොණරාගල	-12425
▁පිවිතුරු	-12426
▁එක්නැ	-12427
▁පූජනීය	-12428
රෝද	-12429
▁මූලෝපා	-12430
▁බැඳි	-12431
▁තිබ්බත්	-12432
▁යාලුවනේ	-12433
ගාල	-12434
රමිකතා	-12435
▁උණුසුම	-12436
▁ගෙනාපු	-12437
▁විහිළුවක්	-12438
ඝා	-12439
ඩන	-12440
▁ගිණි	-12441
▁ක්ලින්	-12442
▁සාප්පු	-12443
▁කමිස	-12444
▁විජේසිංහ	-12445
ඥානය	-12446
▁විරෝධි	-12447
▁වාර්තාවට	-12448
▁මානුෂ	-12449
රපටියක්	-12450
▁ෆීල්ඩ්	-12451
ෂාර	-12452
මාන්න	-12453
ෝජනයට	-12454
ෝපදේශ	-12455
▁මතයි	-12456
▁ගැසීමට	-12457
▁බලවේගය	-12458
▁හැමතැන	-12459
ුද්ගල	-12460
▁තීරයේ	-12461
▁කුරිරු	-12462
▁ශීර්	-12463
▁කොටසට	-12464
▁ඉබේම	-12465
▁යුගයක්	-12466
▁අල්විස්	-12467
▁ගනනාවක්	-12468
▁පහරදුන්	-12469
▁පරිගණකයේ	-12470
▁නිර්භ	-12471
▁සාමාජිකයෙකු	-12472
කොත්	-12473
ස්බ	-12474
▁සංච	-12475
▁අණදෙන	-12476
▁භාගයක්	-12477
▁ඉගැන්වීම්	-12478
වපු	-12479
▁රළු	-12480
▁ආපන	-12481
තුමනි	-12482
▁විජේරත්න	-12483
යුහය	-12484
▁ඇරල	-12485
▁රේග	-12486
▁ප්ලෑන්	-12487
ලගෙ	-12488
▁සඳහාය	-12489
▁ස්තුතිය	-12490
ිකරණ	-12491
▁ගින්නක්	-12492
▁කැඩී	-12493
▁යොදන	-12494
▁පීටර්	-12495
▁දීමනාව	-12496
▁පොසොන්	-12497
▁මෙල්	-12498
▁ඇත්තක්	-12499
▁නොකරන්නේ	-12500
රියාත්මකයි	-12501
▁උපකල්පනය	-12502
තෙල්	-12503
යවරිය	-12504
▁අනාර	-12505
▁පෙරළා	-12506
▁නේවාසිකා	-12507
▁පෙන්නුවා	-12508
▁අතිශයින්ම	-12509
▁වාස්	-12510
▁විකිරණ	-12511
▁සිල්ලර	-12512
ෂන	-12513
▁පරතරය	-12514
▁ඔක්සිජන්	-12515
රියාමාර්ගයක්	-12516
▁පිට්ට	-12517
▁පුරාවටම	-12518
රිණි	-12519
▁නිළි	-12520
▁පරිගන	-12521
▁උගන්වන	-12522
▁සැලසීම	-12523
ංගුව	-12524
▁අඳුන	-12525
▁නිරාකරණය	-12526
▁ඇහෙ	-12527
▁බැටරි	-12528
▁පාර්ශවයේ	-12529
ොස	-12530
රියාමාර්ගය	-12531
▁ෂා	-12532
න්දල	-12533
▁වෛර	-12534
▁කැඳවූ	-12535
▁කාලකන්න	-12536
▁උපයන	-12537
▁කකුල	-12538
▁ආදර්ශයක්	-12539
▁සජ	-12540
▁බිළි	-12541
▁පැත්තක්	-12542
ාවී	-12543
▁76	-12544
▁තරුණයින්	-12545
▁දුම්වැටි	-12546
▁පැවසු	-12547
▁හිතපු	-12548
▁දුඹුරු	-12549
▁තුන්වෙනි	-12550
▁බැතිමතුන්	-12551
▁නවත්තලා	-12552
▁ගැම	-12553
▁කැදවා	-12554
▁විශ්වයේ	-12555
▁කතිකාව	-12556
▁පුටින්	-12557
▁සම්භාව්	-12558
▁සහතිකයක්	-12559
▁කාලි	-12560
▁පිලට	-12561
▁ලීග්	-12562
▁මෙහෙන්	-12563
▁පාසා	-12564
▁මැස්ස	-12565
▁කැටයම්	-12566
▁සිංගප්පූරුවේ	-12567
දියක්	-12568
▁ආතතිය	-12569
▁දඩයක්	-12570
▁දූෂණයට	-12571
වුස්	-12572
▁ලැජ්ජා	-12573
▁සිරුරට	-12574
▁පිළිගැන්	-12575
▁නාරා	-12576
▁බිමේ	-12577
රෙහි	-12578
▁189	-12579
▁යයිද	-12580
▁ලෙහෙස	-12581
මනින්	-12582
▁හාමිනේ	-12583
▁විනිසුරුවරයා	-12584
▁ශිව	-12585
රතිරෝධ	-12586
▁ආයා	-12587
▁පනින	-12588
▁ඉම්	-12589
▁පළල	-12590
▁පසෙ	-12591
▁ඩිංග	-12592
▁අභිබ	-12593
▁කරාම	-12594
▁ශාලාවේදී	-12595
තනයට	-12596
▁පැවැත්වුණු	-12597
න්නු	-12598
▁චාන්	-12599
▁යාමේදී	-12600
▁ඉල්ලන්නේ	-12601
▁ලැබීමෙන්	-12602
කොන්	-12603
▁සහභාගිත්වයෙන්	-12604
▁පිරිනම	-12605
▁බඳින්න	-12606
▁ලක්ෂණයක්	-12607
▁සමහරුන්ට	-12608
හානි	-12609
▁කැරලි	-12610
▁පක්ෂවල	-12611
▁නිර්මාණාත්මක	-12612
▁දැමු	-12613
▁වියු	-12614
ල්ට	-12615
▁1988	-12616
▁අපේක්ෂකයන්	-12617
▁සෙමින්	-12618
▁දිස්ති	-12619
▁දනිමි	-12620
▁විභාගයේ	-12621
රීමේ	-12622
▁සාගල	-12623
▁කියන්ට	-12624
▁පිරිවැය	-12625
රොෆ	-12626
▁නිවේදන	-12627
▁දැම්මෙ	-12628
ඹුල්	-12629
▁නොවුන	-12630
▁සාක්ෂාත්	-12631
▁රස්	-12632
▁ඉවත්කර	-12633
රයෝජනයක්	-12634
▁බස්රථ	-12635
▁ලොතරැයි	-12636
චාර්	-12637
රීලනිපය	-12638
▁නඟා	-12639
▁නිකායේ	-12640
▁පරපුරට	-12641
ලාභී	-12642
සේජ්	-12643
▁ගොසිප්	-12644
▁පාසැ	-12645
▁පෙළපාල	-12646
බද්ද	-12647
යාගාර	-12648
▁අත්සන	-12649
▁පොලිසියෙන්	-12650
▁ඩිපෝ	-12651
▁දැරීමට	-12652
▁මූන	-12653
ලෙන්න	-12654
▁මොරගහ	-12655
▁සෙයින්	-12656
▁අමුණු	-12657
▁සිරුරක්	-12658
▁දුගී	-12659
▁විඩියෝ	-12660
▁භූත	-12661
රහණයට	-12662
මානවත්	-12663
▁මෙයාට	-12664
▁අනුගත	-12665
▁කියුබ	-12666
▁කඳුකර	-12667
▁නේවාසික	-12668
රද්ධ	-12669
දියෙන්	-12670
▁අපූරුවට	-12671
▁කර්මය	-12672
රියාකලා	-12673
▁චලනය	-12674
▁සභාවක්	-12675
▁යෙදුම්	-12676
▁ඩා	-12677
▁වීරතුංග	-12678
▁කිහිපදෙනෙකු	-12679
▁හොදේ	-12680
▁කෙසේදැයි	-12681
රස්ථ	-12682
▁රටා	-12683
▁විස්තරේ	-12684
රාමය	-12685
▁දසුන	-12686
ස්කෝප්	-12687
▁රංච	-12688
▁උද්ධ	-12689
▁තත්ත්වයක	-12690
▁එල්ලවී	-12691
▁බැලුවෙ	-12692
▁ෂැ	-12693
▁ජාතිකවාදී	-12694
▁නිබ	-12695
▁හැඳි	-12696
▁ආකෘති	-12697
▁මගිනි	-12698
▁කවුන්සිලය	-12699
ගෑ	-12700
▁තම්බ	-12701
▁භාරයේ	-12702
▁කරත්ත	-12703
▁මිලිම	-12704
▁අර්ථකථ	-12705
▁කාච	-12706
▁නරක්	-12707
▁මිලි	-12708
▁87	-12709
▁වමේ	-12710
▁අපුරු	-12711
▁පුවරු	-12712
▁කියාසිට	-12713
ල්පිටිය	-12714
▁සවිස්තර	-12715
▁සැකසුම්	-12716
ස්තෝ	-12717
රමේ	-12718
ස්සන	-12719
▁පවත්වමින්	-12720
දුක්	-12721
දෙනකු	-12722
▁සිද්දිය	-12723
▁අවිනිශ්ච	-12724
▁පොලොන්නරුව	-12725
ිමත්ව	-12726
▁ඉන්ජ	-12727
▁වර්ණය	-12728
▁සැකකරුවෙකු	-12729
පරි	-12730
▁හාත්	-12731
දානන්ද	-12732
▁දිහ	-12733
▁භාගය	-12734
▁හුවා	-12735
▁සේවයෙන්	-12736
▁තදබද	-12737
▁නොහිත	-12738
▁වැටුන	-12739
▁සම්පූර්	-12740
▁ස්ථීර	-12741
▁සාධනීය	-12742
▁පරිසරයේ	-12743
▁කළමනාකරු	-12744
▁කමිටුවට	-12745
▁විස්තරය	-12746
▁නිරතුරුව	-12747
▁බැඳීම	-12748
▁මතුවන	-12749
▁ගතවන	-12750
▁ඇඹිලිපිටිය	-12751
රාවෙන්	-12752
▁වැවිලි	-12753
ෝදය	-12754
▁තාප	-12755
▁දුටුගැ	-12756
▁දැක්මක්	-12757
▁හාමුදුරුවො	-12758
ගන්ඩ	-12759
▁එකපාරටම	-12760
▁සොෆ්ට්වෙ	-12761
▁ටෙලික	-12762
▁හිතෙන්න	-12763
▁ලබාගැනීමේ	-12764
▁92	-12765
▁96	-12766
රේමී	-12767
▁ළමු	-12768
▁ගින්	-12769
▁ගැන්වීම	-12770
▁මොළය	-12771
▁මැජික්	-12772
▁තබන්න	-12773
▁සිහිය	-12774
▁මොනවත්	-12775
▁විවාහක	-12776
▁අවතීර්ණ	-12777
▁ඹ	-12778
▁සලකන්නේ	-12779
▁කන්ඩායම්	-12780
▁සහායක	-12781
▁කාර්යබහුල	-12782
ත්සවය	-12783
▁හිසට	-12784
▁එළැඹෙන	-12785
ස්ලා	-12786
▁ගොඩනැගීමට	-12787
ට්ටා	-12788
▁අසභ්	-12789
▁කාණ්ඩයේ	-12790
▁එක්විය	-12791
2018	-12792
▁අවශ	-12793
▁උබේ	-12794
යයන්ට	-12795
▁මිරික	-12796
වෙලේ	-12797
▁කප්	-12798
▁ඇඟිල්ල	-12799
▁ෆේ	-12800
▁රිව	-12801
▁ඇතිවීමට	-12802
▁කොහෙත්ම	-12803
▁පුහුණුවීම්	-12804
කරණයේ	-12805
▁ගැති	-12806
▁ගැසී	-12807
▁අනතුරෙන්	-12808
▁පෙළෙන	-12809
බිති	-12810
▁කීව	-12811
ලොක්	-12812
▁ඥානය	-12813
▁ගැඹුරින්	-12814
ෙදී	-12815
▁කජු	-12816
▁අසේ	-12817
▁උදේම	-12818
▁කේන්ත	-12819
▁එජාපයට	-12820
රසිද්ධියට	-12821
▁රෝගියා	-12822
▁විස්සක්	-12823
▁180	-12824
▁පිඟ	-12825
▁ටීම්	-12826
▁දුරකථනයෙන්	-12827
▁කොතෙක්	-12828
▁ඇසි	-12829
▁දිවියට	-12830
▁ඇත්දැයි	-12831
▁රැඩිකල්	-12832
යාසය	-12833
▁විධිවිධාන	-12834
යාණ	-12835
▁මදුරු	-12836
▁විශ්වය	-12837
▁යමෙක්	-12838
▁කලාපයක්	-12839
▁ඇමෙරිකන්	-12840
රාහ්	-12841
▁යාලුවා	-12842
▁අවධාරනය	-12843
ට්ඨ	-12844
▁සේවකයන්ට	-12845
▁පාකිස්තාන	-12846
▁පිංතූ	-12847
▁අනාරක්ෂිත	-12848
▁මිලකට	-12849
▁එමනිසා	-12850
▁ගෝචර	-12851
▁පිච්ච	-12852
▁මයෙ	-12853
▁නැතිය	-12854
▁බිඳවැට	-12855
▁නම්බර්	-12856
▁සද්දයක්	-12857
ෙර	-12858
▁මැල්	-12859
▁එහෙමම	-12860
▁වැළකී	-12861
▁සමගයි	-12862
▁සැමරුම	-12863
▁බේරගන්න	-12864
▁කාසියේ	-12865
▁හයිඩ්	-12866
▁නැගිටලා	-12867
යාපාරිකයන්	-12868
▁යතුරුපැදිය	-12869
ගන්ව	-12870
▁ලඟදි	-12871
රැෆික්	-12872
▁රැල්ල	-12873
▁සංයු	-12874
▁පාරෙන්	-12875
▁ටා	-12876
යකටම	-12877
▁බහින	-12878
▁නැහැනෙ	-12879
ාවටම	-12880
තලය	-12881
රඩා	-12882
▁පැත	-12883
▁නොය	-12884
▁උපතින්	-12885
▁පෙලේ	-12886
▁පුරප්පාඩු	-12887
ෂු	-12888
▁84	-12889
▁කිමි	-12890
▁ජලයේ	-12891
▁සමගිය	-12892
▁කේන්ති	-12893
▁සුරතල්	-12894
▁කවදත්	-12895
▁අභිරහස්	-12896
▁86	-12897
▁කය	-12898
නාමය	-12899
▁පොතට	-12900
▁අදියරේ	-12901
▁බෝතලයක්	-12902
▁1971	-12903
▁වැදි	-12904
යානු	-12905
▁උරා	-12906
රීලංක	-12907
▁කිරිප	-12908
▁පස්සට	-12909
▁ශිල්පියා	-12910
▁ඇවිල	-12911
▁සවස්	-12912
▁දුප්ප	-12913
▁ලැබිණ	-12914
▁බැලීමේ	-12915
▁කාලගුණය	-12916
▁කඳුලු	-12917
▁තැනකින්	-12918
යධ	-12919
හලක්	-12920
▁පශු	-12921
▁රියදුරා	-12922
රෝට	-12923
රහයා	-12924
ට්ටම්	-12925
▁බාගන්න	-12926
▁එතැනට	-12927
▁බලගතු	-12928
▁සියවස්	-12929
▁බාලදක්ෂ	-12930
රවුන්	-12931
▁මුවා	-12932
▁මෙහාට	-12933
▁අදින්න	-12934
▁මිනිසෙකු	-12935
ත්තම්	-12936
▁අප්පච්ච	-12937
▁ඒජ	-12938
▁නොකඩ	-12939
▁ඛා	-12940
▁සමහරුන්	-12941
▁කටුක	-12942
▁කෙලි	-12943
▁අත්වැ	-12944
▁කියවන්නේ	-12945
▁පුදුමයක්	-12946
▁සිමෙන්ති	-12947
▁ජනරාල්වරයා	-12948
▁ඉට	-12949
කාධිපති	-12950
▁ලිව්වෙ	-12951
සැල්	-12952
▁බෑනේ	-12953
▁බෝනස්	-12954
▁දිළිඳු	-12955
▁ධනවාදී	-12956
▁සිදුනො	-12957
▁දත	-12958
චුවල්	-12959
▁දුකට	-12960
▁දෙමවු	-12961
▁උගතුන්	-12962
▁තාරක	-12963
▁වටයේ	-12964
▁හාමු	-12965
▁දුරකට	-12966
▁මොනතරම්	-12967
ගෙන්ම	-12968
රශ්ණය	-12969
▁සුජීව	-12970
▁නැඹුරු	-12971
▁පන්සලට	-12972
▁සාක්කි	-12973
රිපුද්ගල	-12974
▁ගෘහස්ථ	-12975
▁මාට්ටු	-12976
▁කැනඩාවේ	-12977
▁විණි	-12978
▁අතීතයට	-12979
▁කනගාටු	-12980
▁කම්පනය	-12981
▁කට්ටියම	-12982
▁වෙනු	-12983
▁දහසකට	-12984
▁අනිවාර්යෙන්	-12985
▁අඩුකර	-12986
▁මාසෙකට	-12987
▁පැමිනි	-12988
▁යනාදිය	-12989
▁අනුස්මරණ	-12990
ියො	-12991
▁කති	-12992
▁වගේද	-12993
ජෙක්ට්	-12994
▁වේදිකාවට	-12995
▁කනි	-12996
රීයව	-12997
▁ගොවිය	-12998
▁ගඟේ	-12999
▁අනවසර	-13000
▁සංජීව	-13001
▁අඩාල	-13002
▁අද්ද	-13003
▁එන්ජිම	-13004
▁කියන්ඩ	-13005
▁බුද්ධික	-13006
▁දුටුගැමුණු	-13007
▁ඇසට	-13008
▁ඔලුවට	-13009
කෙස්	-13010
▁දාව	-13011
▁1948	-13012
▁එක්වරම	-13013
රවීන	-13014
▁යුෂ	-13015
▁සැළක	-13016
දියු	-13017
ම්බු	-13018
▁කතුවරයා	-13019
▁වගකිවයුතු	-13020
▁ප්රධාන	-13021
▁ලිනක්ස්	-13022
▁හිතවාදී	-13023
▁දේ	-13024
▁පටය	-13025
▁තනතුරක්	-13026
▁ජාතිකයින්	-13027
රයෝග	-13028
▁කැළඹ	-13029
▁සිංදුවක්	-13030
▁හෘ	-13031
▁කොච්ච	-13032
▁කෙටුම්ප	-13033
පලේ	-13034
▁පුනරු	-13035
▁මාකට්	-13036
ඩුවට	-13037
▁සෙත්	-13038
▁කොටුවේ	-13039
▁ඇවිදින්න	-13040
▁නිලමේ	-13041
▁සතෙක්	-13042
▁දැන්වීම	-13043
▁හැක්	-13044
▁රොබට්	-13045
▁හරින්න	-13046
▁තල්ල	-13047
▁දුෂ්ට	-13048
▁දොරටුව	-13049
▁පරස්පර	-13050
රචණ්ඩත්වය	-13051
යාපෘතියට	-13052
▁පිතිකරුවන්	-13053
රණ්	-13054
පල්ලා	-13055
▁ගලගොඩ	-13056
▁නවත්වන්න	-13057
▁වාරය	-13058
▁ඔහුත්	-13059
▁පළමුවන	-13060
▁ස්වර්ණා	-13061
▁මහින්දානන්ද	-13062
▁සීඝ්	-13063
▁හිතුනෙ	-13064
▁යෙදුණු	-13065
▁අර්ථයෙන්	-13066
▁දෙපා	-13067
▁පැතික	-13068
රකෝන්	-13069
▁බයක්	-13070
▁නිසායි	-13071
▁ක්ෂණිකව	-13072
හුම්	-13073
▁කතාකරන	-13074
▁චෝදනාවට	-13075
▁විශ්ලේෂණ	-13076
▁උත්ත	-13077
▁කැප්	-13078
▁සමනය	-13079
▁සුනාම	-13080
▁පෙනෙයි	-13081
▁මොනරාගල	-13082
▁හිතවතුන්	-13083
නිල	-13084
▁හෙක්ට	-13085
යන්ද	-13086
▁සොයමින්	-13087
▁මිනිසෙක්	-13088
▁හමුදාපතිවරයා	-13089
▁ශතකය	-13090
රිට	-13091
ෙනම්	-13092
▁ගිහ	-13093
▁රකින	-13094
▁මතභේද	-13095
▁ස්වි	-13096
▁යෙදුම	-13097
▁කතාකරන්න	-13098
▁බංගලාදේශ	-13099
▁අභියාචනාධිකරණ	-13100
▁දාම	-13101
▁දැනටත්	-13102
▁යුතුකම්	-13103
▁විසදුමක්	-13104
යවලට	-13105
▁ජින්	-13106
▁අවංකව	-13107
▁ඥාණ	-13108
▁පරන	-13109
▁සඳහායි	-13110
▁ඉගෙනගන්න	-13111
ෙං	-13112
▁ගැඹු	-13113
▁ජීවි	-13114
▁කාමරේට	-13115
▁විත	-13116
▁රූම්	-13117
▁වස්තුවක්	-13118
▁අභියාචනාධිකරණය	-13119
▁දානව	-13120
▁මැෂින්	-13121
▁පසුකාලීනව	-13122
▁උසු	-13123
▁හමා	-13124
රතිවිර	-13125
යවරයෙක්	-13126
▁දියුනු	-13127
▁නැක	-13128
ෙල	-13129
දිලි	-13130
▁කැඩි	-13131
▁ක්ද	-13132
▁ගිම්	-13133
▁උන්දැ	-13134
▁ගඩොල්	-13135
▁දුක්ඛ	-13136
▁අසංක	-13137
▁තලා	-13138
▁බේද	-13139
▁ගන්ට	-13140
▁නෝට්ටු	-13141
▁රැජ	-13142
▁නැවතී	-13143
▁නමැත්තා	-13144
ාක	-13145
▁නාළ	-13146
▁බැන්ද	-13147
වතුන්ගේ	-13148
▁වකවානුව	-13149
▁සිද්ධියේ	-13150
මුණ	-13151
▁ගලේ	-13152
▁ජලජ	-13153
▁වචනෙ	-13154
▁කෙලවර	-13155
▁පැතිරී	-13156
රේෂන්	-13157
තාගේ	-13158
▁දමයි	-13159
▁රුක්	-13160
▁බැඳලා	-13161
▁එක්වීමට	-13162
යන්ය	-13163
▁ජේසුස්	-13164
ශයේ	-13165
ංචිය	-13166
වෙච්ච	-13167
▁මුණු	-13168
▁සමරවික්	-13169
හැන්	-13170
▁තොපි	-13171
▁රථයට	-13172
▁සලකුණ	-13173
▁කොතලාවල	-13174
ටූ	-13175
පද	-13176
රුන්ට	-13177
▁දුබල	-13178
▁නැගූ	-13179
▁මෙනි	-13180
▁ගිණුමට	-13181
▁ජවන	-13182
▁හැප්ප	-13183
▁මෙසේද	-13184
▁ඔයාටත්	-13185
▁වැටීමෙන්	-13186
▁හැඳින්වේ	-13187
▁ආසියාව	-13188
▁පැවසුවාය	-13189
▁අලුත්වැඩියා	-13190
ගමන්	-13191
▁නාස්	-13192
▁අයුතු	-13193
▁බිහිවූ	-13194
▁රවීන්ද්	-13195
▁කතානායකවරයා	-13196
ායා	-13197
▁නොමග	-13198
ිබල	-13199
▁නෞකා	-13200
▁හතරවන	-13201
▁උත්තරීතර	-13202
▁නෙදර්	-13203
තාන්ත්	-13204
▁වියදමක්	-13205
▁අවාසනාවකට	-13206
▁යෙදු	-13207
▁විෂම	-13208
▁සුන්ද	-13209
▁මහන්සිය	-13210
▁කරද	-13211
▁හදව	-13212
▁දැනගත්තේ	-13213
▁පාෂා	-13214
▁තරඟයේ	-13215
▁වාරික	-13216
▁වේලාවට	-13217
▁පටන්ගෙන	-13218
▁අපේක්ෂාවෙන්	-13219
ඹිලි	-13220
▁තීව්	-13221
▁බැහැල	-13222
▁ස්කොට්	-13223
▁දේවස්ථානය	-13224
▁කුජ	-13225
ැන්ඩර්	-13226
▁ඇතුලුව	-13227
▁නොබෙල්	-13228
▁වස්ත	-13229
▁ඉබ්	-13230
▁ඕස්ටේ	-13231
▁අත්වැල්	-13232
▁මැසේජ්	-13233
▁තොල්	-13234
▁හකීම්	-13235
▁කිලිනොච්චිය	-13236
ර්ඩ්	-13237
▁නායකයකු	-13238
▁97	-13239
ාරක්ෂක	-13240
▁ඇතිවේ	-13241
▁ඉසව්ව	-13242
▁උද්ගත	-13243
▁හොංකො	-13244
ර්මාන්ත	-13245
▁තෘප්තිමත්	-13246
▁නිළියන්	-13247
▁පිටස්තර	-13248
ර්ව	-13249
▁දෙකේම	-13250
▁අතරවාර	-13251
▁අදහන	-13252
▁ලේඛනය	-13253
▁වත්තල	-13254
▁විරාම	-13255
▁කියද්දි	-13256
▁දෙන්නටම	-13257
ීස්	-13258
▁අලුත	-13259
▁ඇගයීමට	-13260
▁ලක්මාල්	-13261
▁සසප	-13262
▁තිබිල	-13263
ැන්ඩ	-13264
▁හිසකෙස්	-13265
▁කඩාවැට	-13266
▁සැත්කම	-13267
▁බොලේ	-13268
▁සමගය	-13269
▁පාළු	-13270
▁ආරෝප	-13271
▁සෙනරත්	-13272
▁දෙගොල්ල	-13273
▁ගොඩට	-13274
▁එදිරිසි	-13275
▁වානි	-13276
▁බයිස්කෝප්	-13277
▁බැංකුවට	-13278
▁එපිට	-13279
▁තායිලන්ත	-13280
▁දියේ	-13281
▁ගණයේ	-13282
▁තරුන	-13283
▁පතල්	-13284
▁මේවාට	-13285
▁පිළිබඳවද	-13286
▁තරඟාවලියේ	-13287
▁මෝල්	-13288
▁වීදිය	-13289
▁නොකරයි	-13290
▁විදින්න	-13291
▁අම්මාට	-13292
රගතිශීලී	-13293
හිල්ල	-13294
▁තරුව	-13295
▁නුවරදී	-13296
▁ආගන්තුක	-13297
▁සැට	-13298
▁අත්ති	-13299
තාවට	-13300
▁රැස්ව	-13301
▁විත්ති	-13302
▁ටෙලිකොම්	-13303
▁අතුරුදන්ව	-13304
▁නිස්	-13305
▁ඉරියව්	-13306
රාප්	-13307
වන්ට	-13308
▁කෙනකු	-13309
▁නොකඩවා	-13310
▁ලිඛිතව	-13311
▁එක්රැස්	-13312
▁ආර්ථිකයක්	-13313
▁මතුගම	-13314
▁වැටෙන්නේ	-13315
ංකාධිපති	-13316
▁යුක්රේ	-13317
▁විදේශගත	-13318
▁සංකීර්ණයේ	-13319
වැසිය	-13320
▁අන්තිමේදී	-13321
▁ජනපතිවරයා	-13322
යකරණය	-13323
▁කියපන්	-13324
▁විපක්ෂයට	-13325
▁පසුබිමක්	-13326
න්නෙමි	-13327
▁අදින්	-13328
▁බැල්මට	-13329
ූපී	-13330
සෙට්	-13331
▁මොළයේ	-13332
ියගේ	-13333
▁මූට	-13334
▁හෝටලය	-13335
▁දික්කසාද	-13336
▁පුරවැසිභාවය	-13337
ැලි	-13338
▁79	-13339
▁කෝපය	-13340
▁විදහා	-13341
ිධ	-13342
▁ඩබ්	-13343
රචන්ඩ	-13344
▁කුලියා	-13345
▁තත්වයෙන්	-13346
ථාව	-13347
▁දාට	-13348
▁දෑත්	-13349
▁නිරිත	-13350
▁කියද්දී	-13351
▁අකැම	-13352
▁සම්බුද්ධ	-13353
▁ගතවූ	-13354
▁ජෝති	-13355
▁බදියු	-13356
▁මොහාන්	-13357
▁අසාද්	-13358
▁ලියවිල්ල	-13359
▁කරූ	-13360
▁සයු	-13361
▁අතිවිශාල	-13362
කටවත්	-13363
ෂයෙන්	-13364
▁පැටවුන්	-13365
▁ඉතිහාසයට	-13366
▁ම්ලේච්ඡ	-13367
මන්ඩ්	-13368
ලිකන්	-13369
▁ඉහලම	-13370
▁කාලෝ	-13371
හාම	-13372
▁හිං	-13373
▁රත්ව	-13374
▁සංශෝධනයට	-13375
ෂව	-13376
රහනය	-13377
ුවාය	-13378
▁විශාර	-13379
▁නිර්මාණශීලී	-13380
▁පිළිගැනීමක්	-13381
දම්	-13382
දුවා	-13383
▁බෝතලේ	-13384
▁වංචනික	-13385
▁ෆැන්ට	-13386
▁දැක්වූයේ	-13387
▁හල	-13388
▁ඥාතී	-13389
රිලනිප	-13390
▁දිනයක	-13391
▁අයියගේ	-13392
▁දල	-13393
▁බැරිම	-13394
▁බිරිඳට	-13395
▁යති	-13396
▁අවියක්	-13397
▁නිශ්ශංක	-13398
ැස	-13399
▁කලමනා	-13400
▁ගණුදෙනු	-13401
▁සූදානමක්	-13402
ලෝන්	-13403
▁තේම	-13404
යාරූප	-13405
▁දරමින්	-13406
▁කෞතුකාගාර	-13407
රිකෝ	-13408
▁ගතිමි	-13409
▁ගින්දර	-13410
▁ඔයගොල්ල	-13411
▁අැති	-13412
▁පාඩුවේ	-13413
▁මුස්ලීම්	-13414
▁අතරමග	-13415
▁අභීත	-13416
▁මන්තී	-13417
රියාදාමය	-13418
▁කැරැල්ල	-13419
▁වැඩමුළුව	-13420
▁නිලධ	-13421
ියෙකුට	-13422
▁අත්තනායක	-13423
▁සහයෝගයෙන්	-13424
▁කරුණාවෙන්	-13425
ාමය	-13426
▁පනින්න	-13427
▁ඵලදායි	-13428
▁නවීකරණය	-13429
තුල	-13430
▁නංගී	-13431
▁අපූර්ව	-13432
▁කෙරෙයි	-13433
▁නිරූපණ	-13434
▁හොංකොං	-13435
▁ඇස්තමේන්තු	-13436
▁පාකිස්තානය	-13437
▁විගමන	-13438
▁වගන්ති	-13439
▁මට්ටමෙන්	-13440
▁ස්වභාවයක්	-13441
▁පෙන්වයි	-13442
▁වියදමින්	-13443
මත්ව	-13444
▁විධි	-13445
▁සිරිකො	-13446
▁මීතොටමුල්ල	-13447
සිංහල	-13448
▁ඡන්දෙ	-13449
▁ශබ්දය	-13450
රකාශකවරයා	-13451
▁ජනගහනයෙන්	-13452
▁පීඩන	-13453
▁ඇහුවම	-13454
▁හවුස්	-13455
▁කලිනුත්	-13456
▁වාය	-13457
▁පියයුරු	-13458
▁බිස්කට්	-13459
රස්තවාදයට	-13460
රටික්	-13461
▁බීල	-13462
ගනිමු	-13463
රොනික	-13464
ස්සක්	-13465
▁යනවද	-13466
▁තිලක්	-13467
▁සිසිර	-13468
▁අධීක්ෂණ	-13469
▁පොරවල්	-13470
ංජන	-13471
▁සැත්කම්	-13472
▁චීවර	-13473
▁රහතන්	-13474
▁බුද්ධිමතුන්	-13475
ලියෝ	-13476
▁නගින	-13477
▁ගායනය	-13478
▁දැක්කාම	-13479
▁හිතුවක්	-13480
▁විභ	-13481
▁ක්ලා	-13482
▁තේරුනා	-13483
▁භාරකාර	-13484
▁වැදුණු	-13485
රඥාව	-13486
▁අයැ	-13487
▁ඇතුළත්ව	-13488
▁පික්	-13489
▁කන්ටේන	-13490
▁පහුවදා	-13491
▁ගුරුවරයෙක්	-13492
දීත්	-13493
▁ශාසන	-13494
▁කොහොමටත්	-13495
▁තදින්ම	-13496
▁ස්විට්	-13497
සුමට	-13498
▁මූණු	-13499
▁ඉන්ස්ට	-13500
▁ආශීර්	-13501
▁හිංසා	-13502
▁350	-13503
▁මාර්ගෝපදේශ	-13504
ලන්ද	-13505
කිල්ල	-13506
▁ආසියාතික	-13507
▁විහාරස්ථාන	-13508
න්සල්	-13509
▁දෙයකට	-13510
▁පනතක්	-13511
▁අම්මත්	-13512
▁නිරීක්ෂ	-13513
▁හේවා	-13514
රියදර්ශන	-13515
▁වහගෙන	-13516
▁මරණයෙන්	-13517
▁රනිල්ගේ	-13518
▁එදිරිසිංහ	-13519
▁සේනාංකාධිපති	-13520
▁සිඟ	-13521
▁අයර්	-13522
▁රදවා	-13523
තුන්ගේ	-13524
▁ඔව්හු	-13525
▁මතයට	-13526
▁නොදීම	-13527
▁දාහ	-13528
▁ධර්	-13529
▁විහ	-13530
▁නෙවිල්	-13531
▁භික්ෂුව	-13532
▁අවිනිශ්චිත	-13533
▁නබි	-13534
▁අතුකෝ	-13535
▁දාග	-13536
▁චන්දය	-13537
▁විස්ම	-13538
▁ලන්ඩනයේ	-13539
▁කැබ්	-13540
▁යුගයක	-13541
▁දිවියේ	-13542
▁ස්ටැලින්	-13543
රවා	-13544
රත්නම්	-13545
▁නොදත්	-13546
▁අනුකූල	-13547
▁තියෙනවනේ	-13548
රනයක්	-13549
වුලක්	-13550
▁නිවාඩුව	-13551
අත්තේ	-13552
▁අතිපූ	-13553
▁කන්දේ	-13554
▁දෘෂ්ට	-13555
▁සිටියද	-13556
▁හැගීම්	-13557
▁නොපැමිණ	-13558
▁කාලසීමාව	-13559
▁ඇන්ත	-13560
▁කීවත්	-13561
▁බැබ	-13562
▁සිග්	-13563
▁පුරුදුව	-13564
▁වෛරස	-13565
▁පැවරී	-13566
▁අධිරාජ	-13567
▁කන්දක්	-13568
▁නොගැනීම	-13569
▁නොබැ	-13570
▁ලේක්	-13571
▁රෝහල්ගත	-13572
▁ඉරාක	-13573
▁ස්ක්	-13574
▁සැට්	-13575
රාන්ස්	-13576
▁ආකර්ෂණීය	-13577
▁ඇමතිතුමා	-13578
▁කලෙමි	-13579
▁චන්දෙ	-13580
යවේදීන්ට	-13581
▁ඔරි	-13582
▁හොට	-13583
▁නිව්යෝර්ක්	-13584
ියටත්	-13585
▁උපහාස	-13586
▁ඊජිප්තු	-13587
දම	-13588
▁දෙවනි	-13589
▁මුරලි	-13590
▁විසිප	-13591
▁වෙහෙර	-13592
ලුත්	-13593
▁ඉඳු	-13594
▁තුර්කි	-13595
ර්ති	-13596
▁ඔයිට	-13597
▁තන්ත	-13598
▁අනුවය	-13599
▁දේවාලයේ	-13600
රවාදයේ	-13601
▁පට්ටම	-13602
ිරීමට	-13603
▁දුෂණය	-13604
▁බැනුම්	-13605
▁සිරිත්	-13606
▁සිදුකෙරෙන	-13607
බූ	-13608
▁තාත්තාගේ	-13609
රීඩාවට	-13610
▁අප්පු	-13611
▁වර්ජනයක්	-13612
ළියේ	-13613
▁කතෘ	-13614
▁සදාකාලික	-13615
▁පිටුපසින්	-13616
▁ඉවු	-13617
▁98	-13618
▁අසල්වැසි	-13619
▁යෑමේ	-13620
ිකම්	-13621
රන්ස්	-13622
▁රාමු	-13623
▁ගුවන්තොටුපොළ	-13624
▁උදාහරණය	-13625
▁කාර්යාංශයේ	-13626
▁දාහක්	-13627
ඩේට්	-13628
ධර්මය	-13629
▁හැදි	-13630
▁ඩයලොග්	-13631
▁සමානයි	-13632
රතිවිරුද්ධ	-13633
▁තීරනය	-13634
▁සිතීම	-13635
▁ෆයිසර්	-13636
▁අරමුණයි	-13637
▁පරිශීලක	-13638
▁ලෝකඩ	-13639
▁අම්මගෙ	-13640
▁සැලසුමක්	-13641
▁භාරව	-13642
▁සබැඳ	-13643
▁ඔබෙන්	-13644
▁අහවර	-13645
▁සහෘද	-13646
▁විප්ලවයේ	-13647
භියෝග	-13648
▁කාරය	-13649
▁මධුර	-13650
▁ගයන්ත	-13651
යෂ්ඨ	-13652
▁දසනායක	-13653
රිස්තුස්	-13654
▁ස්ථානවලට	-13655
▁මුදවා	-13656
▁උරුමයේ	-13657
▁බැලීමේදී	-13658
▁වන්නේද	-13659
▁හැකිවනු	-13660
▁1999	-13661
▁ආගමට	-13662
▁පැමිණෙන්නේ	-13663
වුවද	-13664
▁තෑග්	-13665
▁පෙන්නන	-13666
▁සම්බන්ධන්	-13667
▁රූපවාහිනියේ	-13668
▁වෙඩින්	-13669
පාර්	-13670
සහගත	-13671
▁දන්නවාද	-13672
ස්කාර	-13673
යින්ට්	-13674
▁සාගරයේ	-13675
▁රාගම	-13676
▁කොල්ලු	-13677
එක	-13678
▁චාන්ස්	-13679
▁ලැබේවි	-13680
දැන	-13681
▁රික්	-13682
▁විතරද	-13683
රමාණයකට	-13684
▁මැතිනිය	-13685
▁මහත්තයාගේ	-13686
▁ඔබ්බ	-13687
▁ගෙනෙන	-13688
▁නොකොට	-13689
▁සොයාගත	-13690
▁ජනවාර්ගික	-13691
ත්තට	-13692
▁ළඟම	-13693
▁අල්ලන	-13694
▁පාසලක්	-13695
▁නිපැයුම්	-13696
▁තියෙනවාද	-13697
▁සාකච්ඡු	-13698
රිෂ්	-13699
ිතෙල්	-13700
▁අයකර	-13701
▁අමෙරිකාවේ	-13702
▁ඕයි	-13703
▁වරදකරු	-13704
▁හුවමාරුව	-13705
▁කෘෂිකර්මාන්ත	-13706
මුල්	-13707
▁පිබි	-13708
▁ඒකකයක්	-13709
▁අභිමානය	-13710
▁ජනාධිපතිවරණයේ	-13711
ලයෙන්	-13712
▁ලතින්	-13713
▁සේවාදායක	-13714
▁ජීවිතයෙන්	-13715
රිද්	-13716
නාදන්	-13717
▁ධාන්	-13718
▁බ්ලූ	-13719
▁ෆන්	-13720
▁වැඩී	-13721
▁ටයර්	-13722
රෙඩිට්	-13723
▁අපචාර	-13724
▁දඩුවම	-13725
▁මෙතනදි	-13726
▁විනාශයක්	-13727
නාය	-13728
▁එකේදි	-13729
▁විෂයයන්	-13730
රකාශකයෙකු	-13731
▁පුද්ගලයින්ට	-13732
ාවන	-13733
▁පිංක	-13734
▁සැසිවාර	-13735
▁ශිර	-13736
▁ගැනේ	-13737
▁පිළිබිඹු	-13738
ගිනි	-13739
ෙක්ද	-13740
▁ගන්ව	-13741
වෙල්	-13742
යාලවල	-13743
ෂයන්	-13744
▁මගුලක්	-13745
▁කළාම	-13746
▁ඩයල්	-13747
ෝමතික	-13748
▁අතුල	-13749
▁ආරංචිය	-13750
▁ආභා	-13751
▁උත්කර්	-13752
▁කීවොත්	-13753
▁උනාද	-13754
▁දොරවල්	-13755
▁ගෙනයන	-13756
▁දුම්කොළ	-13757
▁හදවතේ	-13758
▁කලාපයට	-13759
▁සිදුවෙන	-13760
▁රොට	-13761
▁පොහොය	-13762
▁මහාමාර්ග	-13763
ඩ්ඩ	-13764
▁යත	-13765
ගීත්	-13766
▁යෙහෙ	-13767
▁ගේට්ටුව	-13768
රුනේ	-13769
▁මඳක්	-13770
▁ජයගත්	-13771
▁සමිතිය	-13772
▁දක්වනවා	-13773
▁කාන්තාවක	-13774
▁ජනිත	-13775
▁නැත්ද	-13776
▁ස්වාධීනව	-13777
සමාජ	-13778
▁යෙදීමට	-13779
▁ඉන්නවනම්	-13780
▁සුවිශේෂි	-13781
ඩ්නි	-13782
▁ෆැස	-13783
රේලියා	-13784
▁කිට්ටුව	-13785
▁භාර්	-13786
▁දඬුවමක්	-13787
▁රිච	-13788
▁ලස්සනම	-13789
▁පලවා	-13790
▁බාගෙට	-13791
▁ඔරොත්තු	-13792
▁මැදිරිය	-13793
▁අනතුරුදායක	-13794
▁පටහ	-13795
▁අමනාප	-13796
▁පල්ලි	-13797
▁වංචාවක්	-13798
▁බැරෑරුම්	-13799
▁අතෑ	-13800
▁ගෙයි	-13801
▁අංශවල	-13802
▁අරවින්ද	-13803
▁අහස්	-13804
▁කණුව	-13805
රතික	-13806
▁කුරේ	-13807
▁කඩන්න	-13808
▁කුමන්ත	-13809
▁නැතුවම	-13810
▁ඉන්ටර්නෙට්	-13811
▁දෙන්නයි	-13812
▁ජලාශයේ	-13813
▁වර්ණවත්	-13814
▁වැටලීම්	-13815
රකට්	-13816
▁චක	-13817
▁යන්නය	-13818
▁වෙනුවෙනි	-13819
▁සංවර්ධනයක්	-13820
වාන	-13821
▁අක්කට	-13822
▁ලෝකයම	-13823
▁පිවිසෙන	-13824
▁කාන්තාවකට	-13825
▁අපහසුතාවයට	-13826
රජන්	-13827
▁පිළිවෙත	-13828
ෑන්ස්	-13829
▁දැනේ	-13830
රීවරුන්ගේ	-13831
▁තුන්දෙනා	-13832
▁සම්බන්දයෙන්	-13833
ඇම	-13834
රගුණ	-13835
▁ජෙට්	-13836
▁වයර්	-13837
▁එච්චරයි	-13838
කයකු	-13839
▁කෑගහ	-13840
▁දූපත	-13841
▁මරණීය	-13842
▁දැරියක්	-13843
▁නොගෙ	-13844
▁මරදාන	-13845
▁වෙල්ගම	-13846
▁ගම්මිරිස්	-13847
▁ජාලයේ	-13848
▁පාන්ද	-13849
▁සිදුකරමින්	-13850
කිං	-13851
මිල්	-13852
▁යොදව	-13853
▁පැවසෙන	-13854
▁මැරුණ	-13855
පාතික	-13856
▁මර්ද	-13857
▁විසඳීමට	-13858
▁සාධාරණයක්	-13859
▁පසින්	-13860
▁මාක්ස්වාදී	-13861
▁උණා	-13862
▁සමනල	-13863
යානුකූලව	-13864
▁කාරණාවක්	-13865
▁පොලු	-13866
කටයුතු	-13867
▁පියාට	-13868
▁මර්ධනය	-13869
▁සියයක්	-13870
රචාරණ	-13871
▁පාට්	-13872
▁දක්ෂිනා	-13873
▁අයවැයෙන්	-13874
▁ගේන	-13875
▁කාරනා	-13876
▁ධීවරයන්	-13877
▁බල්ලෙක්	-13878
▁ගිණුමේ	-13879
▁දරාගන්න	-13880
▁විවිද	-13881
▁හිටලා	-13882
▁දරන්නේ	-13883
මාට්	-13884
▁චේතන	-13885
▁පුතුන්	-13886
▁කෙළින්ම	-13887
රේණිය	-13888
▁ඒත්තු	-13889
▁දැක්වු	-13890
▁පටහැනි	-13891
▁හතළිස්	-13892
▁හොඳින්ම	-13893
▁උකු	-13894
▁ගසක්	-13895
▁රිප්	-13896
▁එමින්	-13897
▁කබීර්	-13898
▁හිනාවක්	-13899
▁නිර්මාල්	-13900
▁110	-13901
▁කාලෙත්	-13902
▁දීප්ති	-13903
▁වාසුදේව	-13904
ොම	-13905
සේන්	-13906
▁කලට	-13907
▁වරෙක	-13908
රියාකර	-13909
▁හෙළිවී	-13910
▁එනකන්	-13911
▁හැබයි	-13912
▁කෘතියේ	-13913
▁පත්වීමෙන්	-13914
▁සිතුම්	-13915
▁මැස	-13916
▁වික්ටෝ	-13917
▁වෙනස්ම	-13918
▁අමෙරිකාව	-13919
▁මානසිකත්වය	-13920
▁අශෝ	-13921
ෝත්තම	-13922
▁පැරණ	-13923
▁වගකිය	-13924
▁අවිස්ස	-13925
▁නැණ	-13926
▁වැටෙයි	-13927
▁කණ්ඩ	-13928
▁රන්ද	-13929
▁දිනන්න	-13930
▁දියුණුවට	-13931
රිඩ	-13932
▁අඹු	-13933
▁කෙටුම්පත්	-13934
▁ආන්දෝලනාත්මක	-13935
▁එදත්	-13936
▁යුගයට	-13937
▁රෝහිත	-13938
▁තැඹිලි	-13939
▁පටිපාට	-13940
▁සැකසුවේ	-13941
ිස්ට	-13942
▁එකොළ	-13943
▁විජේවර්ධන	-13944
▁ගම්බ	-13945
▁පෘතුව	-13946
▁විතානගේ	-13947
▁ෆර්	-13948
▁කියලවත්	-13949
▁ගුරුවරිය	-13950
▁පරාද	-13951
▁කොහෙවත්	-13952
▁නිර්භීත	-13953
ඩම්	-13954
න්නාව	-13955
▁මැරි	-13956
▁වේලක්	-13957
▁සම්මුතිය	-13958
ටුන්	-13959
▁බැහැන	-13960
▁පුෂ්පකුමාර	-13961
▁ආප්ප	-13962
▁යනවිට	-13963
▁ලියුම	-13964
▁වැටුපක්	-13965
▁පදිංචියට	-13966
▁ස්විට්සර්	-13967
රායලය	-13968
▁යන්නෙන්	-13969
▁උන්නු	-13970
යතාවයන්	-13971
▁මංසන්ධ	-13972
යසාර	-13973
▁බලනව	-13974
▁හොඳද	-13975
යුත්තේ	-13976
▁ගියහම	-13977
▁තිඛෙනවා	-13978
▁නතු	-13979
ට්ටිය	-13980
▁හිඟය	-13981
▁හුඟාක්	-13982
▁විනාශකාරී	-13983
▁ලම	-13984
රාණික	-13985
▁රවුම්	-13986
▁බැහැරව	-13987
▁විධානය	-13988
▁කොම්පියු	-13989
යාම්	-13990
▁1996	-13991
ලියගොඩ	-13992
▁මහත්තුරු	-13993
▁වර්ගීකරණය	-13994
ොව	-13995
▁සොබාද	-13996
▁අමරසිංහ	-13997
▁පුරුෂයා	-13998
වතා	-13999
න්ඩේ	-14000
▁පිලිපී	-14001
ණියක්	-14002
වේදීන්	-14003
▁ආරංචියක්	-14004
▁නහ	-14005
▁ඩලස්	-14006
▁අප්ඩේට්	-14007
▁එන්නම	-14008
▁ශතවර්	-14009
▁ඇසුර	-14010
▁පළවූ	-14011
▁දවසින්	-14012
▁හිතකාමී	-14013
▁දීප්තිමත්	-14014
▁ටෙල	-14015
▁පරමාර්ථ	-14016
▁කෞතුකාගාරය	-14017
කාර්	-14018
▁ගසන	-14019
▁නොලැබීම	-14020
▁භාණ්ඩයක්	-14021
යකර	-14022
▁ෆි	-14023
රගීත්	-14024
▁තිබුණේය	-14025
න්සර්	-14026
ිකාවට	-14027
▁කෘතියක්	-14028
කොමසාරිස්	-14029
▁ෂී	-14030
▁චාටර්	-14031
▁හෂීම්	-14032
▁කැලිෆෝ	-14033
▁ඉස්කෝලෙට	-14034
▁සිරිසේ	-14035
රෝන්	-14036
රයිස්	-14037
ියන්ට	-14038
▁එළිම	-14039
▁වගෙම	-14040
රසිද්ද	-14041
▁සමීපව	-14042
හේන්	-14043
▁පතර	-14044
▁දැක්වීය	-14045
නියම්	-14046
▁82	-14047
▁සැග	-14048
▁ගියාද	-14049
▁ටිකයි	-14050
▁අන්කල්	-14051
▁ඉල්ලයි	-14052
▁පුදුමයි	-14053
▁දහය	-14054
▁අනුන්ට	-14055
වික	-14056
පසට	-14057
▁සියල්ලන්	-14058
▁නැඹු	-14059
▁තහනමක්	-14060
▁පලස්තීන	-14061
▁අපු	-14062
▁දළු	-14063
▁බ්ලැක්	-14064
▁විප්ලවීය	-14065
▁අපටත්	-14066
▁රටේම	-14067
▁ගෙදරක	-14068
▁තුමාගේ	-14069
▁පුතෙක්	-14070
තලාව	-14071
දාත්මක	-14072
▁විගණකාධිපති	-14073
▁අඩෝ	-14074
ක්වත්	-14075
▁යටත්වි	-14076
▁තාව	-14077
▁ආදරවන්ත	-14078
▁රියැදුරු	-14079
▁සිම්	-14080
▁සිරද	-14081
▁දරිද්	-14082
▁නැවැත්ත	-14083
▁තනියෙන්	-14084
▁ලිංගිකව	-14085
▁ගින්නෙන්	-14086
▁දිරා	-14087
▁පරික	-14088
▁පාලනා	-14089
▁පෙන්වූ	-14090
▁හීනෙන්	-14091
▁භාෂාවක්	-14092
▁ඡන්දදායක	-14093
▁යොදාගන්නා	-14094
▁එහෙන්	-14095
▁ගවේෂණය	-14096
▁වර්ධනයට	-14097
▁දශම	-14098
▁ගැනය	-14099
▁චමත්	-14100
▁පැරිස්	-14101
▁කරට	-14102
▁අභිප්	-14103
▁කොමිස්	-14104
▁මැද්දේ	-14105
▁ගිණුමක්	-14106
▁නැවතිලා	-14107
▁කණු	-14108
▁කූඩු	-14109
▁හතරක	-14110
▁පත්වේ	-14111
▁ලාංඡ	-14112
▁රුහුණු	-14113
ම්මද්	-14114
වතෙක්	-14115
▁එහෙමනම්	-14116
▁දැක්කොත්	-14117
ලීස්	-14118
▁දුවලා	-14119
▁එකේදී	-14120
▁ඉඟි	-14121
▁ඇඳන්	-14122
▁කොල්	-14123
▁ජාලා	-14124
▁නිළියක්	-14125
▁හැමවිටම	-14126
▁පාඨය	-14127
බණ්ඩාර	-14128
▁කරගත්තේ	-14129
▁කලාත්මක	-14130
ානක	-14131
▁කෝලි	-14132
▁සන්ද	-14133
▁ගත්තාය	-14134
▁යුතුමය	-14135
ින්ග්	-14136
ලිගොඩ	-14137
▁ලොග්	-14138
රමාණයක	-14139
▁මට්ටමකට	-14140
▁නැතිවෙලා	-14141
▁භූමියට	-14142
▁අතරතුරදී	-14143
ඳව	-14144
▁වාරි	-14145
▁කාරයො	-14146
▁කැලණි	-14147
▁දැනුම්දී	-14148
▁අපරාධකරුවන්	-14149
▁පැරැණි	-14150
ෝට	-14151
▁පැටව්	-14152
▁භාරදී	-14153
▁පාලකයා	-14154
▁ගැණු	-14155
▁වියයුතු	-14156
▁පෙන්වන්නේ	-14157
යකාර	-14158
▁ශුභ	-14159
▁එළියේ	-14160
රජාවට	-14161
▁සංගා	-14162
▁හමුවීම	-14163
▁කාමරයක්	-14164
රියාවලියට	-14165
▁ගොඩනැගිල්ලේ	-14166
▁මිනුම්	-14167
දයට	-14168
කියක්	-14169
▁දරයි	-14170
▁අතිපූජ්	-14171
▁ජීවය	-14172
▁මරලා	-14173
▁රුසියාවට	-14174
▁ඇත්තේය	-14175
▁සාපරාධ	-14176
▁ශීඝ්	-14177
ුවේ	-14178
▁හිමිපාණන්	-14179
රබෝධ	-14180
▁ඒකරා	-14181
▁නගරයේදී	-14182
▁ඊලඟට	-14183
▁මහකොමසාරිස්	-14184
▁සය	-14185
රන්ස	-14186
▁කලද	-14187
▁ටූ	-14188
පන්න	-14189
▁පරෙ	-14190
▁කීපය	-14191
▁පොම්ප	-14192
▁රිෂාඩ්	-14193
▁සඳහන්ය	-14194
ගාඩ්	-14195
▁නොදුන්	-14196
▁හැරීමේ	-14197
▁විදියකට	-14198
▁සූදු	-14199
න්නායි	-14200
▁ජනාධිපතිවර	-14201
▁ලැයිස්තුවේ	-14202
ම්බ්	-14203
▁අලව	-14204
▁කඩඉ	-14205
රවනීය	-14206
▁ආවේය	-14207
▁නන්දා	-14208
ිවර	-14209
යයයි	-14210
රීමත්	-14211
▁මුහුණදීමට	-14212
▁මාසයකට	-14213
▁පුනර්ජන	-14214
40	-14215
යමේ	-14216
▁ඔහුගෙ	-14217
▁කාගෙන්	-14218
▁පරිණාමය	-14219
▁ටර්	-14220
රමවත්	-14221
බන්	-14222
▁අවුට්	-14223
▁හුරතල්	-14224
▁වැසියන්ට	-14225
මුලින්	-14226
ළට	-14227
රීරෝද	-14228
▁යැයිද	-14229
▁මුදලකට	-14230
▁කමා	-14231
▁ලග්න	-14232
▁උතුරට	-14233
▁මල්ලිට	-14234
ගනි	-14235
▁භටයන්	-14236
▁හීන්	-14237
▁කියවූ	-14238
ගෙඩි	-14239
නිර්	-14240
▁හරී	-14241
▁සූක්ෂ	-14242
වැසියන්	-14243
▁අගමැතිතුමා	-14244
▁ඒජන්	-14245
▁අනුරාධපුරය	-14246
ිපු	-14247
▁අපහසුතා	-14248
▁දක්වාත්	-14249
▁යෞවන	-14250
ගැට	-14251
▁පිටට	-14252
▁බොස්	-14253
▁අපරාධය	-14254
▁දනී	-14255
▁කොලු	-14256
▁මුල්ල	-14257
▁වන්නා	-14258
▁ශෛලිය	-14259
▁ඩැන	-14260
▁සමබර	-14261
▁අනුකම්පා	-14262
▁බඩේ	-14263
▁සබන්	-14264
▁බලවතුන්	-14265
▁තැබීමෙන්	-14266
▁දැනගත්තා	-14267
ගසා	-14268
▁ගලක්	-14269
▁පියු	-14270
▁අසමාන	-14271
▁වෙනමම	-14272
▁වෙලත්	-14273
▁අලෙවිය	-14274
▁චාල්ස්	-14275
▁මරන	-14276
ෂරීස්	-14277
▁පරිණ	-14278
රිකාවට	-14279
▁නොවුණ	-14280
▁රඟපාන	-14281
▁පැවැත්මට	-14282
ක්කක්	-14283
සයිඩ්	-14284
▁සැලස	-14285
▁උපාසක	-14286
▁විරුද්ධයි	-14287
▁රහක්	-14288
හූ	-14289
▁93	-14290
▁කසා	-14291
▁පාවිච්ච	-14292
▁වියුක්ත	-14293
▁දැනෙන්නෙ	-14294
▁වඳු	-14295
▁පස්වන	-14296
▁සංසදය	-14297
▁සාමන්	-14298
▁සිහියට	-14299
▁වාර්තාවල	-14300
▁නිරෝෂන්	-14301
▁දැනුම්වත්	-14302
▁මොරගහකන්ද	-14303
▁හෙලිකොප්ටර්	-14304
▁ධර්මා	-14305
▁හිතක්	-14306
▁අත්තනෝමතික	-14307
▁මිනිස්සුන්ගෙ	-14308
ත්තෙ	-14309
▁අමරසේකර	-14310
▁ගෙනැවිත්	-14311
▁කියවෙන්නේ	-14312
▁සංස්කෘතියේ	-14313
▁මිහිරි	-14314
▁මොන්ට	-14315
▁නගින්න	-14316
▁මුද්දර	-14317
▁ලියාගෙන	-14318
▁හැකිවීම	-14319
▁සප්	-14320
▁යටත්විජිත	-14321
▁මක	-14322
▁අහ්	-14323
▁පතුර	-14324
▁ගිහාන්	-14325
▁ෆැසිස්ට්	-14326
ාරේ	-14327
ෙන්ටුවක්	-14328
▁කාරුණික	-14329
▁වෙවී	-14330
▁කුතුහලය	-14331
▁හෙළික	-14332
▁මැයෙන්	-14333
▁මාර්ෂල්	-14334
▁බංක	-14335
දෙනිය	-14336
▁දෙකෙහි	-14337
▁ලෞ	-14338
▁එලව	-14339
▁නිමැ	-14340
▁නැවතුම්ප	-14341
වත්තේ	-14342
▁බෝම්බයක්	-14343
▁125	-14344
▁බොර	-14345
▁සන්ධානයට	-14346
යාමේ	-14347
▁ඉඳි	-14348
▁පන්සිය	-14349
▁හැමතැනම	-14350
ම්බෝ	-14351
▁හැමදෙ	-14352
▁හැදුනු	-14353
▁කිං	-14354
▁ගම්වල	-14355
▁වසංගත	-14356
▁සංසන්දනය	-14357
ගමික	-14358
▁ගැය	-14359
▁මනසට	-14360
▁තීන්ද	-14361
▁සාධාර	-14362
▁හමාරය	-14363
▁ආත්මාර්ථ	-14364
▁එච්ච	-14365
▁පඩිය	-14366
▁පතුරුව	-14367
▁වාතාවරණය	-14368
▁ගෙනවිත්	-14369
▁අස්වනු	-14370
▁පහළින්	-14371
▁බාවිතා	-14372
යයෝ	-14373
▁තල්	-14374
▁නෝර්වේ	-14375
▁විශාරද	-14376
▁සමාජයීය	-14377
▁උපරිමයෙන්	-14378
▁පිවිසෙන්න	-14379
▁අලහ	-14380
▁හිල්	-14381
▁මහේස්ත	-14382
▁මුස්තා	-14383
▁සියල්ලෝම	-14384
හිමි	-14385
▁අනිල්	-14386
රිවරුන්	-14387
▁රත්මලාන	-14388
ප්පි	-14389
බිමට	-14390
රියාකාරීන්	-14391
▁අබු	-14392
▁නාඩ	-14393
▁දෙවනුව	-14394
▁හැදෙනවා	-14395
▁කියාගන්න	-14396
▁ලිපියක	-14397
▁හැංගිලා	-14398
දුවන්	-14399
▁පරිපථ	-14400
▁සංශෝධනයක්	-14401
▁සදාචාරාත්මක	-14402
▁සංගත	-14403
රුවෙකු	-14404
▁කෙලෙස	-14405
▁හදවතට	-14406
හික	-14407
▁මිලිය	-14408
▁රිපබ්	-14409
▁වරායට	-14410
▁අභිබවා	-14411
▁කිසිවකුට	-14412
▁සාදන	-14413
▁නැඟෙන	-14414
▁ඩිමොක්	-14415
▁දෙනාගෙන්	-14416
▁පතක්	-14417
රකාශිත	-14418
▁කවුන්සිලයේ	-14419
▁එක්නැලිගොඩ	-14420
▁යැමට	-14421
▁රණ්ඩු	-14422
▁සහයෝගයක්	-14423
▁පිරික්	-14424
▁සපුරාල	-14425
▁ගබඩ	-14426
▁නැගල	-14427
▁ආර්ථීක	-14428
▁රූපයක්	-14429
▁කිරිපිටි	-14430
රසූ	-14431
රක්ක	-14432
▁බයේ	-14433
▁ඇඳලා	-14434
▁පීඨය	-14435
සොෆ්ට්	-14436
රතිගාමී	-14437
▁හඟ	-14438
▁ගසමින්	-14439
▁නිරි	-14440
ජයන්ත	-14441
රත්වය	-14442
▁යුනික	-14443
▁උනුත්	-14444
▁අයින්ස්ට	-14445
කමේ	-14446
ිතම	-14447
▁ඩයි	-14448
▁පැවරීම	-14449
▁අබේසේකර	-14450
▁ආහාරයක්	-14451
▁පිරිනමන	-14452
▁ගිට	-14453
▁දැම්මට	-14454
▁කීපයක්ම	-14455
▁වැලක	-14456
▁ගෞරවනීය	-14457
▁හුදකලා	-14458
▁බොල්	-14459
▁වෙලාවකින්	-14460
▁පැවැත්වුණේ	-14461
කළා	-14462
▁දීය	-14463
ත්තුවක්	-14464
▁ෆිට්	-14465
▁ඉල්ලුමක්	-14466
▁රෝහල්වල	-14467
▁වීදුරුව	-14468
▁සෑහීමකට	-14469
▁පත්වෙනවා	-14470
▁වැවේ	-14471
▁විත්තිකරුවන්	-14472
රාසජනක	-14473
▁ගිවිසුමකට	-14474
▁පකිස්ථානය	-14475
යවසාය	-14476
▁සොරි	-14477
මුල්ලේ	-14478
▁පුලුවනි	-14479
▁බවු	-14480
▁පිළියම්	-14481
▁කුර්ආ	-14482
▁නියැල	-14483
▁තටා	-14484
▁බෙන	-14485
▁නරකයි	-14486
▁ආගමේ	-14487
▁පාර්ශ්වය	-14488
▁දවල්ට	-14489
▁රාහුල	-14490
▁සීමාවේ	-14491
▁තාත්තලා	-14492
▁දැම්මොත්	-14493
▁විමුක්තිය	-14494
▁සාමාජිකයෙක්	-14495
▁කේරළ	-14496
රීවරයෙකු	-14497
▁පොදුරාජ්	-14498
▁සම්බන්ධතාවය	-14499
න්නං	-14500
තුමන්ගේ	-14501
▁භුම	-14502
▁ගලවලා	-14503
▁වාස්තු	-14504
▁ලෙස්ටර්	-14505
රිස	-14506
▁188	-14507
▁අයද	-14508
▁පුජ	-14509
▁පාර්ලිම	-14510
▁දැනුවත්ව	-14511
▁ලාංකිකයින්	-14512
▁1991	-14513
▁විධාන	-14514
රාග්ධනය	-14515
▁කියනකොට	-14516
▁සිදුවෙයි	-14517
ක්ෂාව	-14518
▁සමිඳා	-14519
▁කිතුල්	-14520
▁ආරක්ෂාවක්	-14521
▁සලා	-14522
▁පමණය	-14523
රායෙල්	-14524
▁කරගනු	-14525
▁කෙනෙක්ගේ	-14526
▁පැටියා	-14527
▁නොවන්නට	-14528
ෝරු	-14529
▁ඔටු	-14530
▁කණි	-14531
රාකාර	-14532
▁චණ්ඩ	-14533
▁පැලැ	-14534
▁ඇලෙක්ස	-14535
▁පරිද්ද	-14536
▁කැමරාවක්	-14537
▁විවිධත්වය	-14538
▁යාය	-14539
▁පවර්	-14540
▁සතොස	-14541
▁රැළිය	-14542
රේලියාවට	-14543
ලිම	-14544
▁මාෆ	-14545
▁ඇඬ	-14546
දියට	-14547
රාගේ	-14548
▁බෙංග	-14549
▁තත්වයක	-14550
▁දැනුත්	-14551
න්නාන්සේ	-14552
▁යෙදිය	-14553
▁වෛරස්	-14554
▁ධනවාදයේ	-14555
▁ගියෙමි	-14556
▁කදවු	-14557
▁ස්පී	-14558
▁සෙල්ලම	-14559
▁ඩූ	-14560
▁කූඹ	-14561
▁දූපතේ	-14562
▁දෙනකුට	-14563
▁විජයදාස	-14564
රේට්	-14565
▁එමීර්	-14566
▁ජනපතිට	-14567
▁බැඳීම්	-14568
▁අවිස්සාවේ	-14569
▁තණ්	-14570
▁ඩෙස්	-14571
▁බැලීම්	-14572
▁කෙරෙමින්	-14573
▁පෙන්වමින්	-14574
▁එකේම	-14575
ියන්ගේ	-14576
▁කැමැතියි	-14577
▁කිසිවෙකුත්	-14578
ිසල්	-14579
ෙහිදී	-14580
▁ඇමතූ	-14581
▁ගුවන්විදුලි	-14582
▁චෙන්නායි	-14583
▁කලී	-14584
▁හුණු	-14585
▁එකෙකුට	-14586
▁හැන්දෑ	-14587
▁තලයේ	-14588
▁නැමැ	-14589
▁දෙකකි	-14590
▁දුරදිග	-14591
රේමචන්ද්	-14592
▁දෙවැන්න	-14593
▁පත්වූයේ	-14594
ංකර	-14595
▁දරන්න	-14596
▁අමුත්ත	-14597
▁මානුෂීය	-14598
▁ගිවිසුමේ	-14599
ත්වලින්	-14600
නෑ	-14601
▁පොතු	-14602
▁තිරිසන්	-14603
▁සීගිරිය	-14604
වෙත	-14605
▁සතුන්ට	-14606
▁සනීපාර	-14607
දාස්	-14608
▁ගිලි	-14609
▁පොහෝ	-14610
▁නියාමනය	-14611
▁ඉපැරණි	-14612
▁නැගිටි	-14613
▁අරාබියේ	-14614
▁බලාත්මක	-14615
▁දියුණුවක්	-14616
කිල	-14617
ෝකර්	-14618
ජනයක්	-14619
▁වටයට	-14620
▁උපසිරැ	-14621
▁ලැබීමේ	-14622
▁එල්ලිලා	-14623
▁පිස්සුද	-14624
▁කළමනාකාර	-14625
▁සේවකයන්ගේ	-14626
▁011	-14627
▁හල්	-14628
ිතාන්	-14629
▁මෙහෙයවීම	-14630
▁අධිකාරියට	-14631
▁බෝට්ටුව	-14632
ුවන	-14633
බිමේ	-14634
▁දුවට	-14635
▁ඇහුවෙ	-14636
▁අපතේ	-14637
▁ජයලත්	-14638
▁ඉරාකයේ	-14639
▁ඔවුනගේ	-14640
රියාන්විත	-14641
භාවයට	-14642
▁පිළිගනු	-14643
▁තුනට	-14644
▁එකෙන්ම	-14645
▁කුණුහරුප	-14646
ව්වත්	-14647
▁පබ්	-14648
▁තදබ	-14649
▁පැණ	-14650
▁සැනස	-14651
▁හිටං	-14652
▁කෘතිම	-14653
▁හඳුනාගත්	-14654
▁පැවසූහ	-14655
▁සම්පුර්ණයෙන්ම	-14656
▁ඇදුම	-14657
▁පද්ම	-14658
ද්දිම	-14659
▁දීමයි	-14660
සුන්දර	-14661
රහයේ	-14662
රිජ්	-14663
ලියා	-14664
▁කන්නෙ	-14665
▁වොලිබ	-14666
▁ආකාරයයි	-14667
රතිමාව	-14668
▁වැටුණා	-14669
▁උක	-14670
ස්ටල්	-14671
▁පලමුව	-14672
▁හිඟයක්	-14673
▁පැවරීමට	-14674
▁කුලු	-14675
▁කම්පා	-14676
භාවයෙන්	-14677
▁සුමංගල	-14678
▁දික්වැල්ල	-14679
විතාන	-14680
▁තට්ට	-14681
▁පැල්	-14682
▁ඇතුළෙ	-14683
▁අම්මපා	-14684
▁කිහිපයකි	-14685
▁ගානකට	-14686
▁අපකීර්	-14687
▁ඔයාලත්	-14688
▁පරම්පරාවේ	-14689
▁ඇසෙන	-14690
▁දෙබස්	-14691
▁කැනඩාව	-14692
▁ධෛර්යය	-14693
▁පිරිමියෙක්	-14694
පිටල්	-14695
▁බයිලා	-14696
▁නොසිතූ	-14697
▁තිබියදීත්	-14698
▁මැලේසියාවේ	-14699
ුවලට	-14700
▁ආපද	-14701
▁මුහම්මද්	-14702
▁ඡේද	-14703
පොත්	-14704
▁මිසක	-14705
▁වායුගෝ	-14706
▁ආයතනයෙන්	-14707
▁වැළැක්වීමේ	-14708
▁ඩබල්	-14709
▁නැගෙ	-14710
▁සුසාන	-14711
▁සමීපතම	-14712
න්ග්	-14713
▁කොකා	-14714
▁ශිලා	-14715
▁ඔයාලගෙ	-14716
▁කොහොමින්	-14717
▁උත්තම	-14718
▁අන්තයේ	-14719
▁යුක්තව	-14720
▁රඟප	-14721
▁ලේබල්	-14722
▁බේරෙන්න	-14723
▁කාන්තාවට	-14724
▁කෙර	-14725
▁කරගන	-14726
▁සුරක	-14727
▁හොරක	-14728
▁බුකිය	-14729
▁ආණ්ඩුක	-14730
▁තරගකාරී	-14731
▁නොදනිමි	-14732
▁සමරන	-14733
▁පසුකර	-14734
▁සපයයි	-14735
▁හමුවිය	-14736
▁පිටසක්වල	-14737
▁අහසට	-14738
▁මහත්මා	-14739
▁හමුදාවක්	-14740
▁විරෝධතාවක්	-14741
රමානය	-14742
▁පැවත්ව	-14743
චා	-14744
▁හේතූන්	-14745
▁අවාසි	-14746
▁උපකුල	-14747
▁නිශ්ශබ්	-14748
▁අත්හිටුවීමට	-14749
▁ඊළග	-14750
▁ගීතා	-14751
▁නටන	-14752
▁බැල්ම	-14753
▁පරිස්සමින්	-14754
▁මුරප	-14755
▁ටයිම්	-14756
▁ඉංගිරිසි	-14757
▁පැවැත්වෙන්නේ	-14758
▁යහපතක්	-14759
▁හැකිවන	-14760
▁නිර්දේශය	-14761
ෂම	-14762
දුරක්	-14763
▁බේරුවල	-14764
▁ලංකාදීප	-14765
▁දෙමාපියන්ට	-14766
▁අගවිනිසුරුව	-14767
වතින	-14768
ුවාම	-14769
▁1956	-14770
▁පිලිප	-14771
▁නැගීමට	-14772
▁තිබෙනු	-14773
▁තායිලන්තයේ	-14774
▁බන්ධනාගාරය	-14775
▁විසිරී	-14776
▁සූදානම	-14777
▁ඉස්සරහින්	-14778
▁ගොඩනැගිල්ලක්	-14779
න්ඩෝ	-14780
▁අහම	-14781
▁ද්විප	-14782
▁හන්දිය	-14783
▁උල්ලංඝණය	-14784
▁රෙජිමේන්තුවේ	-14785
▁අරාබිය	-14786
▁ලිපියකින්	-14787
▁අගයන්	-14788
නාශක	-14789
▁එක්කන්	-14790
කියෝ	-14791
▁සරද	-14792
▁නවසීලන්තය	-14793
▁තඩි	-14794
▁අවබෝධතා	-14795
▁විවාදයක්	-14796
▁පෝල්	-14797
▁ගලගොඩඅත්තේ	-14798
කද	-14799
▁අහිංස	-14800
▁ලඟින්	-14801
▁තිබුනද	-14802
▁ශිල්පියෙක්	-14803
▁ඉබ්බ	-14804
▁ගැස්ස	-14805
▁වෙනසකට	-14806
▁ගනිමිනි	-14807
▁මහානායක	-14808
▁අධිෂ්ඨානය	-14809
කුන්	-14810
▁අවභාවිත	-14811
රභල	-14812
▁ජෝස	-14813
▁අහන්	-14814
▁රටටම	-14815
▁වෙල්ල	-14816
▁අහගන්න	-14817
▁කුණාටුව	-14818
▁ශිල්පය	-14819
නාගේ	-14820
ගිරියේ	-14821
▁අරුත්	-14822
▁සෙනසුරු	-14823
▁උපාධිධාරීන්	-14824
▁නරකද	-14825
▁වානිජ	-14826
▁වාහනයේ	-14827
▁සිදුරු	-14828
▁නැමැත්තා	-14829
යල්	-14830
▁ලිස්	-14831
ාර්කික	-14832
▁ඒකටත්	-14833
▁මුවාවෙන්	-14834
▁එතනදි	-14835
▁කරනවාට	-14836
▁නොදැනුවත්ව	-14837
▁සමථ	-14838
▁මතවාදය	-14839
▁සිරිපා	-14840
▁සිතුවිල්ල	-14841
▁ස්වාධීනත්වය	-14842
රුනා	-14843
▁මීල	-14844
▁හිතමු	-14845
▁රේඛා	-14846
වාදයෙන්	-14847
▁වයසැති	-14848
▁බැරිනම්	-14849
▁මිනුවන්	-14850
▁තිබෙන්නට	-14851
▁විත්තිකරු	-14852
▁ඊර්	-14853
▁බෙර	-14854
▁සංගමයට	-14855
▁බලපානවා	-14856
රසයේ	-14857
▁පහදා	-14858
▁භක්තිය	-14859
▁සමානතා	-14860
▁නික්	-14861
▁දැවෙන	-14862
▁දකුණට	-14863
▁සංකේතවත්	-14864
▁උනන්දුවෙන්	-14865
▁පින්තූරයක්	-14866
▁චම	-14867
සුවා	-14868
▁අනපේ	-14869
▁සියල්ලට	-14870
▁උමං	-14871
▁දේවිය	-14872
▁සිතියම	-14873
▁ගෙවන්නේ	-14874
ෂාභියෝග	-14875
▁පුවත්පතට	-14876
▁හුරුව	-14877
▁භාවයට	-14878
▁මැන්ඩ	-14879
රතිම	-14880
▁කලිං	-14881
▁ඒඩ්ස්	-14882
▁කිසිත්	-14883
▁සිද්ධාන්ත	-14884
▁ලැබිල	-14885
▁කලාවක්	-14886
ිම්	-14887
යාකූල	-14888
▁ස්ටේ	-14889
▁ගැනෙන	-14890
රිකාවක්	-14891
▁එනමුත්	-14892
▁පොළොවේ	-14893
▁අනාගතයට	-14894
▁ලෞකික	-14895
ළියක්	-14896
▁රැජිණ	-14897
▁විකුණන්න	-14898
▁අදා	-14899
▁කහට	-14900
▁මඩුල්ල	-14901
▁බැලි	-14902
▁කරනවට	-14903
▁දැනගැනීමේ	-14904
▁දිශාව	-14905
▁වගඋත්තර	-14906
▁රැලි	-14907
▁කීපයක	-14908
▁රහිතව	-14909
▁වැටිල	-14910
▁අඩියක්	-14911
▁තිදෙනෙක්	-14912
කැලේ	-14913
▁රටෙහි	-14914
▁186	-14915
▁දඟල	-14916
▁උදාකර	-14917
▁අත්හිටුවා	-14918
ළාම්	-14919
▁රැස්වූ	-14920
▁කුමාරසිංහ	-14921
▁ලැග	-14922
▁අරගලයට	-14923
▁අබ්දුල්	-14924
▁පැයකට	-14925
▁වයිෆ්	-14926
▁වැලඳ	-14927
▁ඇගයීම්	-14928
▁තොටුපල	-14929
▁හමුදාවෙන්	-14930
රඩ	-14931
▁දුකා	-14932
▁නාකි	-14933
▁මක්ක	-14934
▁හයිය	-14935
▁වරදවා	-14936
▁කියනවද	-14937
▁චිකිත්	-14938
▁උපකාරක	-14939
▁මතයයි	-14940
▁කිවුවේ	-14941
▁වැටුනා	-14942
මේෂ්	-14943
ෘත්ත	-14944
▁උසට	-14945
▁ලුහු	-14946
▁මානුෂික	-14947
▁අවනත	-14948
▁නටබුන්	-14949
▁පෙන්වාද	-14950
▁රැකියාවට	-14951
▁සතුරන්	-14952
▁යෙදවීමට	-14953
▁අර්ධද්වී	-14954
▁යුතුකමක්	-14955
▁සහමුලින්	-14956
ශික	-14957
▁පිපා	-14958
▁ආපස්සට	-14959
▁සහජීවනය	-14960
▁ආලය	-14961
▁යටට	-14962
▁මාදු	-14963
▁නිවාඩුවක්	-14964
▁තරාති	-14965
රියත්වය	-14966
▁නොලැබේ	-14967
▁කරන්නෙමු	-14968
▁නිධ	-14969
▁තිස්සෙ	-14970
▁කතන්දරේ	-14971
▁තිබීමයි	-14972
▁රෝගයෙන්	-14973
▁කඩලා	-14974
▁සැපයූ	-14975
▁වරෙන්තු	-14976
රමාණයකින්	-14977
▁උත්පාදනය	-14978
▁සැලකෙන්නේ	-14979
▁හොබ	-14980
▁කරපන්	-14981
▁අත්අඩංගුවේ	-14982
▁අගමැතිවරයාට	-14983
24	-14984
▁චල	-14985
▁ජේසු	-14986
▁නිදන	-14987
▁සීයට	-14988
▁හිටියනම්	-14989
ෂියා	-14990
▁ධූරයට	-14991
▁ඊජිප්තුවේ	-14992
ස්සෙ	-14993
▁පාලම්	-14994
▁මිහිර	-14995
▁දෙවියන්වහන්සේ	-14996
ැද්ද	-14997
▁ජනනය	-14998
රීලංකා	-14999
▁ආසනික්	-15000
ෂණික	-15001
▁බඳින	-15002
▁ගීතයට	-15003
▁දොඩම්	-15004
▁සම්මානයක්	-15005
▁විරුද්ධත්වය	-15006
මීන්	-15007
▁අවන්හල	-15008
▁බොක්ස්	-15009
▁බොදුබල	-15010
▁160	-15011
▁විජයක	-15012
▁මනසින්	-15013
▁මොවුන්ගේ	-15014
▁ස්වල්පයක්	-15015
▁වේවිද	-15016
ිබ්	-15017
ඳුනන	-15018
▁කිප	-15019
▁තදබදය	-15020
▁පසුදින	-15021
▁සංස්කරණ	-15022
▁කීර්තිමත්	-15023
▁ආභරණ	-15024
▁බිමන්	-15025
▁මානසිකව	-15026
ඩීන්	-15027
▁ආසනය	-15028
▁නින්	-15029
▁ඉඳහිට	-15030
▁බල්ලෝ	-15031
▁ගත්තාම	-15032
▁නැරඹීම	-15033
▁ඡන්දයක්	-15034
රමවේදයන්	-15035
▁වෙහෙසක්	-15036
▁ඇකඩ	-15037
▁යාච්	-15038
▁වාන්	-15039
න්නටත්	-15040
රමතුංග	-15041
▁ඉදිකෙ	-15042
▁එල්ලේ	-15043
▁තෑග්ග	-15044
▁විමසන	-15045
▁ඉගැන්වීම	-15046
යිකා	-15047
▁අමතන්න	-15048
▁උළෙලේදී	-15049
▁කාන්තාර	-15050
▁කිව්වාම	-15051
යමට	-15052
▁තැටි	-15053
▁දනිමු	-15054
▁බල්ලන්	-15055
▁රැස්කර	-15056
▁නායකයන්ට	-15057
▁මුස	-15058
ත්වයකින්	-15059
▁මිතුරිය	-15060
▁රේල්	-15061
▁ජීවතුන්	-15062
▁බලන්නම්	-15063
▁පුළුවන්නම්	-15064
යෙකුගේ	-15065
▁සදාචාරය	-15066
▁පිළිගන්නේ	-15067
▁නුදුරු	-15068
▁පිළියෙල	-15069
ධය	-15070
▁පනා	-15071
▁රාළ	-15072
ම්බරයේ	-15073
▁තිරයේ	-15074
▁උපදේශන	-15075
▁ගොවිජන	-15076
ොං	-15077
විත	-15078
▁මඟුල්	-15079
▁යුදෙ	-15080
▁කරාපිටිය	-15081
▁ආශිර්වාදය	-15082
නාත්ම	-15083
▁අරමුන	-15084
▁ළඟින්	-15085
▁ගිලිහී	-15086
▁සන්දර්	-15087
▁කාලයෙන්	-15088
▁නිව්යෝක්	-15089
නකට	-15090
▁උල	-15091
▁කඩල	-15092
රයෙහි	-15093
සම්පන්න	-15094
▁අවුස්ස	-15095
▁ලක්ෂණය	-15096
▁වනජීවි	-15097
▁මහබැංකු	-15098
▁විදිහකට	-15099
▁පරීක්ෂාවට	-15100
වඩ්	-15101
▁ඉන්ඩ	-15102
▁රූකඩ	-15103
▁යාපනේ	-15104
▁දේශගුණික	-15105
ියව	-15106
නිකා	-15107
නෙන්	-15108
▁වොලිබෝල්	-15109
▁හිසේ	-15110
▁තිබේ	-15111
▁බලන්ඩ	-15112
▁ගොනුකර	-15113
▁භාෂාවේ	-15114
▁වැඩවලට	-15115
▁තීරණයකට	-15116
▁කාලකන්නි	-15117
ළඳ	-15118
සතු	-15119
වලත්	-15120
▁නිදිම	-15121
▁වාසිදායක	-15122
▁අම්බා	-15123
▁ඉන්නට	-15124
▁වාෂ්ප	-15125
▁පුද්ගලයෙකුගේ	-15126
▁සත්හඬ	-15127
චස්	-15128
කොඩි	-15129
▁පරිණත	-15130
▁නොවීමට	-15131
▁මෙනෙහි	-15132
ළී	-15133
රුවකු	-15134
▁ශාඛා	-15135
▁ගොදුරුව	-15136
▁කාලයකින්	-15137
▁පාර්ශ්වයේ	-15138
▁වැඩිවීමක්	-15139
▁පුනර්ජනනීය	-15140
මාලා	-15141
හිරි	-15142
▁අයිනේ	-15143
▁කදුළු	-15144
යින්ගෙන්	-15145
▁ටිකකින්	-15146
▁පිළිවෙත්	-15147
▁187	-15148
ගත්තොත්	-15149
▁පහරදීමට	-15150
▁හෙයකින්	-15151
▁ආරියරත්න	-15152
▁හෙමි	-15153
▁කනස්ස	-15154
▁නෙලුම්	-15155
▁විහිලු	-15156
ර්ත	-15157
▁සද්දේ	-15158
▁වෙලාවල්	-15159
▁සම්බන්ධතාවක්	-15160
▁නිවට	-15161
▁ජිවිතයේ	-15162
බය	-15163
▁පීන	-15164
▁අමුණුගම	-15165
▁මෘදුකාංගයක්	-15166
▁සිටීමේ	-15167
▁1972	-15168
▁වචනයේ	-15169
▁පල්ලියේ	-15170
▁වැඩවර්ජනය	-15171
▁නිතිය	-15172
▁විදුහල්පතිවරයා	-15173
▁නැනේ	-15174
▁මාරම	-15175
▁රජවරු	-15176
▁පින්වත්	-15177
▁හසුරුව	-15178
▁වර්ගවාදී	-15179
ිබා	-15180
▁දක්ෂතම	-15181
▁ජැක්සන්	-15182
වුණ	-15183
▁හරියන	-15184
හේන්පිට	-15185
▁කාටුන්	-15186
▁ආරම්භයක්	-15187
▁විසිතුරු	-15188
යානා	-15189
▁වාතය	-15190
රයෝජනය	-15191
▁රොහාන්	-15192
▁නෙර	-15193
▁තුනම	-15194
▁ඉල්ලලා	-15195
▁බ්ලොගය	-15196
▁තෑග්ගක්	-15197
▁ලප	-15198
▁ආතර්	-15199
▁දෙකත්	-15200
▁දුකින්	-15201
▁කසිප්පු	-15202
▁අසේල	-15203
▁සැදැ	-15204
▁ඉවරයක්	-15205
▁කපිතාන්	-15206
▁මත්කුඩු	-15207
▁ගුරුත්වා	-15208
88	-15209
ක්ෂි	-15210
යොති	-15211
▁ඇසළ	-15212
▁එතැනදී	-15213
▁දුරස්ථ	-15214
මකට	-15215
පින්	-15216
ළොස්	-15217
▁ආකාරයෙන්ම	-15218
▁61	-15219
▁ඇහුම්	-15220
▁යුතුම	-15221
▁කැඳවීම	-15222
▁ස්වල්ප	-15223
▁සැමරීම	-15224
▁පැවසීම	-15225
දුණා	-15226
▁පසුබට	-15227
▁කියවගෙන	-15228
ෙහිම	-15229
▁මස්සි	-15230
▁සද්දෙ	-15231
▁අමාරුවේ	-15232
▁අළුතින්	-15233
▁වස්තූන්	-15234
▁සූර්යයා	-15235
▁කරක	-15236
▁හපු	-15237
▁එන්ඩ	-15238
▁අනුක්	-15239
▁මගහැර	-15240
▁වෙලාවෙම	-15241
▁බිහිකර	-15242
▁කෙටිකතා	-15243
▁සිතියම්	-15244
▁සංචාරකයින්	-15245
ධිකාරී	-15246
▁බෝඩ	-15247
▁පැල්ල	-15248
▁ඉංගිරිස	-15249
▁මුළුල්ලේ	-15250
නුක	-15251
▁අදම	-15252
▁දිල්ලි	-15253
▁කරලත්	-15254
▁පවුම්	-15255
▁බැලුවාම	-15256
▁පොරොන්දුවක්	-15257
▁වීදු	-15258
▁වෙනවනේ	-15259
▁සැනින්	-15260
▁සම්බන්ධකම්	-15261
▁මූලිකත්වයෙන්	-15262
පතිය	-15263
▁යතුර	-15264
දර්ශනය	-15265
▁ලයන	-15266
▁මහලු	-15267
▁සාරි	-15268
▁රෝපණය	-15269
▁රැහැන්	-15270
▁කිරීමකි	-15271
▁වටපිටාව	-15272
▁ඉවසා	-15273
▁මාක්	-15274
▁අපවත්	-15275
▁සෙරෙ	-15276
▁ධම්මා	-15277
▁විශේෂය	-15278
▁බලන්නකො	-15279
▁මිස්ටර්	-15280
ධාරී	-15281
▁නොමිල	-15282
▁හිතුණ	-15283
▁කාගේත්	-15284
▁කියෙව්වේ	-15285
▁දුර්වලතා	-15286
▁සකල	-15287
වූවන්	-15288
ස්සන්	-15289
▁කැළණි	-15290
▁කට්ටක්	-15291
▁පාවහන්	-15292
▁පීඩනයක්	-15293
▁වියට්නාම	-15294
▁වාත	-15295
ෙකුයි	-15296
▁ගාල්	-15297
▁වතාවත්	-15298
▁සතුන්ගේ	-15299
▁නිර්වචනය	-15300
රෑ	-15301
හැම්	-15302
කින්වත්	-15303
▁අනතුරකට	-15304
▁පිටතින්	-15305
▁පරමාදර්ශ	-15306
▁අපහස	-15307
▁මාවනැ	-15308
▁සඳහාම	-15309
▁පෘථිවි	-15310
▁පවත්වන්න	-15311
▁අවසන	-15312
වසන	-15313
▁තුම	-15314
▁නිදාගෙන	-15315
▁හතුරුසිංහ	-15316
ලාවන්	-15317
▁කියනා	-15318
▁නලීන්	-15319
▁අසලදී	-15320
▁මුදුන	-15321
ෑන්ක්	-15322
▁සැරිසර	-15323
▁සෙවීමේ	-15324
චාරය	-15325
▁තාත්තගේ	-15326
▁ලියුමක්	-15327
▁ගොවිතැන්	-15328
▁පෘථිවියේ	-15329
▁මිනිස්සුත්	-15330
▁හාද	-15331
ාරියේ	-15332
▁උපමා	-15333
▁අම්මල	-15334
▁කණගාටුව	-15335
▁අමාරුවක්	-15336
▁දෙදෙනෙකුට	-15337
ෂේප	-15338
▁එවර	-15339
▁මකර	-15340
▁එයාලගෙ	-15341
ාත්මකව	-15342
▁උපකරණයක්	-15343
ණියන්	-15344
▁තුනී	-15345
▁නුඹට	-15346
▁වගබලා	-15347
▁උසාවියට	-15348
▁ලංකාවේදී	-15349
▁රිප්ලයි	-15350
▁ඇතැම්විට	-15351
වතුන්ට	-15352
▁කොමිසමක්	-15353
▁එනකල්	-15354
▁නිමාවට	-15355
▁ගැටලුවට	-15356
▁නොදන්නවා	-15357
▁අවිශ්	-15358
▁නායික	-15359
▁කුරුඳු	-15360
▁අඩවියෙන්	-15361
▁කියවන්නට	-15362
▁දෝෂාභියෝග	-15363
▁මලය	-15364
ටිකල්	-15365
▁කෙළේය	-15366
යාප්තිය	-15367
▁පිහිනුම්	-15368
ෝන	-15369
ගෝලීය	-15370
▁නූල්	-15371
▁හෘදය	-15372
කොලොත්	-15373
රහයෙන්	-15374
▁ආයතනික	-15375
▁රළ	-15376
කරගන්න	-15377
▁දුෂ්කරතා	-15378
ගණන්	-15379
රථිප	-15380
▁අවංකවම	-15381
▁පිටිපස්සේ	-15382
▁ජලාශය	-15383
▁අපිම	-15384
▁මවිත	-15385
▁මෙක්සිකෝ	-15386
▁කාය	-15387
▁දැරීම	-15388
▁මද්දුම	-15389
▁උපන්දිනය	-15390
▁තුමාට	-15391
▁වැලක්	-15392
▁නංගිලා	-15393
▁පුබුදු	-15394
▁බලවේගයක්	-15395
▁ළමයින්ගේ	-15396
▁බැක්ටීරියා	-15397
▁පාරිභෝගිකයන්	-15398
▁අන්තර්ජාලයෙන්	-15399
▁කූට	-15400
▁ශෛල	-15401
▁හාත්පස	-15402
▁දකින්නෙ	-15403
▁ගතවී	-15404
▁පැතු	-15405
▁පැදි	-15406
යෑ	-15407
▁රැග්	-15408
▁ලක්වීම	-15409
රාට	-15410
▁නුඹේ	-15411
▁පැසි	-15412
▁කඩයක්	-15413
▁කැල්	-15414
▁ඇමතුම	-15415
▁කිරීමටය	-15416
▁ජනාධිපතිතුමාට	-15417
වනදා	-15418
▁නිමවා	-15419
▁හිතනව	-15420
▁ඉතාලිය	-15421
▁දෙපිරිස	-15422
▁කිසිවෙකුටත්	-15423
ධම්ම	-15424
ානු	-15425
රේන්	-15426
▁හක්	-15427
▁සත්ත	-15428
▁ලහිරු	-15429
▁සමානු	-15430
▁සිසිල	-15431
▁පච්චයක්	-15432
ගැන්න	-15433
▁කලිසම	-15434
▁ධර්මසිරි	-15435
▁දුටුව	-15436
▁පරිවර්ථ	-15437
▁කෘමි	-15438
▁චාර්	-15439
▁වෑයම	-15440
▁ආදරයට	-15441
▁ඊළාම්	-15442
▁කොටසකි	-15443
▁දණ්ඩනය	-15444
ෙටම	-15445
▁ගියාය	-15446
▁සොල්දාදුවන්	-15447
තාප	-15448
▁පුච්ච	-15449
▁වන්නෙ	-15450
ිරිසිදු	-15451
▁දෙකඩ	-15452
▁ඇරගෙන	-15453
▁රටපුරා	-15454
▁අපේක්ෂකයින්	-15455
ල්ෆ්	-15456
▁වයසින්	-15457
▁ගනිද්දී	-15458
[...]
